unsigned char cnn_gray_32_quant_tflite[] = {
  0x1c, 0x00, 0x00, 0x00, 0x54, 0x46, 0x4c, 0x33, 0x00, 0x00, 0x12, 0x00,
  0x1c, 0x00, 0x18, 0x00, 0x14, 0x00, 0x10, 0x00, 0x0c, 0x00, 0x08, 0x00,
  0x00, 0x00, 0x04, 0x00, 0x12, 0x00, 0x00, 0x00, 0x18, 0x00, 0x00, 0x00,
  0x48, 0x00, 0x00, 0x00, 0x50, 0x32, 0x00, 0x00, 0x60, 0x32, 0x00, 0x00,
  0x90, 0x49, 0x00, 0x00, 0x03, 0x00, 0x00, 0x00, 0x01, 0x00, 0x00, 0x00,
  0x0c, 0x00, 0x00, 0x00, 0x08, 0x00, 0x0c, 0x00, 0x08, 0x00, 0x04, 0x00,
  0x08, 0x00, 0x00, 0x00, 0x10, 0x00, 0x00, 0x00, 0x04, 0x00, 0x00, 0x00,
  0x13, 0x00, 0x00, 0x00, 0x6d, 0x69, 0x6e, 0x5f, 0x72, 0x75, 0x6e, 0x74,
  0x69, 0x6d, 0x65, 0x5f, 0x76, 0x65, 0x72, 0x73, 0x69, 0x6f, 0x6e, 0x00,
  0x11, 0x00, 0x00, 0x00, 0x04, 0x32, 0x00, 0x00, 0xfc, 0x31, 0x00, 0x00,
  0x6c, 0x31, 0x00, 0x00, 0x5c, 0x30, 0x00, 0x00, 0x44, 0x30, 0x00, 0x00,
  0x2c, 0x30, 0x00, 0x00, 0x9c, 0x23, 0x00, 0x00, 0x6c, 0x20, 0x00, 0x00,
  0x5c, 0x00, 0x00, 0x00, 0x54, 0x00, 0x00, 0x00, 0x4c, 0x00, 0x00, 0x00,
  0x44, 0x00, 0x00, 0x00, 0x3c, 0x00, 0x00, 0x00, 0x34, 0x00, 0x00, 0x00,
  0x2c, 0x00, 0x00, 0x00, 0x24, 0x00, 0x00, 0x00, 0x04, 0x00, 0x00, 0x00,
  0xb2, 0xcd, 0xff, 0xff, 0x04, 0x00, 0x00, 0x00, 0x10, 0x00, 0x00, 0x00,
  0x31, 0x2e, 0x35, 0x2e, 0x30, 0x00, 0x00, 0x00, 0x00, 0x00, 0x00, 0x00,
  0x00, 0x00, 0x00, 0x00, 0xe0, 0xbd, 0xff, 0xff, 0xe4, 0xbd, 0xff, 0xff,
  0xe8, 0xbd, 0xff, 0xff, 0xec, 0xbd, 0xff, 0xff, 0xf0, 0xbd, 0xff, 0xff,
  0xf4, 0xbd, 0xff, 0xff, 0xf8, 0xbd, 0xff, 0xff, 0xea, 0xcd, 0xff, 0xff,
  0x04, 0x00, 0x00, 0x00, 0x00, 0x20, 0x00, 0x00, 0x25, 0x44, 0x15, 0x64,
  0xba, 0xc7, 0xe1, 0x07, 0xca, 0xf8, 0x46, 0xd1, 0xbf, 0xde, 0xa0, 0xd5,
  0x2d, 0x9f, 0xd8, 0x5b, 0x39, 0xb3, 0x5d, 0xfa, 0xed, 0x07, 0x5a, 0x14,
  0x02, 0x12, 0x34, 0x2e, 0x47, 0xe8, 0xdb, 0x10, 0x20, 0x23, 0x65, 0x9e,
  0x62, 0x26, 0x44, 0x04, 0x6f, 0xab, 0x0b, 0x07, 0x11, 0x16, 0x2d, 0x58,
  0x46, 0xd5, 0xe1, 0x43, 0xce, 0xb0, 0xeb, 0xdb, 0x5f, 0xe5, 0x28, 0x9f,
  0x39, 0x2a, 0xdd, 0x7f, 0xcf, 0x01, 0x2e, 0xc0, 0xd6, 0x01, 0xa6, 0xce,
  0x51, 0xfc, 0x9c, 0x4c, 0xe9, 0x2c, 0xf6, 0x6b, 0x04, 0xe9, 0x41, 0xb0,
  0xcc, 0xc2, 0xb4, 0xa1, 0xfe, 0xf5, 0xa6, 0x17, 0x4d, 0xf7, 0x49, 0xcc,
  0xa6, 0x1a, 0x02, 0x0c, 0xe5, 0xab, 0xfa, 0x24, 0x0a, 0x35, 0xfa, 0xb9,
  0x14, 0x0e, 0xe2, 0xea, 0x22, 0x50, 0xad, 0xb5, 0xe2, 0x47, 0x26, 0x1b,
  0x38, 0x37, 0x57, 0x0e, 0x70, 0x1d, 0xef, 0xa3, 0xe9, 0xfd, 0x01, 0xb6,
  0xcd, 0x0b, 0x06, 0xd6, 0x53, 0x05, 0x40, 0xc7, 0x48, 0xce, 0x68, 0x33,
  0xb4, 0xad, 0xc7, 0x2a, 0x08, 0x59, 0x42, 0xf5, 0x1d, 0x64, 0x5b, 0x40,
  0xa9, 0x74, 0x0a, 0x99, 0x0d, 0x3d, 0x96, 0x3f, 0xdf, 0xeb, 0xfc, 0x28,
  0xfa, 0xed, 0x63, 0x35, 0x53, 0xdf, 0xc1, 0x0b, 0xf9, 0xc0, 0x54, 0x61,
  0x48, 0x71, 0x54, 0x92, 0xb6, 0xcf, 0x65, 0x10, 0x61, 0xb5, 0x0b, 0xb2,
  0x58, 0xdb, 0xf6, 0x81, 0xd3, 0x1c, 0x98, 0x10, 0x51, 0x32, 0xcd, 0xaa,
  0x7a, 0x2b, 0x19, 0x1e, 0x97, 0xd1, 0x91, 0x63, 0x33, 0xe7, 0x6a, 0x63,
  0xaa, 0x41, 0x5e, 0xf4, 0xc2, 0x44, 0x0c, 0x3a, 0xc8, 0x26, 0x07, 0x49,
  0x9f, 0x46, 0xf5, 0xdc, 0x33, 0x2c, 0x6e, 0x9c, 0xa6, 0x06, 0x93, 0xda,
  0xb7, 0xbc, 0xf6, 0x37, 0x3e, 0x87, 0xfb, 0xa3, 0xe2, 0xe0, 0x28, 0x11,
  0x26, 0xfe, 0x99, 0x1c, 0xc7, 0xf3, 0xb7, 0xc1, 0xab, 0xe7, 0x5e, 0xf1,
  0x9f, 0x1f, 0xcb, 0xd8, 0x02, 0x08, 0x1b, 0x88, 0x31, 0xda, 0xa4, 0x98,
  0x31, 0x50, 0xf5, 0xb7, 0x1b, 0xcb, 0x3b, 0x9b, 0xf5, 0xf5, 0xf3, 0x8e,
  0xf6, 0x2f, 0xc5, 0xaa, 0xa5, 0x37, 0xc8, 0xd1, 0xa5, 0x3e, 0x47, 0x46,
  0xe4, 0x26, 0x46, 0xc2, 0x2b, 0xa5, 0xb0, 0xe5, 0xf8, 0xff, 0xf6, 0x97,
  0x35, 0x54, 0x5c, 0xcd, 0xb2, 0x16, 0xd2, 0xbd, 0x96, 0x0d, 0xa9, 0x9f,
  0xe9, 0xf3, 0x06, 0xc0, 0xb3, 0x24, 0x38, 0x4f, 0xd6, 0x39, 0x58, 0x81,
  0xfa, 0xfd, 0x01, 0x01, 0xfb, 0xda, 0xb8, 0x31, 0xec, 0x82, 0x43, 0x2b,
  0x06, 0xd7, 0x16, 0x47, 0xd5, 0xf4, 0x52, 0x95, 0xf2, 0xe1, 0xca, 0xb2,
  0x8b, 0x08, 0xa5, 0xda, 0x99, 0xaf, 0xea, 0x90, 0xaa, 0xbd, 0x59, 0xd6,
  0x4d, 0xb9, 0xe9, 0xaf, 0xbe, 0x03, 0x3c, 0x5e, 0x0a, 0x22, 0x1b, 0x4a,
  0xda, 0x26, 0xe5, 0x47, 0xb9, 0xe8, 0x23, 0x14, 0xe5, 0xdc, 0xdc, 0x1d,
  0x0f, 0xb4, 0xec, 0xd2, 0x35, 0xe1, 0xf9, 0x0a, 0x3f, 0x0c, 0x59, 0x7f,
  0xe1, 0xcb, 0x3a, 0x0d, 0x5a, 0xdf, 0xe1, 0x0c, 0x1b, 0x2f, 0xea, 0x00,
  0xbe, 0xc5, 0xdc, 0x48, 0xb3, 0x3a, 0xe5, 0xe4, 0x15, 0x1e, 0x02, 0x1d,
  0xf6, 0x27, 0x36, 0xc9, 0xec, 0xfe, 0xc9, 0xe5, 0x0b, 0xd6, 0xe3, 0xc8,
  0xec, 0x3f, 0xf1, 0xf1, 0x0b, 0xdf, 0xcb, 0x43, 0xdd, 0x3d, 0x2a, 0xc1,
  0x23, 0xa4, 0xc8, 0xa8, 0xc6, 0x25, 0x31, 0xdd, 0xca, 0xd0, 0x13, 0x45,
  0x25, 0xe7, 0x3b, 0x40, 0x2f, 0xd2, 0x55, 0xe1, 0x0c, 0xd7, 0x48, 0xa9,
  0x36, 0xa7, 0x54, 0xc4, 0xcb, 0xfe, 0xe5, 0xeb, 0xfc, 0xd9, 0x30, 0x0f,
  0xb8, 0xc4, 0x1b, 0x45, 0xf9, 0x02, 0x19, 0xdb, 0x4a, 0x10, 0x29, 0x20,
  0x3b, 0x4a, 0x13, 0xfc, 0x23, 0x16, 0x46, 0xc2, 0xd3, 0x4f, 0xd9, 0x47,
  0x06, 0x8c, 0x33, 0x07, 0xf0, 0xe2, 0x9b, 0x75, 0x65, 0xf1, 0x9a, 0xd8,
  0xea, 0xda, 0x97, 0x2b, 0x57, 0x11, 0xd9, 0x1f, 0xfe, 0x16, 0xff, 0x3f,
  0xac, 0x4a, 0x69, 0xa2, 0x88, 0xbe, 0x5e, 0xab, 0x08, 0xaa, 0x97, 0x49,
  0x6d, 0xaf, 0xf2, 0x5e, 0x56, 0x5e, 0x5c, 0xb6, 0x0f, 0xce, 0xc4, 0xaa,
  0xac, 0x51, 0xce, 0x20, 0x72, 0xdb, 0x00, 0xa6, 0x2f, 0x11, 0x29, 0xc9,
  0xf7, 0x21, 0x9a, 0x1e, 0x7a, 0x04, 0x01, 0x41, 0xb3, 0xc0, 0x92, 0xa5,
  0xfd, 0xd4, 0x41, 0x16, 0xb0, 0xef, 0x7f, 0x58, 0xf2, 0xd7, 0xb5, 0x21,
  0x25, 0xb8, 0xc4, 0xe6, 0x98, 0x3f, 0x5a, 0x9c, 0xf2, 0xa3, 0xaa, 0x97,
  0x53, 0x51, 0x53, 0x29, 0xa0, 0xc0, 0x6b, 0xfa, 0x56, 0xd6, 0x94, 0x81,
  0xc7, 0xc5, 0x50, 0x57, 0x0a, 0x32, 0x5f, 0x21, 0xbf, 0xae, 0x02, 0xe7,
  0xcc, 0x01, 0xf5, 0x69, 0xa6, 0x09, 0x8d, 0x2e, 0x61, 0x55, 0x41, 0xc7,
  0x36, 0xb6, 0xce, 0xdc, 0xfd, 0x38, 0x32, 0xee, 0x25, 0x3f, 0xad, 0x4c,
  0x81, 0x66, 0x4c, 0x48, 0x52, 0xf5, 0x62, 0x02, 0x4f, 0xba, 0x43, 0xb5,
  0xff, 0xeb, 0xdb, 0xca, 0xb1, 0x07, 0x06, 0xd1, 0x4a, 0xdb, 0xfa, 0x27,
  0x1f, 0x13, 0x5f, 0x10, 0x54, 0x9f, 0xfc, 0xb3, 0x20, 0xa4, 0xdd, 0xd1,
  0x43, 0xbe, 0xe5, 0x0a, 0x3c, 0xef, 0xf7, 0x49, 0x5f, 0xe6, 0xde, 0xb9,
  0x24, 0x5d, 0xe3, 0xd8, 0xa4, 0x98, 0x05, 0x91, 0xe1, 0xb5, 0xd5, 0xff,
  0x11, 0x9e, 0xc8, 0x4d, 0x28, 0xd5, 0x04, 0x64, 0x15, 0xbf, 0xb2, 0xb6,
  0xbd, 0x88, 0x5d, 0x2f, 0x01, 0x2e, 0x1c, 0xe0, 0xe6, 0x69, 0xa7, 0x3c,
  0x9a, 0x94, 0x57, 0xb3, 0xdc, 0x00, 0x3d, 0x59, 0x36, 0xbc, 0x4e, 0x95,
  0xb3, 0xce, 0x23, 0xa0, 0x30, 0xa8, 0x4e, 0x32, 0x69, 0xab, 0x1a, 0x29,
  0xff, 0x08, 0xed, 0x03, 0xc2, 0x59, 0xb4, 0x39, 0xee, 0x5c, 0x48, 0xae,
  0xa0, 0x4c, 0x42, 0x4b, 0xcf, 0xd2, 0x14, 0x5d, 0x77, 0xa6, 0x06, 0xcc,
  0xe5, 0xd3, 0xe5, 0xf8, 0xea, 0xba, 0x0d, 0x48, 0xb7, 0x3e, 0x08, 0xee,
  0x72, 0x01, 0xb2, 0xe9, 0xcd, 0xaf, 0xbb, 0x35, 0x56, 0xf5, 0x8c, 0x2f,
  0x9b, 0xb0, 0xdf, 0xe1, 0xa0, 0x47, 0x71, 0xda, 0xca, 0xd5, 0xc6, 0x8f,
  0x32, 0x3e, 0x2e, 0xbc, 0xf2, 0xd9, 0xb1, 0xb4, 0x2f, 0xec, 0x1e, 0x26,
  0x67, 0xf3, 0x30, 0x5b, 0x9d, 0x0d, 0x3f, 0x16, 0x69, 0x11, 0x07, 0x42,
  0xee, 0x36, 0x00, 0xea, 0x7c, 0x5c, 0xa2, 0x6e, 0x6b, 0xbc, 0x3d, 0xe7,
  0xb5, 0x60, 0x7f, 0xed, 0xbf, 0x8f, 0x37, 0xf1, 0xc5, 0xf0, 0x11, 0xe6,
  0x43, 0xca, 0xc0, 0x08, 0xc7, 0x2f, 0x2b, 0xee, 0xac, 0xb4, 0xfa, 0x3f,
  0x6c, 0xa9, 0xa3, 0x32, 0x29, 0xcd, 0x04, 0xde, 0x2f, 0xa2, 0x40, 0xe2,
  0x64, 0x42, 0x65, 0x1b, 0xee, 0x1e, 0x21, 0x40, 0x66, 0xc6, 0xc3, 0x33,
  0x4d, 0x57, 0xe3, 0xf1, 0xd8, 0x39, 0x5b, 0x15, 0x94, 0xc5, 0x41, 0xb4,
  0x5d, 0xe8, 0x6a, 0x45, 0x99, 0xba, 0xf9, 0x3c, 0x66, 0x14, 0x2f, 0xe5,
  0xf4, 0x6c, 0x10, 0xd5, 0x57, 0x21, 0xc2, 0xa9, 0x9d, 0x41, 0xdd, 0xce,
  0x71, 0xe2, 0x37, 0x04, 0x4b, 0x43, 0x22, 0xf1, 0xe0, 0x33, 0xb7, 0x01,
  0x5d, 0x98, 0x2e, 0x44, 0xe1, 0x5e, 0xfd, 0xe8, 0x1d, 0xe1, 0x1b, 0xcb,
  0xf4, 0x7f, 0xd9, 0x02, 0xcc, 0xdb, 0xd1, 0xe2, 0x08, 0xf6, 0x41, 0x01,
  0xc3, 0xbe, 0x2a, 0x39, 0x67, 0xec, 0xdf, 0x9b, 0x07, 0x36, 0x2e, 0x38,
  0x66, 0xe1, 0xc8, 0xb6, 0x9d, 0x52, 0xa4, 0x09, 0x20, 0x66, 0xb5, 0xdf,
  0xec, 0xc6, 0x8a, 0xf0, 0x74, 0x14, 0x29, 0xee, 0xcc, 0x40, 0x16, 0x15,
  0x98, 0x6c, 0x27, 0xc4, 0x7f, 0xc8, 0xd6, 0xd3, 0x01, 0xdd, 0xc8, 0xe8,
  0xee, 0xeb, 0x3e, 0xc4, 0x48, 0x38, 0x00, 0x6a, 0xd7, 0x13, 0x1e, 0xea,
  0xd3, 0xb3, 0xb9, 0xe4, 0x1d, 0xc6, 0xf5, 0xe4, 0x27, 0x0e, 0x67, 0xc6,
  0x3a, 0x26, 0x09, 0xe3, 0xde, 0xbb, 0x43, 0xb9, 0x2c, 0xc9, 0xb4, 0xff,
  0x68, 0xfd, 0x21, 0x93, 0xfb, 0xe9, 0x5e, 0xd9, 0x17, 0xd8, 0xa7, 0xcc,
  0x59, 0xe9, 0x04, 0xfd, 0xb2, 0x46, 0x32, 0x6d, 0xc8, 0x28, 0x49, 0xd7,
  0xb9, 0xbb, 0x05, 0xfd, 0x11, 0x0b, 0x52, 0xc8, 0x16, 0x5d, 0x28, 0x07,
  0x0b, 0x29, 0x45, 0x08, 0xeb, 0xc7, 0xe7, 0xeb, 0x55, 0xd6, 0x1d, 0xc8,
  0xff, 0xd0, 0x52, 0xf9, 0xe9, 0xd9, 0x5a, 0x2f, 0xb4, 0x0e, 0x34, 0x99,
  0x1f, 0x5e, 0x97, 0xb9, 0x22, 0xf8, 0xfd, 0xa7, 0xf6, 0x22, 0x1f, 0x9c,
  0x3c, 0xde, 0xfc, 0xc4, 0xc0, 0x40, 0x1b, 0x4b, 0x02, 0xff, 0xee, 0xbc,
  0x49, 0x4b, 0x37, 0xe7, 0x62, 0x37, 0x0a, 0xe3, 0x2f, 0xf7, 0xbe, 0xe6,
  0xf2, 0x06, 0xd6, 0xa0, 0x29, 0xb1, 0xe1, 0x46, 0xb0, 0x0e, 0x40, 0x61,
  0xb9, 0x43, 0xca, 0x53, 0xeb, 0xd6, 0xc3, 0x9c, 0x7f, 0x06, 0x2c, 0x4c,
  0x5e, 0x1d, 0xcd, 0x3c, 0xb2, 0x5f, 0x4c, 0xfb, 0xf1, 0xba, 0xad, 0x46,
  0x61, 0xc0, 0x62, 0xef, 0xbd, 0x36, 0x41, 0x38, 0xfe, 0xed, 0x32, 0x58,
  0xf7, 0xea, 0xb3, 0x3a, 0x18, 0xf2, 0x1c, 0xa8, 0x2e, 0xf7, 0x59, 0xaf,
  0x3c, 0x46, 0x25, 0xc3, 0xe7, 0x57, 0xf0, 0xa0, 0x02, 0x3e, 0xee, 0x5c,
  0x13, 0xf3, 0x03, 0x51, 0xe0, 0xb0, 0x26, 0xcc, 0x02, 0xa8, 0x20, 0x2d,
  0x0b, 0xb0, 0x02, 0xc2, 0xa6, 0x2d, 0xde, 0x03, 0xd5, 0x30, 0xe9, 0x35,
  0xe6, 0xdb, 0xb6, 0x66, 0xff, 0xa4, 0xae, 0xb1, 0x20, 0xf2, 0xd2, 0x23,
  0x3b, 0xa9, 0x59, 0x67, 0xd2, 0x98, 0xb4, 0x94, 0x43, 0x3b, 0x06, 0x49,
  0x39, 0xd3, 0x6a, 0xf8, 0x55, 0xe3, 0x4b, 0x19, 0xd0, 0x0a, 0x21, 0xfa,
  0xa3, 0xd2, 0x13, 0x3e, 0x3e, 0x2e, 0xdb, 0x0b, 0x54, 0xe9, 0xe8, 0x1f,
  0xf9, 0xca, 0xca, 0xd8, 0x81, 0xd5, 0x47, 0x09, 0x9c, 0xb3, 0x98, 0xc9,
  0x28, 0x5a, 0x44, 0x4b, 0x1a, 0xa6, 0xef, 0x91, 0x4f, 0x65, 0x3c, 0x1d,
  0x15, 0xad, 0x1a, 0xfb, 0xe7, 0x8b, 0xf2, 0x97, 0xb6, 0xeb, 0x52, 0xa7,
  0xb0, 0x65, 0x07, 0xdf, 0xd8, 0xc4, 0x24, 0xa7, 0xac, 0xf4, 0x00, 0xf3,
  0x90, 0x05, 0x4d, 0x5d, 0x49, 0xcf, 0xe7, 0xfc, 0xa8, 0x40, 0x1e, 0xcd,
  0x47, 0xb8, 0xf4, 0xcd, 0x30, 0x3b, 0xde, 0xfb, 0x8e, 0xf4, 0xcb, 0xe2,
  0xaa, 0x8f, 0xa8, 0xd5, 0xf4, 0x63, 0x58, 0x22, 0xb4, 0xa4, 0x33, 0x2e,
  0xf9, 0x02, 0x64, 0xc5, 0x02, 0xf6, 0x0f, 0x19, 0x15, 0x40, 0xf8, 0xc5,
  0xd3, 0x92, 0xa0, 0xe1, 0xeb, 0x2c, 0xbc, 0x7d, 0x33, 0xf3, 0xf0, 0xfb,
  0x4e, 0x34, 0xcc, 0x9e, 0xf0, 0xb5, 0xc7, 0x27, 0x82, 0xf7, 0x4a, 0x8b,
  0x7e, 0xb9, 0x3e, 0xf7, 0x97, 0x1d, 0xc2, 0xbd, 0x44, 0x13, 0xd6, 0x77,
  0x82, 0x75, 0xe1, 0xff, 0xa6, 0xf0, 0x1e, 0x62, 0xbd, 0x97, 0x5e, 0x0f,
  0x35, 0x60, 0x37, 0x51, 0xcf, 0xb3, 0x3c, 0x34, 0xec, 0xae, 0x67, 0x85,
  0x48, 0xa8, 0xcb, 0xce, 0x81, 0x6b, 0xc3, 0x5e, 0xa5, 0x9b, 0x4e, 0x45,
  0xb7, 0xcf, 0x39, 0xcb, 0x1b, 0xda, 0x33, 0xf6, 0x0f, 0xbe, 0x44, 0x75,
  0x97, 0xcc, 0x45, 0xec, 0xa9, 0xa5, 0x26, 0xe3, 0xda, 0x30, 0x1a, 0x9b,
  0xee, 0x3a, 0xf7, 0x26, 0xd9, 0x67, 0xc8, 0x40, 0xf7, 0x17, 0xea, 0x07,
  0xa4, 0x18, 0x8f, 0x0a, 0x0d, 0xc9, 0xb6, 0xf7, 0x3f, 0x57, 0xc3, 0x41,
  0x98, 0x44, 0x18, 0x93, 0x65, 0xd7, 0xf1, 0xed, 0x93, 0x93, 0xe8, 0x2e,
  0x37, 0x94, 0xf2, 0x23, 0x42, 0x00, 0xa1, 0x50, 0x4a, 0x54, 0xb1, 0x44,
  0x07, 0xb8, 0x35, 0xac, 0xea, 0xc9, 0x40, 0x53, 0x40, 0xf9, 0x07, 0xeb,
  0x00, 0xf0, 0xe1, 0x34, 0x4d, 0x06, 0x81, 0xd7, 0x35, 0xba, 0xb8, 0x06,
  0x0a, 0x1e, 0xeb, 0xbf, 0x0f, 0x11, 0xd8, 0x35, 0x1c, 0xe4, 0xe3, 0xb6,
  0x51, 0xef, 0x41, 0xb8, 0xea, 0x27, 0xb3, 0x8e, 0xa8, 0x8a, 0xf6, 0x61,
  0x38, 0xa6, 0x84, 0xde, 0x1d, 0x1d, 0x0f, 0x42, 0x9f, 0xe3, 0x40, 0x37,
  0x36, 0x53, 0x97, 0xea, 0xcb, 0x2d, 0xe7, 0x5b, 0xd1, 0xce, 0x0f, 0x00,
  0xde, 0xf0, 0x25, 0x36, 0x2b, 0xa9, 0x67, 0x5f, 0xee, 0x12, 0x18, 0xdd,
  0x54, 0xd6, 0xb4, 0x39, 0xcf, 0xad, 0x35, 0xbe, 0x9f, 0xcf, 0xd8, 0xd5,
  0xee, 0x2a, 0x04, 0x27, 0xf0, 0xe1, 0x60, 0x6a, 0xce, 0x09, 0xd6, 0x49,
  0x97, 0x05, 0x41, 0x66, 0x0b, 0x4c, 0xb2, 0x85, 0x20, 0xe6, 0x21, 0x33,
  0xe1, 0xb5, 0xd0, 0xeb, 0x28, 0x06, 0xbf, 0xc3, 0xe4, 0xbf, 0x0e, 0xd3,
  0xa1, 0x56, 0xc1, 0xdd, 0x37, 0x4a, 0xbb, 0xb5, 0xcd, 0xf7, 0xc3, 0xb4,
  0xb8, 0x5b, 0xa9, 0xaa, 0x22, 0x47, 0x60, 0xc5, 0xd6, 0xf2, 0x24, 0x10,
  0xb6, 0x04, 0xec, 0xb1, 0x29, 0x5e, 0xc5, 0xe1, 0xa6, 0xf6, 0xf3, 0xd7,
  0xc3, 0xfd, 0x5b, 0x52, 0xe2, 0x12, 0x02, 0xdc, 0x2a, 0x0f, 0x06, 0xcc,
  0x10, 0x1e, 0x29, 0x3f, 0xba, 0x36, 0x3b, 0x51, 0x25, 0x39, 0x06, 0xb2,
  0x25, 0x0d, 0xd7, 0x3c, 0x39, 0x4e, 0x46, 0xcf, 0x17, 0xf3, 0x1c, 0xff,
  0x1e, 0x5d, 0xab, 0xc1, 0xa0, 0x4c, 0x41, 0x3f, 0x07, 0x5c, 0x4e, 0x54,
  0x40, 0x9f, 0xea, 0xda, 0xf2, 0xa0, 0x05, 0x0a, 0x37, 0x13, 0xe3, 0x1a,
  0x62, 0x28, 0xd2, 0x35, 0xbd, 0xcc, 0x19, 0x24, 0x0b, 0x7f, 0x48, 0x10,
  0x29, 0x3a, 0xc3, 0xe3, 0x32, 0x2e, 0xc9, 0x49, 0xe2, 0xa3, 0xbc, 0xa1,
  0x49, 0x8f, 0x2f, 0x01, 0x5b, 0x4a, 0xaf, 0x58, 0xca, 0x6e, 0x69, 0xe0,
  0x81, 0xa0, 0xb6, 0x18, 0x50, 0xd2, 0xb0, 0x38, 0x2f, 0x5e, 0x06, 0xfa,
  0x34, 0x25, 0x45, 0x85, 0xca, 0xc0, 0x98, 0x02, 0x43, 0x4a, 0xa6, 0x60,
  0x6b, 0xdc, 0xa1, 0x43, 0x0b, 0x33, 0xe0, 0xd1, 0x27, 0x89, 0x38, 0xd8,
  0x55, 0x9c, 0xb9, 0x34, 0x4b, 0x33, 0x3b, 0x8b, 0x1e, 0x5c, 0x30, 0xc6,
  0x60, 0xf6, 0xc1, 0x2e, 0x55, 0x8c, 0x38, 0x25, 0x88, 0xe4, 0x69, 0x5d,
  0x63, 0xf3, 0x97, 0x50, 0xc9, 0x65, 0xba, 0x8d, 0x11, 0x9b, 0xaa, 0xe2,
  0xe6, 0xab, 0xf0, 0x32, 0x86, 0x4d, 0xdf, 0xe6, 0x46, 0x91, 0x5c, 0x5d,
  0x5b, 0x36, 0x22, 0xec, 0x5b, 0x19, 0xc1, 0xed, 0x36, 0xab, 0x1e, 0x4c,
  0xc5, 0x70, 0x02, 0xe2, 0xf0, 0xb5, 0x62, 0xca, 0xcd, 0x62, 0xb4, 0xda,
  0x01, 0xfe, 0x69, 0xd8, 0xc0, 0xa2, 0xc2, 0x5d, 0xb4, 0xd2, 0x58, 0x39,
  0xb3, 0xd1, 0x4e, 0x5e, 0x9e, 0xcf, 0xb8, 0xe2, 0xa4, 0xc7, 0x28, 0xdc,
  0xf7, 0xff, 0x5c, 0xed, 0x1a, 0xb8, 0x1d, 0x48, 0x0c, 0xb8, 0x49, 0x67,
  0x60, 0xb3, 0xc9, 0x0e, 0x6a, 0x87, 0x17, 0x64, 0x1a, 0xea, 0x8e, 0xc6,
  0xe3, 0x2f, 0xd1, 0xe8, 0x42, 0x34, 0xc6, 0xe6, 0x1a, 0xb3, 0xae, 0x54,
  0xe9, 0xc4, 0xc6, 0xf3, 0xe3, 0x81, 0x02, 0xd1, 0x6a, 0xc8, 0x02, 0x6f,
  0x5f, 0x16, 0xd3, 0x2f, 0x95, 0xba, 0xc0, 0x5d, 0xb5, 0x65, 0x1e, 0xc1,
  0x03, 0xa2, 0x55, 0x5f, 0xb9, 0xda, 0xe7, 0x41, 0x3b, 0x64, 0x42, 0x17,
  0xad, 0x4d, 0x02, 0x58, 0x2a, 0xa1, 0x72, 0xd9, 0x6d, 0xf7, 0x60, 0xc7,
  0x2b, 0x20, 0x57, 0xb8, 0x0d, 0x93, 0xaa, 0x19, 0xc4, 0xfe, 0xb0, 0xd3,
  0xa3, 0x9c, 0x21, 0x23, 0x00, 0x1d, 0x5b, 0x2c, 0x21, 0xeb, 0xcd, 0xdb,
  0x27, 0x05, 0x5e, 0x04, 0xb7, 0x4a, 0x64, 0x38, 0x45, 0xd6, 0xb7, 0x41,
  0xd1, 0xbd, 0x33, 0xb6, 0xd4, 0xc7, 0x15, 0xc3, 0xe0, 0x52, 0x4b, 0x04,
  0xce, 0xa4, 0xd0, 0xfa, 0xc7, 0x09, 0xef, 0x6a, 0x1f, 0x63, 0xad, 0x30,
  0x61, 0x46, 0xcc, 0x65, 0x4e, 0x1c, 0x43, 0xf0, 0xb0, 0xa0, 0xc3, 0x26,
  0xd8, 0x2b, 0x08, 0xc5, 0xf5, 0x25, 0x33, 0x57, 0x07, 0xbb, 0x2c, 0x18,
  0xda, 0xea, 0xf8, 0x0b, 0xa4, 0xf3, 0x25, 0x30, 0x0e, 0x31, 0xfa, 0xe8,
  0xbc, 0x46, 0x3f, 0xe8, 0x48, 0xe7, 0x31, 0x7f, 0xcf, 0x09, 0xb2, 0x06,
  0x23, 0xbd, 0xc7, 0x2a, 0x73, 0x48, 0xce, 0xf4, 0xda, 0x32, 0xe5, 0x16,
  0x1a, 0x1d, 0xde, 0xfa, 0x65, 0x35, 0xc8, 0xd6, 0x1f, 0x3f, 0x27, 0x1c,
  0x30, 0xab, 0xc7, 0x38, 0xb8, 0x35, 0x3a, 0x02, 0x25, 0x25, 0xf8, 0x0a,
  0x9b, 0x28, 0xfa, 0xb2, 0x39, 0x3c, 0xa5, 0x5f, 0xb6, 0xf4, 0x96, 0x50,
  0xdc, 0x2e, 0xa0, 0xd4, 0xc5, 0x03, 0xcc, 0x25, 0x5e, 0x1f, 0xb8, 0x08,
  0x01, 0xdb, 0xba, 0xbd, 0xce, 0xe7, 0x47, 0xac, 0xe1, 0xe6, 0x5c, 0x6e,
  0x28, 0x17, 0xad, 0x6e, 0xf2, 0x87, 0xc4, 0x08, 0xbe, 0x29, 0x01, 0x23,
  0x3b, 0xfe, 0xdf, 0xa7, 0x73, 0x2b, 0xb0, 0x8c, 0x6a, 0x50, 0xc3, 0xdb,
  0x2b, 0xbe, 0xdd, 0xd9, 0xc7, 0xd5, 0xc4, 0xa2, 0x1a, 0x9e, 0xd2, 0x9f,
  0x0c, 0x40, 0xd2, 0xb2, 0xb9, 0x1b, 0xa1, 0xda, 0xf7, 0x48, 0xc0, 0x92,
  0x9d, 0xc6, 0xdc, 0x94, 0x33, 0x3a, 0x62, 0x3a, 0xea, 0x45, 0x16, 0xa4,
  0x39, 0xaf, 0x12, 0xbe, 0x81, 0x0d, 0xe2, 0xfc, 0x1d, 0xc2, 0x4d, 0x41,
  0x02, 0xde, 0xd4, 0xf9, 0xdd, 0xed, 0x0b, 0x2a, 0x00, 0xcf, 0xdc, 0x20,
  0x94, 0x63, 0xe5, 0x39, 0x95, 0xc8, 0x2f, 0xbf, 0x90, 0x62, 0x5a, 0xda,
  0xb3, 0x15, 0xf5, 0x03, 0x17, 0x32, 0x4e, 0x5d, 0xb9, 0x37, 0x06, 0xd6,
  0xff, 0xf1, 0x96, 0xac, 0x35, 0xab, 0x38, 0xa5, 0xdb, 0xd9, 0x33, 0x03,
  0x0f, 0xd8, 0x97, 0xef, 0x1a, 0xe8, 0x4a, 0x29, 0xe0, 0x42, 0xea, 0xf3,
  0x4b, 0x1a, 0xf7, 0x19, 0x95, 0x50, 0xdd, 0x59, 0x4c, 0xbf, 0x1b, 0x04,
  0x41, 0xbb, 0x8a, 0x4e, 0x5b, 0x23, 0x02, 0x4c, 0xe5, 0xe5, 0x35, 0xa9,
  0xdd, 0xd2, 0x38, 0x43, 0xea, 0x26, 0x30, 0xfe, 0x39, 0x96, 0xe9, 0x2d,
  0x0d, 0x88, 0xea, 0x3e, 0xe3, 0xe4, 0x00, 0x0c, 0x5f, 0x07, 0xdf, 0x7a,
  0x7f, 0xac, 0xbf, 0xeb, 0x67, 0x16, 0x53, 0xb6, 0x4e, 0x45, 0x03, 0x47,
  0xb6, 0xd7, 0x60, 0x17, 0xfc, 0x3a, 0xfc, 0x1e, 0xd5, 0xf3, 0x0e, 0xf0,
  0x5a, 0x5e, 0x55, 0x2d, 0x39, 0x04, 0x52, 0x25, 0xe4, 0x22, 0xa0, 0x9e,
  0x78, 0xa2, 0xb6, 0x9b, 0xd2, 0xe2, 0xb1, 0x45, 0x53, 0xaf, 0x6f, 0x90,
  0x5c, 0xc3, 0x2d, 0x54, 0xf4, 0x5c, 0x6a, 0x8f, 0x53, 0x41, 0x8c, 0xbd,
  0xb1, 0x94, 0xfb, 0xa4, 0x64, 0xfb, 0xe2, 0x0b, 0x68, 0xde, 0x30, 0xbe,
  0xc5, 0xb3, 0xa1, 0xf7, 0x32, 0x71, 0x23, 0x3c, 0xe8, 0x48, 0x50, 0xa8,
  0xa1, 0x6e, 0xfe, 0xa4, 0x25, 0x5c, 0xc1, 0xef, 0x45, 0x4c, 0x50, 0x54,
  0xb5, 0x86, 0xdf, 0xcf, 0x3f, 0xdb, 0xa2, 0xf9, 0x81, 0xbe, 0x20, 0xc6,
  0xfa, 0x94, 0x5b, 0x24, 0x27, 0x43, 0xfb, 0x05, 0x4c, 0x8d, 0xce, 0xfe,
  0x1d, 0x3d, 0x5e, 0x47, 0x3f, 0xc3, 0xa5, 0x69, 0x37, 0x36, 0xee, 0xbf,
  0xb8, 0xd9, 0x09, 0x35, 0xe8, 0x1c, 0x4e, 0x32, 0x1e, 0xe4, 0x4d, 0xa2,
  0x68, 0xec, 0xea, 0xee, 0xc1, 0xa1, 0x2a, 0x4f, 0x7e, 0xc9, 0x1a, 0xcb,
  0x34, 0x38, 0x63, 0x0a, 0x1c, 0xd5, 0xb2, 0xdc, 0x9e, 0x11, 0x5b, 0x16,
  0xc2, 0x23, 0xec, 0xef, 0x56, 0xb1, 0x47, 0x4c, 0x96, 0x21, 0x9c, 0xad,
  0x4b, 0x34, 0xb4, 0x02, 0x6c, 0x21, 0x55, 0xfc, 0x11, 0xdb, 0xce, 0xf8,
  0xae, 0x4f, 0xb0, 0xe7, 0x16, 0x05, 0x70, 0xaf, 0xd3, 0xc6, 0x13, 0xc7,
  0x2e, 0xf7, 0xb9, 0xad, 0x54, 0xbd, 0x3f, 0x13, 0xa0, 0xa5, 0x4a, 0x2e,
  0x9e, 0x00, 0xd7, 0x2b, 0xc4, 0xe1, 0x34, 0x2b, 0x93, 0x1d, 0xeb, 0xa7,
  0xf5, 0x1c, 0x0c, 0xb3, 0xe5, 0xd0, 0x5b, 0xb8, 0xc7, 0x5f, 0x81, 0xaf,
  0x1f, 0xf3, 0x9d, 0xed, 0x9d, 0x12, 0xbf, 0xa2, 0x76, 0x04, 0x29, 0xcc,
  0x0b, 0xcd, 0xce, 0xe8, 0x5d, 0x47, 0x64, 0xe5, 0x32, 0x31, 0xaf, 0xc1,
  0xd2, 0x05, 0x5a, 0x0b, 0x79, 0x49, 0x94, 0xd7, 0x3f, 0x38, 0xc0, 0xe2,
  0x40, 0x40, 0xee, 0xc1, 0xf9, 0x10, 0x3f, 0xae, 0x0c, 0x48, 0x9c, 0x0e,
  0xb1, 0x1f, 0x3f, 0x4a, 0xd0, 0x32, 0x3d, 0x19, 0x9f, 0x59, 0x9b, 0xa0,
  0xbc, 0x0c, 0xd6, 0x34, 0xf1, 0xb7, 0x1d, 0x1b, 0xb9, 0x4d, 0x74, 0x81,
  0x8b, 0xed, 0x3a, 0xf3, 0xfd, 0xb7, 0x49, 0x3e, 0x20, 0x8b, 0x27, 0x56,
  0x02, 0x1f, 0xe9, 0x59, 0xfa, 0xf7, 0xe9, 0x61, 0x3a, 0x2b, 0x11, 0x0c,
  0x4d, 0xc1, 0xea, 0x26, 0xde, 0xe1, 0xb5, 0xd1, 0x5c, 0xc4, 0x3d, 0x9d,
  0x66, 0xbb, 0xcd, 0xaf, 0x60, 0xa6, 0xfd, 0xa8, 0x5e, 0x5c, 0x00, 0x3d,
  0xd4, 0xb9, 0xc6, 0xcc, 0xae, 0x5e, 0xeb, 0xda, 0x29, 0x09, 0xe4, 0x58,
  0xe0, 0x8f, 0x75, 0xd8, 0xef, 0x15, 0x5e, 0x10, 0x36, 0xd4, 0xf1, 0x06,
  0x0a, 0x17, 0x3c, 0x5a, 0x31, 0xe5, 0xf8, 0x4c, 0xb8, 0xf4, 0xf5, 0xe8,
  0xcc, 0x1d, 0xa5, 0x3f, 0xe9, 0x0f, 0xf1, 0xfc, 0xfa, 0x9b, 0xfd, 0xaa,
  0xbb, 0xbc, 0x01, 0xc1, 0x29, 0xa5, 0x12, 0x6b, 0x68, 0xb3, 0xaf, 0x72,
  0xf3, 0xbc, 0x18, 0x02, 0x7f, 0x3b, 0xdc, 0xd1, 0xed, 0xc5, 0x2b, 0x1d,
  0xb0, 0x63, 0xbd, 0xaa, 0xa4, 0x6b, 0xd9, 0xf9, 0x64, 0x30, 0x47, 0xae,
  0x43, 0x3a, 0xb6, 0x1c, 0x2d, 0xff, 0x3a, 0x28, 0x41, 0x1b, 0x0c, 0xfb,
  0xaa, 0x1d, 0x61, 0x31, 0xbc, 0x5a, 0x65, 0xad, 0x0e, 0x20, 0x40, 0xee,
  0xc1, 0xb9, 0xf6, 0xf7, 0x17, 0x4e, 0xdc, 0xf9, 0xc1, 0xb6, 0x31, 0xb6,
  0x71, 0x10, 0xdd, 0x57, 0x1d, 0x5e, 0x3d, 0x04, 0x67, 0xdc, 0x40, 0xaa,
  0x25, 0xc7, 0x00, 0xa3, 0x51, 0xb6, 0x45, 0xf2, 0x41, 0x0b, 0xb8, 0xda,
  0xad, 0x65, 0xdf, 0xd3, 0x1a, 0xc5, 0x22, 0xda, 0xc7, 0x3b, 0x34, 0xc2,
  0x42, 0xaf, 0x1a, 0x02, 0x0c, 0x17, 0xf7, 0x4f, 0xff, 0xea, 0x9c, 0x1c,
  0xc0, 0x02, 0xe6, 0xa2, 0x15, 0x36, 0xe7, 0x64, 0xda, 0x59, 0x60, 0x06,
  0xce, 0xd9, 0xd2, 0x10, 0x11, 0xf4, 0xf9, 0xcb, 0xd1, 0x16, 0xab, 0xe3,
  0x5c, 0x08, 0x5a, 0x06, 0x49, 0x90, 0x38, 0x47, 0x51, 0xd1, 0xea, 0x47,
  0xfb, 0x19, 0x81, 0xdf, 0x4d, 0xbf, 0x18, 0x3a, 0x6c, 0xdd, 0xec, 0x56,
  0x79, 0x4d, 0x3b, 0x35, 0xa5, 0x44, 0x51, 0xb5, 0x6b, 0x31, 0xb8, 0x56,
  0x30, 0x68, 0x4d, 0x4f, 0x6b, 0x1b, 0x9f, 0xdb, 0xf9, 0x9b, 0xb8, 0x0f,
  0x14, 0xdd, 0xba, 0x48, 0x9d, 0xfa, 0xa8, 0x54, 0xce, 0x6a, 0x1b, 0x61,
  0xf4, 0x3b, 0x55, 0xd1, 0x1a, 0x57, 0x49, 0xeb, 0x2a, 0x08, 0x4e, 0x55,
  0x08, 0x40, 0xc4, 0x92, 0xc9, 0x16, 0xf2, 0xef, 0xce, 0xb0, 0x22, 0x40,
  0x58, 0x96, 0x8a, 0xbd, 0x3f, 0x4d, 0x46, 0x4b, 0x4c, 0x0f, 0xd7, 0x99,
  0x2f, 0xc5, 0xa0, 0x96, 0x29, 0xf4, 0x44, 0x46, 0xd5, 0xdd, 0x24, 0x91,
  0x63, 0xa3, 0xe2, 0x00, 0xb6, 0xf8, 0x6a, 0x0c, 0x9a, 0x04, 0x42, 0xae,
  0x58, 0x03, 0x61, 0xad, 0x75, 0x3b, 0x90, 0xde, 0x46, 0x27, 0xbf, 0xa9,
  0xcb, 0xe6, 0xff, 0xe0, 0xd3, 0x99, 0x1f, 0x26, 0xd3, 0x2f, 0x1f, 0xd4,
  0xb1, 0x5b, 0xdf, 0x15, 0xff, 0xd7, 0x52, 0x42, 0x11, 0x5c, 0x3b, 0x5c,
  0x09, 0xcb, 0x3f, 0x11, 0xdb, 0x32, 0xb6, 0x40, 0x81, 0xc0, 0x53, 0x4a,
  0x4c, 0xc5, 0x2e, 0x50, 0xfd, 0x2f, 0xcf, 0x43, 0x61, 0xfb, 0xb5, 0x3f,
  0x2a, 0x0c, 0xc3, 0xcd, 0x5c, 0xef, 0x4b, 0x09, 0xe2, 0xb1, 0xae, 0x3e,
  0x33, 0x36, 0x54, 0xf7, 0xf0, 0xdf, 0xbf, 0x45, 0x4f, 0x9e, 0xfe, 0xc2,
  0x58, 0x10, 0xf3, 0x42, 0xdc, 0xf2, 0x29, 0xa7, 0x10, 0xbf, 0x50, 0x28,
  0xe3, 0x05, 0xc7, 0xe8, 0xf4, 0x56, 0x11, 0x41, 0x19, 0x96, 0xa5, 0xbb,
  0x1a, 0x05, 0xd8, 0x29, 0x1f, 0x8e, 0x1d, 0x1f, 0x2d, 0x4b, 0x25, 0x01,
  0xeb, 0xa6, 0x08, 0xbc, 0xef, 0x0e, 0x45, 0x0e, 0x01, 0x55, 0xe8, 0x1d,
  0xfb, 0x42, 0x12, 0xc8, 0x4d, 0x38, 0x98, 0x03, 0x61, 0x03, 0x7c, 0xdf,
  0x44, 0xec, 0xf4, 0x2f, 0xef, 0x3a, 0xd0, 0x99, 0x36, 0xdc, 0xae, 0x68,
  0xf6, 0x3b, 0x37, 0x34, 0x1d, 0xf1, 0x35, 0x17, 0x88, 0x8d, 0xca, 0x98,
  0x3d, 0x60, 0xfd, 0x12, 0xf1, 0xc1, 0x96, 0x53, 0xcc, 0x42, 0x29, 0x97,
  0xd1, 0xd2, 0x6b, 0xc6, 0x9b, 0xee, 0x81, 0x37, 0x6c, 0xbe, 0xb8, 0x0d,
  0x07, 0x2f, 0xc5, 0xbe, 0xf7, 0xd3, 0xb5, 0xb1, 0xd5, 0x07, 0x2c, 0x88,
  0x88, 0x2d, 0x58, 0xd4, 0xd0, 0x65, 0x1c, 0xfd, 0x68, 0xd6, 0xcb, 0x54,
  0x3e, 0xd8, 0xb2, 0x62, 0x92, 0x5f, 0x96, 0xd0, 0x49, 0xea, 0x46, 0x4d,
  0x50, 0x3b, 0x1d, 0xd5, 0x90, 0x53, 0xf6, 0x52, 0xa6, 0x29, 0x53, 0x62,
  0xde, 0xb5, 0x17, 0xd5, 0xb2, 0xe5, 0x9e, 0x08, 0x5e, 0x38, 0x26, 0x81,
  0x57, 0x54, 0x60, 0x7a, 0xe7, 0x41, 0xa5, 0xed, 0xf0, 0xbf, 0x41, 0x35,
  0xf1, 0x91, 0x9f, 0x26, 0xea, 0xe6, 0x74, 0xd4, 0x23, 0x07, 0xf8, 0x61,
  0x73, 0xc6, 0xed, 0x0f, 0xc5, 0xd6, 0x3a, 0x56, 0x22, 0x5f, 0x20, 0xfb,
  0xbb, 0xfa, 0xe9, 0x28, 0xf5, 0x11, 0x4a, 0x47, 0x04, 0x0c, 0x0b, 0x50,
  0x54, 0x8e, 0xc8, 0x49, 0xad, 0x61, 0x50, 0xf3, 0xb0, 0xe7, 0x9e, 0x37,
  0xac, 0x39, 0x23, 0xea, 0xa6, 0x49, 0xea, 0xb3, 0xcc, 0x95, 0x7d, 0x68,
  0xfa, 0xb0, 0x0c, 0xe1, 0x4c, 0xbb, 0x69, 0x36, 0x21, 0x1d, 0xe5, 0x50,
  0x0c, 0xe0, 0xeb, 0x5b, 0x3b, 0x1b, 0x32, 0x30, 0x5f, 0xc9, 0x71, 0x34,
  0x31, 0xfc, 0x27, 0x65, 0xaa, 0x45, 0xe0, 0x53, 0xdd, 0xbd, 0xb6, 0x5d,
  0x99, 0x4e, 0xe1, 0x96, 0x5e, 0x84, 0xc4, 0x09, 0x14, 0x9f, 0x81, 0x1a,
  0xae, 0x86, 0x5b, 0x2c, 0xbf, 0x40, 0xf4, 0xf2, 0xe1, 0x9d, 0x9d, 0x2f,
  0x2d, 0x50, 0x0d, 0x9f, 0xee, 0x26, 0xd5, 0xca, 0x24, 0xb8, 0x2b, 0xa8,
  0x34, 0xe2, 0x20, 0x31, 0xd6, 0xd3, 0x9e, 0x04, 0x0e, 0x38, 0x1e, 0xce,
  0x0e, 0xd9, 0x31, 0x3f, 0x47, 0x08, 0x08, 0xe6, 0xcb, 0xda, 0xac, 0x52,
  0x06, 0x36, 0x46, 0xfb, 0x41, 0x46, 0xda, 0x20, 0xbe, 0xb3, 0xab, 0x99,
  0x49, 0xc1, 0x81, 0x0e, 0x04, 0xb2, 0xa7, 0xac, 0x14, 0xa4, 0xfc, 0xf8,
  0xab, 0x0d, 0x40, 0xe8, 0x9d, 0x3e, 0x0c, 0x0c, 0x47, 0x2b, 0xe6, 0xb0,
  0xc2, 0xfb, 0xfd, 0xe0, 0x30, 0x05, 0xd4, 0x52, 0xa6, 0xea, 0x39, 0xa3,
  0x97, 0xfc, 0xe9, 0xab, 0xcb, 0xff, 0xd6, 0xaf, 0x4d, 0xf2, 0x30, 0xfe,
  0xa8, 0xd1, 0xdb, 0xcc, 0x97, 0x9d, 0xd8, 0xdf, 0xd0, 0x2b, 0xe8, 0x27,
  0x28, 0x42, 0xd8, 0x3d, 0x15, 0x3c, 0xf9, 0x4c, 0x49, 0x0d, 0xc7, 0x45,
  0x0f, 0x19, 0xb9, 0xee, 0x57, 0xda, 0x9e, 0x10, 0xae, 0xb0, 0x17, 0xc1,
  0xee, 0xc8, 0xf6, 0xde, 0x81, 0x1f, 0xe0, 0x05, 0xb5, 0x0a, 0xc6, 0x4e,
  0x9c, 0x2a, 0xbf, 0xde, 0x44, 0xee, 0xc7, 0x1c, 0x6e, 0x96, 0xdc, 0xf0,
  0x4c, 0xdf, 0x4e, 0xb5, 0x6b, 0xd2, 0x4f, 0xd7, 0x59, 0x4e, 0x6e, 0x71,
  0xbc, 0xeb, 0x8b, 0x53, 0x3a, 0x40, 0x16, 0x0c, 0xa0, 0x27, 0xc6, 0xab,
  0xdc, 0xfa, 0x42, 0x23, 0x57, 0x4d, 0x53, 0x11, 0x17, 0xe7, 0x05, 0xfc,
  0x38, 0x68, 0x31, 0xcf, 0xdd, 0xd6, 0x26, 0x46, 0xd9, 0x99, 0x89, 0xb0,
  0xd2, 0xd0, 0xe9, 0xa4, 0x27, 0xf2, 0xa4, 0x66, 0x01, 0x95, 0x31, 0x73,
  0x4f, 0xf4, 0xbf, 0x7a, 0xc1, 0x10, 0xbc, 0x22, 0x48, 0xac, 0x90, 0x4e,
  0x17, 0x30, 0x9c, 0xb3, 0x88, 0x58, 0xa1, 0x6e, 0xc5, 0xf2, 0xc7, 0xfb,
  0x5a, 0x08, 0xe0, 0x31, 0xf9, 0x75, 0xa2, 0x2d, 0x09, 0x87, 0x45, 0x9d,
  0xa3, 0x95, 0xb9, 0xb8, 0xc4, 0x63, 0xdd, 0x49, 0xc2, 0x64, 0x6e, 0x40,
  0xa7, 0xd2, 0x6d, 0xed, 0xb6, 0xed, 0x22, 0x69, 0x1f, 0x4e, 0xf5, 0xbd,
  0x9f, 0xfa, 0x5f, 0x4f, 0x1c, 0xf1, 0xa5, 0x0d, 0x4a, 0x0f, 0x17, 0xa8,
  0xea, 0x56, 0xdd, 0x9f, 0x3e, 0xc7, 0x32, 0x2a, 0xdc, 0xfb, 0x62, 0xb1,
  0x7f, 0xbe, 0x36, 0x8a, 0x97, 0x9c, 0xa2, 0xc2, 0xbf, 0x9d, 0x24, 0x90,
  0xe5, 0xe7, 0xc2, 0xf3, 0x05, 0x2f, 0x49, 0xa0, 0x90, 0x23, 0xa0, 0xbc,
  0x47, 0x90, 0x62, 0xf4, 0x1c, 0x61, 0x12, 0x33, 0xb3, 0x04, 0x11, 0xb0,
  0xa2, 0x4a, 0x4c, 0xb6, 0x44, 0xe0, 0xc1, 0x67, 0xa7, 0xaf, 0x17, 0x3a,
  0xe3, 0x35, 0xc6, 0x11, 0xc5, 0xd3, 0x2e, 0x2f, 0x95, 0x51, 0xbf, 0x3c,
  0x53, 0x2f, 0xa9, 0xe6, 0x62, 0x50, 0xa6, 0x2c, 0xa1, 0xfb, 0xe8, 0xa0,
  0xd2, 0xa6, 0x06, 0xf6, 0x0b, 0x3f, 0x45, 0xc4, 0x05, 0xd1, 0x45, 0x38,
  0xa2, 0x52, 0xf3, 0xe7, 0xdf, 0xa8, 0xbb, 0x39, 0xfe, 0x59, 0xb8, 0x45,
  0xca, 0x43, 0xb7, 0xc1, 0xfe, 0x0e, 0x96, 0xe8, 0xc9, 0x1c, 0x50, 0x26,
  0xca, 0x31, 0xe0, 0x4e, 0x17, 0x40, 0x0d, 0xba, 0xf0, 0xf5, 0xd8, 0x2b,
  0x3f, 0x35, 0x26, 0xca, 0x48, 0xd2, 0xaf, 0x1b, 0xf9, 0x28, 0xf9, 0x51,
  0xc9, 0x5b, 0xe8, 0x1c, 0xcd, 0x52, 0x1c, 0xed, 0x56, 0xd6, 0x5c, 0x09,
  0x41, 0x9b, 0xb3, 0xe0, 0x00, 0xaf, 0xc8, 0x81, 0x5e, 0xbc, 0xf6, 0xf5,
  0xd1, 0x9b, 0x1f, 0x59, 0xba, 0x26, 0xac, 0xad, 0xa3, 0x42, 0x0e, 0xa4,
  0xa6, 0xc6, 0xd0, 0xbf, 0x3e, 0x67, 0x96, 0x08, 0x20, 0x3d, 0xe8, 0xfe,
  0x62, 0x92, 0xb1, 0xfa, 0xaa, 0x48, 0xf1, 0xa0, 0x51, 0xd7, 0x14, 0xfb,
  0x4b, 0x1f, 0x08, 0xb2, 0x5c, 0xab, 0x54, 0x30, 0xbf, 0x23, 0x27, 0x60,
  0xf7, 0xd4, 0xe2, 0xd3, 0x8f, 0xd6, 0xb6, 0xf3, 0xd8, 0xfa, 0x2e, 0xe3,
  0x32, 0xb3, 0x94, 0x33, 0xbf, 0xcd, 0xcb, 0x51, 0xf6, 0xcc, 0x26, 0xa5,
  0x56, 0xb6, 0xd2, 0xb2, 0xf2, 0xab, 0x51, 0x0a, 0x38, 0x2b, 0xf7, 0x2b,
  0xe4, 0xce, 0x1c, 0xfd, 0xfb, 0xe2, 0x4e, 0x33, 0xdb, 0xb9, 0x15, 0x6d,
  0x05, 0xb3, 0xe4, 0x4e, 0x9d, 0x61, 0xb2, 0xeb, 0x40, 0xf4, 0x92, 0x58,
  0xb6, 0xd5, 0x1e, 0x23, 0xb8, 0x04, 0xae, 0xee, 0x12, 0x3e, 0x24, 0xdd,
  0x55, 0xc6, 0xfd, 0x3d, 0x3c, 0xcf, 0x21, 0x16, 0x05, 0xe6, 0x06, 0x52,
  0x81, 0x9d, 0x20, 0xf9, 0x9a, 0xca, 0xa2, 0xd3, 0xb9, 0xf4, 0x2f, 0xd4,
  0xb0, 0xd6, 0x2b, 0x12, 0x6f, 0x3b, 0x49, 0xc5, 0xb7, 0x41, 0x3e, 0x86,
  0xb0, 0x09, 0xdb, 0x4f, 0xfb, 0x3c, 0xce, 0x0e, 0x50, 0xb6, 0xf6, 0x1a,
  0x07, 0x0f, 0xcd, 0x5b, 0xb0, 0xbc, 0xb6, 0x1e, 0xd6, 0xa9, 0xc3, 0x48,
  0xcf, 0x69, 0x2e, 0xf3, 0x32, 0x44, 0x9d, 0x9c, 0xab, 0xeb, 0x56, 0x33,
  0xe5, 0x2c, 0x94, 0xe3, 0xc6, 0x11, 0x8d, 0xfe, 0xbb, 0x77, 0x9c, 0xdd,
  0x0c, 0xa8, 0x87, 0x3b, 0x2f, 0x35, 0xc5, 0x77, 0x7b, 0x95, 0x1e, 0x7a,
  0xcc, 0xef, 0x53, 0x0f, 0x0f, 0x08, 0x10, 0xe4, 0x48, 0xca, 0x27, 0xd5,
  0x3e, 0xe8, 0x20, 0x02, 0x87, 0x0e, 0x08, 0x27, 0x2e, 0x08, 0xf4, 0x08,
  0xc2, 0xb5, 0xcb, 0x61, 0x4b, 0x13, 0xfb, 0xaa, 0x40, 0x4c, 0xac, 0xdb,
  0x4c, 0xa4, 0x37, 0x0f, 0x92, 0xfb, 0x6c, 0x2d, 0x94, 0x66, 0x33, 0x4b,
  0x2a, 0x04, 0x8f, 0x1a, 0x57, 0xe5, 0xce, 0xd0, 0x90, 0x81, 0xf7, 0x59,
  0xa4, 0x54, 0x57, 0x5e, 0xb6, 0xad, 0x06, 0x6e, 0xff, 0x62, 0x14, 0x1c,
  0x38, 0x1a, 0xe9, 0x8b, 0xbd, 0xc5, 0xc1, 0x1b, 0xcb, 0x83, 0xab, 0xb3,
  0x0e, 0x91, 0x2e, 0x36, 0xe1, 0x5e, 0x3b, 0x2e, 0xb6, 0x4e, 0x19, 0x35,
  0x58, 0x21, 0xc3, 0x20, 0x96, 0x0a, 0x45, 0xba, 0x5e, 0xf8, 0x7b, 0xe7,
  0xc0, 0x96, 0x73, 0x10, 0x3d, 0x23, 0xf7, 0xd1, 0xff, 0x33, 0x29, 0x4d,
  0xba, 0x28, 0xd0, 0x19, 0x20, 0x9e, 0xe0, 0x35, 0x06, 0xea, 0x0c, 0x0b,
  0x97, 0x54, 0x67, 0xea, 0x57, 0x00, 0x4e, 0x65, 0x21, 0xe8, 0xb4, 0xb4,
  0x69, 0xdf, 0x1f, 0x63, 0x19, 0xba, 0x09, 0xce, 0x60, 0xcf, 0x0b, 0xe9,
  0xd7, 0xbb, 0xe6, 0x95, 0xe7, 0x9e, 0x66, 0x6d, 0xb9, 0x76, 0xf6, 0xc7,
  0x66, 0xc7, 0x8e, 0x19, 0x63, 0xc6, 0xa3, 0xcb, 0xe0, 0x41, 0x1c, 0xfb,
  0x3f, 0x90, 0x6f, 0x45, 0xdc, 0x3a, 0x7f, 0xa5, 0x8a, 0x52, 0x52, 0x15,
  0x4e, 0xf3, 0x90, 0xf6, 0x0e, 0x22, 0xdf, 0x4e, 0x22, 0x75, 0x6e, 0xbe,
  0x42, 0x24, 0xbb, 0x32, 0x6c, 0x9a, 0xfe, 0x33, 0x2d, 0x85, 0x85, 0x3d,
  0xd4, 0x27, 0xa5, 0xb1, 0xa8, 0x06, 0x69, 0x6a, 0xd8, 0x55, 0x3c, 0x60,
  0xbd, 0x41, 0x24, 0x34, 0x0d, 0xfb, 0xd0, 0xf7, 0xad, 0xd8, 0xe9, 0xfb,
  0x30, 0x39, 0xa1, 0x51, 0xe5, 0xa0, 0xca, 0x15, 0xc4, 0x93, 0x53, 0xea,
  0x3b, 0x3f, 0x19, 0x33, 0xe9, 0x03, 0x19, 0xcb, 0xff, 0x29, 0xb4, 0xf8,
  0xb5, 0xee, 0xc8, 0xe8, 0x7f, 0x25, 0xf9, 0xb3, 0x9b, 0x11, 0x2a, 0x22,
  0xb8, 0x4b, 0xb0, 0x3f, 0xb7, 0xf3, 0xd0, 0x62, 0x21, 0xe2, 0x3a, 0x09,
  0xe3, 0x0f, 0xa4, 0x1b, 0x4e, 0x1d, 0xda, 0xbf, 0x3d, 0xd0, 0x27, 0x05,
  0xd1, 0x36, 0x16, 0xe7, 0x2b, 0xf5, 0xb8, 0xf6, 0xd0, 0x02, 0xf0, 0x11,
  0xc7, 0x4d, 0xdf, 0x5b, 0x19, 0x4b, 0x29, 0x14, 0xe9, 0xfd, 0x35, 0xd4,
  0xb4, 0xdf, 0x57, 0xca, 0xc3, 0xbf, 0x40, 0x0d, 0xe1, 0x34, 0xd3, 0x1e,
  0xe3, 0xc3, 0xa8, 0x28, 0xf4, 0x0a, 0xf6, 0x62, 0x1a, 0x11, 0x2b, 0x1a,
  0x1f, 0xa6, 0x59, 0x2d, 0xcd, 0x58, 0x69, 0xf6, 0x1c, 0x98, 0xe7, 0x38,
  0x12, 0xa8, 0x19, 0x22, 0xc3, 0x31, 0x12, 0x38, 0x1e, 0xc4, 0x3b, 0xf6,
  0x49, 0x99, 0xe8, 0x4e, 0xfc, 0x10, 0x97, 0x17, 0xfa, 0x5b, 0xb7, 0x21,
  0x35, 0x1a, 0x6b, 0xc1, 0xdd, 0x25, 0xf3, 0xca, 0xb2, 0x2f, 0x27, 0x53,
  0x81, 0xb6, 0x40, 0x77, 0x4d, 0x46, 0xb5, 0x33, 0xd5, 0xd0, 0x3d, 0x3f,
  0xdf, 0x25, 0x9b, 0x95, 0x3f, 0x37, 0xa7, 0x9c, 0xb8, 0x2a, 0x05, 0xf5,
  0x0f, 0x71, 0x02, 0xf2, 0xea, 0x48, 0xa3, 0xb4, 0xa8, 0xf2, 0xe7, 0x38,
  0xb6, 0xda, 0xd8, 0x38, 0xf8, 0xd4, 0x5f, 0x31, 0x1b, 0x49, 0xeb, 0xa7,
  0x10, 0xf0, 0x06, 0xea, 0xbc, 0xa4, 0xb2, 0xcf, 0x41, 0x64, 0xd1, 0xbe,
  0x2e, 0x34, 0x0a, 0x19, 0x33, 0x31, 0xe8, 0xc2, 0xa7, 0xf7, 0x2b, 0xcc,
  0x31, 0x56, 0xdd, 0xc0, 0xec, 0xf6, 0xdf, 0xe7, 0x36, 0x06, 0xfb, 0x43,
  0xec, 0x54, 0x45, 0x04, 0x4e, 0xf1, 0x2c, 0xad, 0xcf, 0xe8, 0x30, 0xb4,
  0xdf, 0x2f, 0xde, 0xe5, 0x05, 0x16, 0xab, 0x3f, 0xea, 0xae, 0xf9, 0x2e,
  0xcf, 0x1a, 0xde, 0xa4, 0x0e, 0x41, 0xa8, 0xdb, 0x2d, 0x32, 0x44, 0x81,
  0xec, 0xda, 0xf3, 0x27, 0x26, 0xd9, 0xf2, 0x0f, 0x2d, 0x32, 0xf6, 0xe3,
  0x0f, 0xdf, 0x09, 0xf0, 0x39, 0xaf, 0xd3, 0x18, 0x25, 0x3b, 0x4f, 0xba,
  0x0d, 0x2a, 0x3f, 0xaa, 0x22, 0x48, 0xc3, 0xe9, 0xab, 0x3d, 0xff, 0xab,
  0xef, 0xae, 0xc6, 0x0a, 0xf2, 0x24, 0xdd, 0xeb, 0xf6, 0xb9, 0x2f, 0x18,
  0x19, 0x55, 0xb8, 0xd0, 0x9c, 0xbb, 0x2b, 0xbe, 0x0a, 0x1b, 0xc8, 0xe5,
  0xba, 0xf7, 0x02, 0xce, 0x00, 0x4b, 0xf2, 0xfa, 0x37, 0x3d, 0x2d, 0x50,
  0xb5, 0x2c, 0x4c, 0x99, 0xbe, 0xf0, 0xb8, 0xbe, 0x28, 0xb6, 0x19, 0x30,
  0xcd, 0x08, 0x25, 0xf9, 0x0a, 0xce, 0x51, 0x21, 0xd1, 0xc8, 0xc7, 0xb9,
  0xcb, 0xbd, 0xfd, 0x10, 0x69, 0x00, 0x6f, 0x4d, 0x3f, 0x49, 0x29, 0x89,
  0x54, 0x57, 0x5b, 0x41, 0xb6, 0xbb, 0x9a, 0x38, 0xce, 0xec, 0xd4, 0xe9,
  0xc6, 0xad, 0x3c, 0x9b, 0x2f, 0x2d, 0xd9, 0xd9, 0x66, 0xfa, 0xe7, 0x0b,
  0xf2, 0xfe, 0x57, 0xe4, 0x72, 0x53, 0x7d, 0xf9, 0x35, 0x19, 0x58, 0xa4,
  0x8b, 0xdc, 0xfb, 0x57, 0x62, 0x2f, 0x11, 0x37, 0x38, 0xf5, 0xb6, 0xd7,
  0x33, 0xcf, 0xce, 0x7f, 0xbe, 0xf0, 0xfd, 0xdf, 0x94, 0xfb, 0x2c, 0x78,
  0xd0, 0xdc, 0x9f, 0x06, 0x0c, 0xb5, 0x35, 0x13, 0x70, 0x59, 0xcd, 0x4c,
  0xe3, 0x9c, 0x42, 0x04, 0xe9, 0x9a, 0xf8, 0x96, 0x72, 0x28, 0x11, 0x2c,
  0xfe, 0xcd, 0xb4, 0xee, 0x24, 0x5a, 0x1c, 0x53, 0x4f, 0x40, 0xbc, 0x1d,
  0x93, 0x45, 0x71, 0x50, 0x31, 0xbb, 0x25, 0x11, 0xa2, 0x9c, 0x76, 0xf7,
  0x90, 0xb2, 0x5a, 0x58, 0x41, 0xc3, 0x4f, 0x4c, 0xe9, 0xb2, 0x6d, 0x18,
  0x0d, 0xb3, 0x2b, 0x62, 0xf4, 0x05, 0x8c, 0xc1, 0x66, 0x52, 0x07, 0xcb,
  0x23, 0xf4, 0xcf, 0x2c, 0xab, 0x5d, 0x17, 0xbd, 0xa6, 0xdd, 0xcd, 0x7f,
  0x73, 0xf3, 0x5b, 0x45, 0xe5, 0x6c, 0x1c, 0x14, 0x17, 0x9c, 0xb1, 0x6e,
  0x8e, 0x87, 0x6a, 0xc9, 0x55, 0xfc, 0x9f, 0x97, 0xe1, 0xc0, 0x31, 0x0c,
  0x0c, 0xac, 0x35, 0xd3, 0xf0, 0x88, 0x67, 0x0c, 0x5f, 0xaf, 0xe9, 0xde,
  0x3d, 0xca, 0x3a, 0x71, 0xaf, 0xe9, 0x09, 0xdf, 0xe2, 0x41, 0xb3, 0x8e,
  0xc2, 0xaa, 0xd4, 0xd3, 0x2d, 0xd7, 0xfe, 0xc9, 0xad, 0xf8, 0xbb, 0xcf,
  0x57, 0x33, 0xca, 0x60, 0x19, 0xe6, 0x36, 0x3e, 0x5b, 0xc9, 0x96, 0x0e,
  0xf5, 0x94, 0xa3, 0xfb, 0x57, 0x41, 0xd5, 0xf6, 0x32, 0x13, 0x3a, 0x58,
  0xdb, 0x26, 0x08, 0x3b, 0xee, 0xbd, 0x93, 0x55, 0x92, 0x39, 0xa8, 0x3c,
  0xdf, 0xf9, 0x09, 0x92, 0xca, 0x7f, 0xfa, 0x12, 0xc9, 0x29, 0xe3, 0xd6,
  0xb2, 0x41, 0x2f, 0xb4, 0xa8, 0x53, 0xf8, 0x37, 0xee, 0x31, 0x54, 0x18,
  0x56, 0x21, 0x00, 0x1e, 0xef, 0xe2, 0x37, 0x23, 0xff, 0xa9, 0xb3, 0xa0,
  0x53, 0xb4, 0xe5, 0xbf, 0x35, 0x81, 0x23, 0xc9, 0xd0, 0x45, 0x15, 0xa6,
  0x5c, 0xba, 0x29, 0xe8, 0xf4, 0xce, 0xd3, 0x38, 0x2e, 0xbb, 0x15, 0x25,
  0xc1, 0x12, 0xe0, 0x54, 0xea, 0x10, 0xdf, 0x3c, 0xbc, 0x28, 0x41, 0x26,
  0x05, 0x23, 0xe8, 0xd6, 0x3d, 0xfb, 0x3c, 0xf8, 0xd4, 0x43, 0xf6, 0x57,
  0x0e, 0xc5, 0x44, 0x47, 0x36, 0x0c, 0xf1, 0xec, 0xf4, 0xb4, 0x51, 0xaa,
  0xde, 0xfd, 0xce, 0x22, 0x3b, 0xe3, 0xc0, 0xbf, 0xf1, 0x09, 0xc7, 0xcd,
  0xcb, 0xc4, 0x10, 0xc1, 0x29, 0xa9, 0x20, 0x45, 0x4c, 0x03, 0xd3, 0xff,
  0xf7, 0xeb, 0x17, 0xed, 0x49, 0x2d, 0x21, 0x1f, 0x52, 0x39, 0xe3, 0x98,
  0xf5, 0x09, 0x1d, 0xfe, 0xfc, 0x28, 0x89, 0xa3, 0xff, 0x23, 0xbc, 0xbd,
  0x67, 0x35, 0xa9, 0x81, 0x2f, 0xca, 0xdb, 0x94, 0x15, 0x4f, 0x5d, 0x15,
  0xa6, 0xa3, 0xca, 0x66, 0xc3, 0x48, 0x4f, 0xc7, 0x04, 0xfa, 0xd6, 0x67,
  0x84, 0x5d, 0x25, 0x71, 0x37, 0x20, 0x2c, 0xd8, 0x64, 0x0a, 0x07, 0xb8,
  0xd3, 0x3c, 0x48, 0x4a, 0x42, 0x55, 0xa8, 0xc8, 0xb7, 0x08, 0x2c, 0x28,
  0x34, 0x26, 0xed, 0x93, 0x4a, 0xec, 0xdc, 0x18, 0xe2, 0x9f, 0xc1, 0xd4,
  0x0f, 0x21, 0xbe, 0xdb, 0x6c, 0x6a, 0x46, 0xa8, 0xbd, 0xa9, 0xae, 0x31,
  0xd0, 0xe7, 0x5c, 0xae, 0x65, 0x58, 0x39, 0x94, 0xe9, 0xee, 0xa9, 0x11,
  0x4b, 0x3a, 0x2c, 0x2a, 0x19, 0x71, 0x63, 0x1e, 0xa4, 0xae, 0xb0, 0xe2,
  0x05, 0x19, 0xfd, 0x14, 0x23, 0xf0, 0xab, 0xf4, 0xd0, 0xc3, 0xe2, 0x10,
  0xe6, 0xa9, 0x1a, 0x18, 0x56, 0x25, 0x49, 0x0e, 0xf8, 0xe7, 0x0c, 0x51,
  0xb8, 0xe6, 0x8a, 0x42, 0x0d, 0x81, 0x6a, 0x16, 0x75, 0xf5, 0x33, 0x44,
  0xd2, 0x0a, 0xd3, 0x73, 0xbd, 0x4b, 0xdb, 0x23, 0x62, 0xa9, 0xcc, 0x76,
  0xac, 0x28, 0x47, 0xb9, 0x9a, 0x82, 0x0b, 0x12, 0x36, 0x4f, 0xdf, 0xdd,
  0xb4, 0x11, 0xf1, 0x59, 0x68, 0xd6, 0xd1, 0x57, 0x9a, 0x08, 0xc1, 0x3b,
  0x1f, 0x77, 0xdf, 0x1b, 0x43, 0x82, 0x58, 0x09, 0x89, 0x19, 0x20, 0x59,
  0x69, 0xda, 0x43, 0x4b, 0xa2, 0x2d, 0x2d, 0xb4, 0xa6, 0x82, 0x78, 0xb8,
  0x4d, 0xaf, 0x0c, 0x78, 0x00, 0x60, 0x41, 0x98, 0x55, 0x16, 0xe0, 0x2b,
  0xf1, 0xbb, 0x62, 0x89, 0xa1, 0x1f, 0x0b, 0x14, 0xb2, 0x3a, 0x05, 0x77,
  0xb9, 0x02, 0x63, 0x97, 0x0d, 0x2c, 0x14, 0x24, 0x17, 0x26, 0x84, 0x63,
  0x5f, 0xc4, 0xd0, 0x02, 0xb5, 0x58, 0x4e, 0x57, 0xd1, 0x68, 0x5b, 0xca,
  0x07, 0x67, 0x18, 0xf8, 0x42, 0xb8, 0xd3, 0x51, 0x23, 0x40, 0x4f, 0x18,
  0x20, 0xeb, 0x5c, 0xb9, 0xf5, 0x31, 0x9b, 0x0b, 0xff, 0xad, 0xb0, 0x2c,
  0x18, 0xa4, 0x11, 0x4a, 0xba, 0x5c, 0x6a, 0x1d, 0x0b, 0x07, 0x55, 0x15,
  0x0a, 0x8e, 0x36, 0x01, 0xe6, 0x0b, 0xb0, 0x3b, 0xba, 0xa3, 0x9b, 0x3f,
  0xf5, 0xd6, 0xb2, 0x28, 0x08, 0xe7, 0x0c, 0x45, 0x48, 0xbe, 0x44, 0x0c,
  0x02, 0xd5, 0x0a, 0xdd, 0xfb, 0xfa, 0x22, 0xdc, 0xfe, 0x42, 0xe8, 0xf6,
  0x81, 0x49, 0xae, 0xad, 0xc6, 0xd5, 0xff, 0xcc, 0xd9, 0xb7, 0xdc, 0xc0,
  0x4c, 0x3f, 0x53, 0x0a, 0xaa, 0x2b, 0xbf, 0x02, 0x51, 0x07, 0xee, 0x33,
  0xe5, 0x0a, 0x4b, 0x1f, 0xb3, 0xba, 0x3d, 0x5a, 0xbc, 0xe6, 0xff, 0x30,
  0x12, 0x21, 0x1a, 0x58, 0x41, 0x21, 0x28, 0x50, 0x20, 0x1c, 0xad, 0x5f,
  0xfb, 0x95, 0xcc, 0x97, 0xfc, 0x51, 0xc2, 0x20, 0x08, 0xb5, 0xb3, 0xde,
  0xf3, 0x46, 0x0b, 0xe0, 0x3a, 0xeb, 0x7b, 0xf0, 0xfa, 0x18, 0xbf, 0xca,
  0xe2, 0x30, 0x1f, 0xd7, 0xbe, 0x34, 0x60, 0xf9, 0x2e, 0x39, 0x32, 0x6e,
  0x95, 0x45, 0x00, 0xa6, 0x11, 0x37, 0xca, 0x05, 0x1e, 0xa6, 0x97, 0x44,
  0xf8, 0xcb, 0x4c, 0x72, 0x44, 0x24, 0x9e, 0xb4, 0x1d, 0x3f, 0xc4, 0x2b,
  0xb5, 0xfb, 0x66, 0xb4, 0xaf, 0xb9, 0xde, 0x41, 0x1d, 0x30, 0xff, 0xb3,
  0xc3, 0x2f, 0x0d, 0x2a, 0xaa, 0x2a, 0xe0, 0x4c, 0x13, 0xf4, 0x38, 0xfe,
  0x62, 0xaf, 0xae, 0xb1, 0xf2, 0x45, 0xa3, 0x34, 0x43, 0x2a, 0xca, 0x5e,
  0xf9, 0x67, 0x5d, 0x02, 0xca, 0x90, 0xbf, 0xaa, 0xdb, 0x58, 0x0e, 0x99,
  0xda, 0xd3, 0x12, 0x60, 0xb5, 0xef, 0x0f, 0xc5, 0x7f, 0xf3, 0x1c, 0xac,
  0x9d, 0x66, 0xf8, 0xe9, 0xaf, 0x8e, 0xdc, 0x1a, 0xf3, 0xe6, 0x1c, 0x05,
  0x2c, 0x2b, 0xa9, 0xbe, 0x65, 0xc7, 0xcf, 0x3b, 0x09, 0x12, 0x54, 0xac,
  0xfd, 0xf7, 0x99, 0x9a, 0xb3, 0x2a, 0xeb, 0x14, 0x72, 0x95, 0x99, 0x21,
  0x6f, 0x65, 0x54, 0x2b, 0x00, 0x7c, 0xa6, 0xc0, 0xed, 0x93, 0xb8, 0xc4,
  0x7f, 0xee, 0x67, 0xc5, 0x95, 0x6f, 0x3a, 0xc2, 0x01, 0x01, 0xa6, 0xbf,
  0x7a, 0x0d, 0xb2, 0x63, 0xa3, 0xdf, 0x26, 0x03, 0x99, 0x2f, 0x67, 0xc4,
  0x74, 0xe4, 0xd7, 0x63, 0xaa, 0x66, 0xe9, 0x33, 0xf9, 0x2c, 0x0c, 0x04,
  0x76, 0x40, 0xcd, 0x67, 0xee, 0x9b, 0x03, 0xbc, 0x41, 0x15, 0x48, 0x3d,
  0x9e, 0x28, 0x27, 0xe2, 0x3c, 0xdd, 0xdf, 0x95, 0x42, 0xd9, 0xac, 0xed,
  0x95, 0x00, 0x15, 0x6c, 0xad, 0xa8, 0x44, 0xf5, 0x68, 0x4b, 0xb6, 0xd0,
  0x89, 0xbf, 0x3a, 0x2c, 0x0e, 0xf4, 0x78, 0x54, 0x55, 0x2f, 0x4a, 0xb0,
  0xc7, 0xeb, 0x36, 0x93, 0xfc, 0x2d, 0x29, 0x53, 0x28, 0xf7, 0x0e, 0x45,
  0xc5, 0xb6, 0x0f, 0x8e, 0x6d, 0xc1, 0xc8, 0x6c, 0xd1, 0x0d, 0x45, 0xec,
  0xe3, 0xf6, 0x11, 0x5e, 0x1d, 0x3b, 0xda, 0x10, 0x3a, 0x07, 0x5d, 0x2b,
  0x4a, 0xd2, 0x43, 0x06, 0xc1, 0x10, 0x1d, 0xcc, 0x0b, 0x5f, 0xe4, 0x34,
  0x18, 0x01, 0x46, 0x07, 0xfe, 0xd2, 0x44, 0x1d, 0xca, 0x57, 0xe1, 0xff,
  0xe3, 0xad, 0x06, 0x0b, 0x07, 0x3f, 0xbf, 0xd0, 0xaf, 0xc0, 0x5b, 0xab,
  0xd3, 0x36, 0x59, 0x17, 0xbf, 0x20, 0x29, 0xaa, 0xd7, 0xa9, 0xd4, 0xb5,
  0xe5, 0xd5, 0xcb, 0x4a, 0xfe, 0x5c, 0x5b, 0x7f, 0xef, 0x3a, 0xb8, 0x4b,
  0x20, 0x61, 0xd1, 0xda, 0xdb, 0x08, 0x61, 0x0b, 0x03, 0xca, 0xba, 0x67,
  0xea, 0x2a, 0x20, 0x00, 0x2b, 0xb9, 0xa1, 0x06, 0x15, 0x4e, 0x07, 0x10,
  0x46, 0x44, 0x2f, 0x07, 0x9b, 0x02, 0x23, 0x56, 0x2f, 0x22, 0xa5, 0xba,
  0x0f, 0x0b, 0xc1, 0x1a, 0xce, 0x11, 0x25, 0x33, 0x04, 0xad, 0xc8, 0xa9,
  0xda, 0x9f, 0xb1, 0xc4, 0xec, 0x68, 0x18, 0x2e, 0xfa, 0xfe, 0xb6, 0x4c,
  0x69, 0x58, 0xbf, 0x12, 0xed, 0xfd, 0xd9, 0x4b, 0xdc, 0xa7, 0xc0, 0x05,
  0x15, 0xbf, 0x24, 0xd8, 0x4f, 0xd8, 0xd6, 0xbd, 0x4d, 0xd3, 0x63, 0xab,
  0xd3, 0xfd, 0xff, 0x66, 0x7f, 0x39, 0xfa, 0xec, 0xe4, 0x48, 0xcb, 0xaf,
  0x42, 0x8f, 0x6b, 0xbb, 0x0d, 0xd1, 0xb5, 0xd3, 0xc5, 0x62, 0xae, 0x07,
  0x48, 0xae, 0xad, 0x27, 0x3d, 0x46, 0xb1, 0xa1, 0x88, 0x92, 0x34, 0x1e,
  0x45, 0x16, 0xef, 0x5a, 0x2b, 0x68, 0xe0, 0x24, 0xc1, 0x08, 0xa5, 0x3b,
  0xa9, 0x38, 0x50, 0x40, 0x91, 0x1c, 0xd5, 0xc2, 0x45, 0xda, 0x6e, 0xb9,
  0x60, 0xfe, 0xfe, 0x6b, 0xd1, 0xba, 0x58, 0x50, 0x60, 0x40, 0xde, 0x58,
  0xbe, 0xbc, 0x34, 0x6c, 0xed, 0xa6, 0xee, 0xea, 0xe0, 0x35, 0xd9, 0xb0,
  0x38, 0xe1, 0xae, 0x05, 0x1d, 0xa5, 0x1c, 0x6d, 0x5c, 0xdb, 0x20, 0x40,
  0xd6, 0x6d, 0x9a, 0x5c, 0x95, 0x98, 0x27, 0x9b, 0x0b, 0xcc, 0xfc, 0xe7,
  0xf8, 0xeb, 0x58, 0x58, 0x9e, 0x72, 0xa4, 0x75, 0xc2, 0x1f, 0x2a, 0xa9,
  0x77, 0xee, 0x70, 0x96, 0xbe, 0xd2, 0xf9, 0xcd, 0xdb, 0x29, 0xcb, 0x2c,
  0x57, 0xc2, 0xce, 0x2e, 0x51, 0xa3, 0x6b, 0x08, 0xc7, 0xfa, 0x19, 0x92,
  0x8e, 0xc2, 0xe5, 0x67, 0x81, 0x59, 0x1e, 0x1e, 0x4d, 0x61, 0xc9, 0x9f,
  0xb8, 0x67, 0x91, 0x5d, 0x55, 0x96, 0xeb, 0x41, 0x85, 0xc2, 0xd6, 0xe9,
  0xd6, 0x90, 0x63, 0x4f, 0x87, 0x3a, 0x22, 0x08, 0x9a, 0xc5, 0x5c, 0x4e,
  0x9d, 0x1f, 0x4f, 0xfe, 0xd0, 0x14, 0xb4, 0x67, 0x9a, 0x6e, 0x9d, 0xe9,
  0x75, 0x37, 0xa6, 0x65, 0xae, 0x98, 0xed, 0x21, 0x8c, 0x22, 0xf6, 0x10,
  0x20, 0xb0, 0x39, 0x1e, 0xa5, 0x93, 0x85, 0x2f, 0x84, 0xd7, 0xa9, 0xd3,
  0xf8, 0x18, 0x86, 0x41, 0x98, 0x3b, 0x16, 0x64, 0xd2, 0x84, 0x90, 0x10,
  0x6c, 0xf9, 0x9c, 0x90, 0x5b, 0x6d, 0x6c, 0x4f, 0xc8, 0xd4, 0xaa, 0x66,
  0xe8, 0x7c, 0xdf, 0xf8, 0x23, 0x02, 0x27, 0x0a, 0x5f, 0x55, 0xef, 0x99,
  0x39, 0xd0, 0x81, 0xd5, 0x60, 0x1d, 0xf7, 0x0b, 0x15, 0xd8, 0x13, 0x48,
  0xc2, 0xc5, 0x7a, 0x2e, 0xf3, 0x0e, 0x60, 0x61, 0xce, 0xd7, 0x1e, 0xa7,
  0x67, 0xa1, 0x5b, 0xa7, 0x5e, 0x96, 0x9c, 0x90, 0x91, 0xc1, 0xe0, 0x90,
  0xf3, 0x00, 0xf1, 0xa3, 0x6e, 0x63, 0x89, 0xa1, 0xa5, 0xca, 0xa9, 0xdb,
  0x74, 0xb9, 0x6c, 0xcb, 0x3e, 0x2e, 0x0d, 0x90, 0x9c, 0xed, 0xff, 0x30,
  0x3b, 0xd4, 0x89, 0x03, 0xcc, 0xa2, 0xd5, 0xc9, 0xbf, 0x4a, 0x13, 0xee,
  0x71, 0x88, 0xd8, 0x9f, 0x14, 0xaa, 0xb1, 0x15, 0xaf, 0x29, 0xaa, 0xd8,
  0x55, 0x89, 0xaf, 0xe9, 0xa6, 0xfe, 0x57, 0x7a, 0xb1, 0xf9, 0x90, 0xb3,
  0x31, 0x53, 0xe4, 0xf7, 0x3a, 0x6e, 0x31, 0xfe, 0x1d, 0xdf, 0x42, 0xcd,
  0x5c, 0x22, 0x06, 0xcc, 0xc0, 0xb2, 0x48, 0xcd, 0xf3, 0x55, 0xda, 0xd4,
  0xe0, 0xdf, 0x4c, 0x1d, 0x78, 0xe8, 0x13, 0x5b, 0xe7, 0xe8, 0x2b, 0xaf,
  0x2a, 0x01, 0x3c, 0xf4, 0xcc, 0xa7, 0x40, 0x4a, 0xf0, 0xcc, 0x4f, 0xe3,
  0x3e, 0x20, 0xca, 0x6b, 0xe8, 0x0a, 0xdc, 0x3c, 0x1e, 0x4d, 0xf0, 0xfd,
  0xd8, 0xfd, 0x10, 0x27, 0x4d, 0x27, 0xcc, 0x38, 0x2f, 0x69, 0x3e, 0xf9,
  0xcb, 0x35, 0xc9, 0xf9, 0xc0, 0x3f, 0x04, 0x96, 0x1c, 0x16, 0x2a, 0x5e,
  0x14, 0x1c, 0xe3, 0xcd, 0x9d, 0xa7, 0x51, 0xb0, 0x67, 0xf7, 0x02, 0x33,
  0xbb, 0x18, 0xdd, 0x1e, 0x04, 0x7f, 0xc8, 0x7a, 0x6e, 0x37, 0x35, 0x35,
  0xad, 0x1e, 0xcc, 0xca, 0xed, 0xa2, 0x99, 0x56, 0xd3, 0x37, 0x5b, 0x43,
  0xff, 0x11, 0x0b, 0x2c, 0xce, 0xbe, 0x64, 0xe5, 0x04, 0xc1, 0x19, 0x5a,
  0x59, 0xc9, 0xa3, 0x60, 0xd9, 0xcb, 0x5e, 0xbf, 0x01, 0xb0, 0xb9, 0x2e,
  0x17, 0x9f, 0x34, 0xcc, 0x0b, 0x11, 0x3a, 0xe5, 0x11, 0xe4, 0xff, 0xf8,
  0x30, 0xe2, 0x06, 0x45, 0x61, 0xfe, 0xb5, 0x07, 0x1f, 0xc4, 0xbf, 0x44,
  0x20, 0x4e, 0x58, 0xe8, 0x2a, 0xe7, 0xfb, 0x15, 0xd7, 0x40, 0xa4, 0x17,
  0x15, 0xb6, 0xeb, 0x1c, 0xa0, 0x27, 0x05, 0xa3, 0xc3, 0xef, 0x6f, 0x1a,
  0xf0, 0xa3, 0xf8, 0xaa, 0xc0, 0x1c, 0xcb, 0xbb, 0x57, 0xc4, 0xb8, 0x2a,
  0xd0, 0x6a, 0xdc, 0xdc, 0xea, 0xa3, 0x62, 0x6d, 0xc9, 0x1d, 0x0c, 0xd4,
  0xfb, 0x10, 0xcd, 0xe5, 0x44, 0x0d, 0x31, 0x65, 0x2d, 0x3d, 0x44, 0x15,
  0xae, 0xf1, 0x4d, 0xb8, 0xce, 0x6e, 0x31, 0xda, 0x63, 0x08, 0x2c, 0x5a,
  0x0a, 0x0f, 0x05, 0x4b, 0x61, 0xe3, 0x67, 0xc0, 0xbb, 0xe9, 0xf3, 0xb5,
  0x0a, 0x39, 0x7f, 0x5b, 0x33, 0x69, 0xdd, 0x0b, 0x12, 0x63, 0xa6, 0x42,
  0x7f, 0xee, 0x36, 0x5a, 0xba, 0x0a, 0x5f, 0xe1, 0xea, 0xbd, 0xe6, 0x76,
  0xbb, 0x37, 0xe7, 0xbd, 0x3b, 0xa2, 0xda, 0xf0, 0xf1, 0xe8, 0x65, 0x5e,
  0x97, 0xdf, 0x02, 0x90, 0x72, 0x27, 0xfb, 0x10, 0x66, 0x14, 0xe2, 0x4d,
  0x38, 0x1f, 0x21, 0x56, 0xee, 0x2e, 0x54, 0x3b, 0xf0, 0x60, 0x33, 0x5c,
  0x66, 0x69, 0x35, 0x3d, 0x62, 0x70, 0x76, 0x23, 0xca, 0xdb, 0x9d, 0x61,
  0x47, 0x3f, 0x39, 0x91, 0x39, 0x1a, 0xb1, 0x98, 0xb4, 0xf8, 0xe7, 0x4e,
  0x9d, 0x90, 0x52, 0xdb, 0xaa, 0x59, 0xe9, 0xb0, 0x03, 0xe8, 0xac, 0x01,
  0xbb, 0x35, 0x37, 0xce, 0xae, 0xf6, 0xa8, 0xc1, 0xf0, 0xf0, 0x18, 0x37,
  0x1d, 0xeb, 0x17, 0x31, 0x47, 0xcf, 0x10, 0xd3, 0x46, 0x9e, 0xac, 0x9e,
  0xae, 0x09, 0x03, 0x9d, 0xf5, 0xd1, 0x0e, 0x28, 0x3b, 0xb4, 0xab, 0x66,
  0xed, 0x1b, 0x29, 0x1e, 0x28, 0x2f, 0x68, 0xe1, 0x56, 0x4a, 0xbb, 0xca,
  0x52, 0xce, 0x40, 0x27, 0xf2, 0x2a, 0x13, 0xd7, 0x4d, 0x75, 0x0a, 0xa8,
  0xb4, 0x65, 0xc5, 0xc9, 0x1e, 0x56, 0x1c, 0x0d, 0xcc, 0x3c, 0x0a, 0x10,
  0xca, 0xcb, 0xf1, 0x2b, 0x08, 0xeb, 0xc6, 0x6a, 0x0b, 0xe8, 0x90, 0x2f,
  0x1c, 0x91, 0x17, 0xc5, 0xcc, 0xe6, 0x5c, 0x67, 0x52, 0x23, 0xda, 0x6f,
  0x40, 0x4b, 0x0e, 0x1f, 0x25, 0xeb, 0x53, 0x0d, 0xc6, 0x41, 0xbe, 0x87,
  0x6a, 0x02, 0x44, 0x23, 0xd8, 0x27, 0xcf, 0x64, 0x70, 0xaa, 0x55, 0xd3,
  0x1d, 0x5c, 0xd1, 0x04, 0x42, 0xf8, 0xc7, 0x01, 0xe5, 0xd8, 0x03, 0x29,
  0x61, 0x51, 0x3b, 0x0c, 0x18, 0x4c, 0x05, 0x46, 0xfd, 0xc5, 0x7f, 0x22,
  0x8e, 0xf0, 0x1b, 0xd0, 0x27, 0x34, 0xf1, 0x30, 0xf2, 0x7e, 0xc4, 0xbd,
  0x96, 0xa5, 0x12, 0x3f, 0x2e, 0x9a, 0xca, 0xed, 0x53, 0xf2, 0xec, 0xe9,
  0x53, 0x06, 0xcf, 0xe4, 0x26, 0x3d, 0xf9, 0x66, 0x33, 0xeb, 0x9b, 0x8c,
  0x34, 0x22, 0xe8, 0xc0, 0xf4, 0xa2, 0x43, 0xa5, 0xe4, 0xd3, 0xae, 0x04,
  0x0a, 0x08, 0x40, 0xe1, 0xb6, 0x2d, 0xa9, 0x15, 0xcc, 0x59, 0xdf, 0x15,
  0x14, 0x17, 0xca, 0x10, 0x34, 0x39, 0x25, 0xfa, 0x31, 0xbf, 0x93, 0x60,
  0xf6, 0xe1, 0x9f, 0xfd, 0xe3, 0x29, 0x9b, 0xd2, 0x46, 0xd0, 0xf0, 0x0f,
  0x1c, 0x22, 0x63, 0x01, 0xee, 0xcd, 0x16, 0xd1, 0xdd, 0x1a, 0x09, 0xd3,
  0x2c, 0xf5, 0xcf, 0xf5, 0x37, 0xfb, 0x6e, 0x1b, 0x09, 0xfe, 0x15, 0x1d,
  0x23, 0xe8, 0x1e, 0x99, 0x8e, 0xba, 0x9c, 0xde, 0xda, 0x46, 0x30, 0xf9,
  0x61, 0x6e, 0x59, 0xeb, 0xad, 0x5e, 0xfc, 0x34, 0xe8, 0x02, 0xe9, 0xba,
  0x05, 0x57, 0x12, 0xf7, 0x16, 0xe6, 0x1b, 0xed, 0xe2, 0x0b, 0xd9, 0x77,
  0x66, 0xad, 0x81, 0xc4, 0xf8, 0x12, 0xe3, 0x97, 0x69, 0x6f, 0x38, 0xb7,
  0x13, 0x00, 0x1c, 0x19, 0x43, 0x6d, 0x99, 0xc0, 0xa6, 0x69, 0x9f, 0xa4,
  0x3b, 0x25, 0xdb, 0x89, 0xe3, 0xd5, 0xe7, 0x7a, 0x37, 0x53, 0x1a, 0x08,
  0x0b, 0xd3, 0x8b, 0xa9, 0x19, 0xdd, 0x05, 0xb5, 0x16, 0x06, 0x63, 0x89,
  0xff, 0xf4, 0xce, 0x46, 0xbb, 0x97, 0x35, 0x10, 0x69, 0x90, 0x19, 0x63,
  0x19, 0x9b, 0xd3, 0x08, 0xca, 0xdf, 0xf7, 0x36, 0xf4, 0xd5, 0x6b, 0x2c,
  0xcb, 0xc0, 0xa5, 0x7f, 0x4f, 0x93, 0x9f, 0xb5, 0x14, 0x3c, 0x5b, 0xf5,
  0x23, 0x52, 0x6c, 0xdf, 0xbb, 0x35, 0x75, 0x70, 0xeb, 0xc9, 0x50, 0xf3,
  0xd5, 0x0f, 0xa4, 0x8f, 0xc9, 0x5a, 0x6f, 0x51, 0x04, 0x78, 0xe9, 0x1e,
  0xe9, 0x3f, 0x36, 0x36, 0x13, 0x4f, 0x9a, 0x52, 0xfd, 0x64, 0xf6, 0x9a,
  0x56, 0x15, 0xc8, 0x59, 0x05, 0xcf, 0x85, 0x01, 0xaf, 0xc2, 0xcb, 0x57,
  0x5b, 0x61, 0xfe, 0xb8, 0x01, 0x20, 0xeb, 0x36, 0x09, 0xac, 0xd9, 0xb3,
  0x9c, 0x4a, 0xcc, 0x16, 0xc4, 0x5b, 0xa7, 0x31, 0xfe, 0x61, 0x3e, 0xd2,
  0x04, 0x13, 0xc0, 0x12, 0x36, 0x9e, 0xe3, 0x0a, 0x0d, 0xb6, 0x47, 0xff,
  0xc5, 0x1a, 0xe8, 0x2d, 0x36, 0x56, 0xde, 0x39, 0xbe, 0x70, 0xb8, 0x10,
  0x2d, 0xc2, 0x20, 0xe6, 0x30, 0x2f, 0xf4, 0xcd, 0xff, 0xef, 0x46, 0x4f,
  0x31, 0x48, 0xdd, 0x1c, 0x2a, 0x11, 0xba, 0xc9, 0x76, 0x3c, 0x20, 0xea,
  0xd0, 0xa3, 0x49, 0x16, 0xe4, 0xd9, 0xa8, 0xf2, 0x0e, 0xe6, 0xad, 0xae,
  0xb3, 0x0e, 0x31, 0x04, 0x17, 0x38, 0x2c, 0xce, 0xc0, 0x40, 0x5d, 0xbb,
  0x23, 0x65, 0x1d, 0xc8, 0xfc, 0xe9, 0x52, 0xee, 0x7f, 0x61, 0xd6, 0x37,
  0xdb, 0xf8, 0xd9, 0xb3, 0x9d, 0xb3, 0xdd, 0xf1, 0xef, 0xc6, 0x5d, 0x10,
  0x59, 0xd9, 0x03, 0xad, 0x41, 0x60, 0x2c, 0xed, 0x21, 0x22, 0xdf, 0xf4,
  0x31, 0x11, 0xfa, 0xd2, 0xfc, 0x22, 0xc5, 0xe0, 0x59, 0x37, 0x26, 0x16,
  0xe4, 0x57, 0x61, 0x28, 0xb3, 0xb9, 0x9c, 0x12, 0x3e, 0xde, 0x57, 0xcd,
  0xe1, 0xed, 0xea, 0xdd, 0x2a, 0x30, 0x0d, 0xbe, 0xfa, 0x2b, 0x2b, 0x16,
  0xd2, 0xe6, 0x49, 0x0b, 0xf4, 0x5a, 0x08, 0xff, 0x31, 0xd6, 0x4c, 0x98,
  0xde, 0xa9, 0xdb, 0xca, 0x64, 0x6d, 0xdd, 0x60, 0x2a, 0x5e, 0xbe, 0xe6,
  0x4a, 0xa9, 0x28, 0x2d, 0x68, 0xdf, 0xb6, 0xdf, 0xe4, 0xc2, 0x18, 0x20,
  0xca, 0xa9, 0x68, 0xf6, 0x25, 0x2b, 0xa2, 0x4a, 0xd0, 0xe2, 0x2a, 0x07,
  0x1c, 0x36, 0xed, 0x3b, 0xb5, 0xb7, 0x53, 0x3b, 0xeb, 0x3e, 0x19, 0xef,
  0x2b, 0x3b, 0xdb, 0x24, 0x2b, 0x59, 0xd3, 0x05, 0xbf, 0xa0, 0xf0, 0xc1,
  0xd1, 0xab, 0x60, 0x21, 0x45, 0x45, 0x4a, 0x7f, 0x99, 0xbf, 0xc2, 0xc8,
  0xbd, 0x2d, 0xa5, 0xe5, 0x04, 0xa6, 0x4e, 0x33, 0xe0, 0xbe, 0x90, 0x5c,
  0x11, 0x22, 0xe4, 0xc2, 0x0f, 0xa5, 0x53, 0x6d, 0xfd, 0x13, 0x62, 0xbe,
  0xc8, 0xb4, 0x02, 0xd7, 0xcd, 0xe0, 0x14, 0xd9, 0xa4, 0x13, 0x5c, 0xd6,
  0xbc, 0xfd, 0xa2, 0x39, 0x94, 0x38, 0x44, 0x2f, 0xdb, 0x1f, 0x10, 0x5c,
  0x0a, 0xe4, 0xa8, 0x2d, 0xb0, 0x22, 0xcb, 0xa7, 0x95, 0xb5, 0x3b, 0xc2,
  0x41, 0x5d, 0x63, 0x41, 0x5f, 0x3a, 0x81, 0xce, 0xa4, 0xff, 0x01, 0x0b,
  0x5b, 0x6f, 0x96, 0xeb, 0x71, 0xb1, 0x4e, 0xb2, 0xe2, 0x42, 0xd2, 0xd2,
  0xec, 0xc1, 0x0b, 0xb0, 0xda, 0xc6, 0xb4, 0xf5, 0xe1, 0x8e, 0x5b, 0xe1,
  0x2f, 0x5a, 0x05, 0x8a, 0x03, 0xac, 0x26, 0x34, 0x02, 0x9b, 0x2f, 0x21,
  0xcf, 0x34, 0xab, 0x10, 0x59, 0x10, 0xa5, 0x57, 0x97, 0x67, 0x2e, 0x9c,
  0x2c, 0xf5, 0x19, 0xfb, 0x50, 0x1b, 0xd9, 0xf8, 0xbe, 0x2b, 0x11, 0xb9,
  0x0e, 0x3a, 0xd1, 0x92, 0x43, 0x37, 0xe1, 0x5b, 0xf0, 0x38, 0xcc, 0xc8,
  0xa2, 0xe9, 0xff, 0x34, 0xb4, 0x49, 0x40, 0x21, 0x2d, 0xe1, 0xc7, 0x3f,
  0x20, 0x9c, 0xb0, 0xbe, 0xaf, 0xfb, 0x0c, 0xd5, 0xe6, 0xd8, 0x99, 0x53,
  0x02, 0xdb, 0xc5, 0xa0, 0x04, 0x41, 0x47, 0xe3, 0x09, 0x4e, 0xb4, 0xe4,
  0xc5, 0xdd, 0x04, 0xc4, 0x4e, 0x0f, 0xa3, 0xc6, 0x2c, 0x4c, 0xde, 0x3d,
  0x11, 0x15, 0xbf, 0xcb, 0xd4, 0xee, 0xe1, 0x04, 0xa0, 0xdf, 0x17, 0xdf,
  0x71, 0xb9, 0x15, 0xb3, 0x40, 0x12, 0x81, 0xce, 0x06, 0xfe, 0xe0, 0x2d,
  0xb9, 0x44, 0xc6, 0xc2, 0x4a, 0xc6, 0x5a, 0xe8, 0xc6, 0xe1, 0xfd, 0xa7,
  0xb1, 0xaa, 0x13, 0x23, 0xf2, 0xba, 0x79, 0xd7, 0xe3, 0x2d, 0xda, 0xdc,
  0x0f, 0xc2, 0x03, 0xaf, 0x50, 0xd4, 0x5a, 0xbd, 0xe8, 0x45, 0xb4, 0x9a,
  0x13, 0xd0, 0x60, 0x29, 0xb2, 0xa2, 0xc9, 0xb2, 0x91, 0xcd, 0xf4, 0xa9,
  0x60, 0xc0, 0x19, 0x79, 0xd1, 0x09, 0x4f, 0xe5, 0xc4, 0x5a, 0xd6, 0x4a,
  0xc7, 0x5a, 0xaa, 0xb3, 0x63, 0xe4, 0xcb, 0xe2, 0x38, 0xa1, 0x5e, 0x30,
  0x15, 0xa4, 0xd6, 0x59, 0x02, 0xf4, 0x08, 0x26, 0xf4, 0x7c, 0x07, 0x1a,
  0xba, 0x3f, 0x57, 0x24, 0x63, 0x5b, 0xc9, 0xa3, 0xbc, 0x9a, 0xb9, 0x4c,
  0xec, 0xd1, 0xa3, 0x13, 0xb4, 0xcd, 0xca, 0xed, 0x47, 0xff, 0x0d, 0x22,
  0x2a, 0x44, 0xca, 0x32, 0xb7, 0x26, 0xe0, 0xfb, 0x4d, 0x52, 0x40, 0x1d,
  0x5a, 0x43, 0xd1, 0xb6, 0x4f, 0xa2, 0x11, 0x12, 0xa8, 0xfa, 0x26, 0xa9,
  0xc2, 0xe6, 0xb9, 0xfe, 0xbd, 0x58, 0x4e, 0xd2, 0x50, 0xd4, 0x10, 0xd0,
  0x58, 0xc6, 0x3c, 0x65, 0xb9, 0x3b, 0x06, 0x7f, 0x3a, 0x64, 0x04, 0xd5,
  0xd2, 0x5a, 0xb6, 0xda, 0x46, 0xbc, 0x00, 0xc3, 0x5c, 0xa4, 0xc1, 0xe6,
  0x6b, 0xdf, 0x59, 0xe0, 0x60, 0x35, 0x4e, 0x1a, 0x15, 0xc4, 0x54, 0x19,
  0x35, 0x4b, 0x65, 0x4c, 0x9a, 0x95, 0x0c, 0x63, 0x3c, 0xca, 0xef, 0x6c,
  0xf4, 0xf0, 0x66, 0x68, 0x1e, 0xe4, 0x00, 0x03, 0xcd, 0x17, 0xd5, 0xae,
  0x93, 0x9f, 0x45, 0xba, 0x07, 0x66, 0x35, 0xf8, 0x1e, 0xed, 0x16, 0xb0,
  0xc6, 0xed, 0xdd, 0x26, 0x0e, 0x5c, 0x95, 0x26, 0x55, 0x56, 0x5b, 0xdd,
  0xc3, 0xc9, 0x73, 0xb0, 0x0f, 0x49, 0xbe, 0x03, 0xf1, 0x4d, 0xb7, 0xd3,
  0x22, 0xbf, 0xa6, 0x51, 0x21, 0x09, 0xbc, 0x7f, 0xd4, 0x51, 0xbe, 0x07,
  0xcb, 0xd7, 0xb4, 0xe2, 0x35, 0xcc, 0xf4, 0x00, 0xb3, 0x45, 0xef, 0x36,
  0xdc, 0xcc, 0x69, 0x3a, 0x04, 0x47, 0x3f, 0x13, 0x12, 0x55, 0x52, 0x5b,
  0x28, 0x01, 0x68, 0x2f, 0xe4, 0x0b, 0xb6, 0xb3, 0x02, 0x51, 0x57, 0xe1,
  0x41, 0xbc, 0x38, 0xf4, 0xc0, 0xf4, 0xf3, 0x67, 0x14, 0xd2, 0xb7, 0xd7,
  0x0c, 0xa9, 0xcd, 0x2c, 0xf1, 0x69, 0xd8, 0xfd, 0x27, 0xde, 0x40, 0x4c,
  0x0b, 0xb6, 0xc3, 0x75, 0x6b, 0xca, 0x8a, 0x0b, 0x37, 0xfe, 0xd7, 0x26,
  0x8a, 0xea, 0x30, 0x25, 0x57, 0x39, 0x92, 0x60, 0x7c, 0x12, 0x0e, 0xaa,
  0x0e, 0x4a, 0xb9, 0x53, 0xf1, 0x89, 0x57, 0x26, 0xe2, 0xa5, 0xc3, 0xaf,
  0xbc, 0x88, 0xe4, 0x9e, 0xc8, 0x93, 0xe8, 0xc3, 0x7f, 0x9b, 0xf7, 0xf5,
  0x6d, 0x9e, 0x40, 0xa7, 0x87, 0xf2, 0xe6, 0xf9, 0xa2, 0xa0, 0x88, 0xda,
  0xda, 0xa7, 0xbe, 0x52, 0xbf, 0x92, 0x42, 0x4e, 0x7f, 0x45, 0xd6, 0x65,
  0xa5, 0x73, 0x04, 0xd0, 0x36, 0xdb, 0xdd, 0x82, 0x22, 0x8e, 0x69, 0xab,
  0x93, 0x51, 0x69, 0xe2, 0xf1, 0x67, 0x03, 0x2e, 0xb5, 0xb0, 0x63, 0x2f,
  0xae, 0xaf, 0x17, 0xbe, 0xc2, 0x3d, 0xa9, 0x19, 0x19, 0xae, 0x29, 0xe0,
  0xf5, 0x45, 0x44, 0x4c, 0xe3, 0xb5, 0x6d, 0xde, 0x95, 0xba, 0xc3, 0xc6,
  0xb5, 0xcc, 0xd1, 0x02, 0xb1, 0x19, 0x2c, 0xca, 0x3d, 0xe8, 0x55, 0x31,
  0xc6, 0xea, 0xa0, 0xe7, 0xf3, 0x0b, 0x28, 0xe7, 0x34, 0xb9, 0x81, 0x54,
  0x4b, 0xcb, 0xc0, 0xef, 0x62, 0xca, 0x21, 0x5a, 0xac, 0xfd, 0x36, 0x5e,
  0x37, 0x59, 0xc8, 0x5d, 0xa7, 0xf2, 0x0a, 0xe1, 0xff, 0xb4, 0xcd, 0xa3,
  0xc9, 0x0d, 0x3a, 0xa6, 0xde, 0xcc, 0x34, 0xc8, 0xaa, 0x5e, 0xa9, 0x3d,
  0xb4, 0x47, 0xe3, 0xbb, 0xe9, 0xdc, 0xd7, 0xeb, 0xb1, 0x4a, 0xda, 0xff,
  0x1e, 0x57, 0xe8, 0x53, 0x4c, 0xfb, 0x46, 0x1e, 0xc4, 0x3a, 0xfe, 0x4b,
  0x29, 0xaf, 0x2b, 0xb7, 0x45, 0xdb, 0xed, 0x0f, 0xde, 0xd8, 0x0c, 0xe4,
  0xd8, 0xb3, 0x39, 0xdf, 0xa6, 0xe4, 0xec, 0xfa, 0xfb, 0x3c, 0xdc, 0x1a,
  0xc7, 0x53, 0x3b, 0x32, 0x41, 0x1f, 0x18, 0x25, 0x39, 0xcf, 0x04, 0x33,
  0x05, 0xe3, 0x9b, 0x34, 0x0a, 0xe9, 0xe9, 0x0e, 0xfe, 0x25, 0xab, 0xcc,
  0xd9, 0x66, 0xaa, 0x05, 0xdb, 0xc6, 0xc9, 0x12, 0x30, 0x3b, 0xb4, 0xf7,
  0xac, 0xaf, 0x0d, 0xde, 0x43, 0x53, 0x33, 0x3a, 0x32, 0xcb, 0xcc, 0x47,
  0xed, 0x56, 0x39, 0xaf, 0x1b, 0xd7, 0x00, 0xb5, 0xd8, 0xbd, 0xf4, 0x30,
  0x97, 0x5b, 0xad, 0x64, 0x6b, 0x09, 0x1d, 0x21, 0x41, 0xe6, 0x4c, 0x4e,
  0x17, 0xe3, 0x4d, 0x24, 0x1a, 0xc9, 0x48, 0x4b, 0x46, 0xc1, 0xfe, 0xd9,
  0x62, 0x06, 0x23, 0xa1, 0x28, 0x9f, 0x40, 0x08, 0x20, 0x9c, 0xf6, 0x08,
  0xd6, 0x97, 0xcc, 0x33, 0x63, 0x4b, 0x45, 0x19, 0x03, 0xe9, 0x13, 0x81,
  0x9c, 0x32, 0x40, 0x1e, 0xb1, 0xe6, 0xf3, 0xb5, 0x5b, 0xc5, 0xa7, 0x0a,
  0xe7, 0xa4, 0x0d, 0x19, 0x99, 0xd2, 0xaf, 0x3a, 0xe6, 0x23, 0x4f, 0x17,
  0xf2, 0xbc, 0xc9, 0xdd, 0xa8, 0x3f, 0xfa, 0x25, 0x3b, 0xf0, 0x20, 0xfc,
  0x34, 0xeb, 0x63, 0xb2, 0xf6, 0xed, 0xff, 0xff, 0x04, 0x00, 0x00, 0x00,
  0x20, 0x03, 0x00, 0x00, 0x7f, 0xd1, 0xd5, 0x75, 0x36, 0x2c, 0x19, 0x91,
  0xa4, 0x0e, 0x15, 0x2e, 0xc8, 0x6c, 0x67, 0x92, 0xea, 0x19, 0xce, 0xb3,
  0x68, 0xc9, 0xc4, 0xb0, 0x3b, 0x4b, 0xb9, 0x15, 0x6a, 0x13, 0x54, 0x81,
  0x2d, 0xdd, 0x9c, 0x9f, 0x09, 0x28, 0xae, 0x64, 0xb4, 0x0c, 0xc1, 0x4a,
  0x17, 0xfe, 0x02, 0xdc, 0xd3, 0x08, 0xb1, 0x53, 0x65, 0x94, 0x0d, 0x1c,
  0x74, 0x6f, 0xd0, 0x0f, 0xbe, 0xc2, 0x3d, 0xdb, 0x39, 0x0e, 0x4c, 0x81,
  0xe1, 0xba, 0x10, 0x68, 0xb6, 0x9f, 0x92, 0xfa, 0xa9, 0xdd, 0x75, 0x47,
  0x3b, 0x1e, 0xd5, 0x0d, 0x11, 0x93, 0xaf, 0x17, 0x35, 0x88, 0x73, 0x34,
  0xc8, 0x2a, 0x81, 0x40, 0x0a, 0xc1, 0x0e, 0xff, 0x8e, 0x1c, 0x6f, 0x0a,
  0xeb, 0xcb, 0x8f, 0x7e, 0x4b, 0xf3, 0xc3, 0x3a, 0x0e, 0x88, 0xae, 0xd7,
  0xfa, 0x20, 0xe4, 0x1e, 0x4d, 0x0b, 0x81, 0x08, 0x74, 0xac, 0xdd, 0x08,
  0x68, 0x39, 0x1d, 0x1f, 0xf5, 0xa4, 0x90, 0x33, 0x09, 0x49, 0x1e, 0x6f,
  0x1a, 0xa8, 0x81, 0x89, 0x4e, 0x61, 0x58, 0xd0, 0x55, 0xc2, 0xf3, 0x81,
  0xa0, 0x24, 0x9b, 0xc6, 0xfa, 0x03, 0xbd, 0xc8, 0xcb, 0x35, 0x3b, 0x31,
  0x72, 0xd0, 0xe5, 0x64, 0xdb, 0xb2, 0x26, 0x1d, 0x88, 0xf4, 0x16, 0x3b,
  0xff, 0xee, 0xbb, 0xf1, 0xeb, 0xeb, 0xba, 0x28, 0xdf, 0x7f, 0x49, 0xb9,
  0xca, 0x02, 0xa6, 0xb4, 0x5c, 0xb5, 0x4f, 0x7b, 0xd2, 0x9c, 0x1e, 0xe3,
  0xac, 0x6a, 0xf2, 0xc3, 0x1b, 0x9c, 0xa4, 0x63, 0x4e, 0xf9, 0xe6, 0x52,
  0x84, 0x76, 0x42, 0xc9, 0x7f, 0xbf, 0x15, 0x97, 0x48, 0x3d, 0xf3, 0xfe,
  0x44, 0x2b, 0x0e, 0x1c, 0xe7, 0x44, 0xa6, 0xf9, 0xc2, 0x58, 0xb8, 0xf4,
  0xd9, 0xb1, 0x02, 0x7f, 0xff, 0x15, 0x60, 0x10, 0x98, 0xc2, 0xed, 0xed,
  0xca, 0x4f, 0x34, 0x6a, 0x91, 0xee, 0xfb, 0x1c, 0xc2, 0xcf, 0x50, 0x54,
  0x11, 0x86, 0xb7, 0x26, 0x51, 0xc5, 0xb9, 0x5c, 0x36, 0x74, 0x9b, 0x74,
  0x97, 0x81, 0x1d, 0xb8, 0xf2, 0x04, 0xde, 0xb1, 0x0f, 0x77, 0x43, 0x5a,
  0xe3, 0x64, 0x5b, 0x85, 0xf0, 0xb6, 0x81, 0x2a, 0x44, 0xc2, 0x53, 0x00,
  0xb4, 0x37, 0xd2, 0x25, 0x97, 0x26, 0x21, 0xd6, 0x11, 0x1c, 0x03, 0x3f,
  0x29, 0xa6, 0x7f, 0xb8, 0xa3, 0x3b, 0xae, 0xad, 0xbc, 0xf5, 0x6e, 0x45,
  0xe4, 0x0d, 0x2e, 0xcf, 0x9b, 0xff, 0x52, 0xdf, 0xeb, 0x7f, 0x25, 0x08,
  0x23, 0x38, 0x18, 0x1b, 0xdd, 0x0d, 0xab, 0x51, 0x67, 0x16, 0x41, 0xc1,
  0xaa, 0xf1, 0x20, 0xc9, 0xae, 0xe3, 0x1c, 0xf9, 0xd6, 0xc6, 0xd5, 0xc6,
  0x4f, 0xa6, 0x30, 0xd3, 0x3c, 0xe1, 0x98, 0x68, 0x3e, 0x0e, 0x5d, 0x84,
  0x35, 0x87, 0x15, 0xf7, 0x7f, 0x2f, 0x54, 0x56, 0x24, 0xeb, 0x5a, 0x39,
  0x8f, 0xe0, 0x1a, 0x8c, 0xd9, 0x41, 0x35, 0x0b, 0xa7, 0x64, 0xe8, 0x9c,
  0xc7, 0x52, 0x46, 0x42, 0x3a, 0xf1, 0xd4, 0x81, 0xe6, 0x5b, 0xdf, 0x1a,
  0xc6, 0x22, 0x08, 0x6e, 0xd8, 0xca, 0x1c, 0x32, 0x2d, 0x28, 0xbd, 0xf7,
  0x25, 0x81, 0x8f, 0xc0, 0x5d, 0xdb, 0xcc, 0xfd, 0xf8, 0x7f, 0xb4, 0x27,
  0xa4, 0xac, 0xb7, 0x21, 0x2e, 0xe4, 0x51, 0xc1, 0xba, 0xfa, 0xa0, 0xd5,
  0x0e, 0x92, 0x5a, 0x4b, 0x05, 0x18, 0xb3, 0x9e, 0x2a, 0x92, 0xe1, 0x4d,
  0xe2, 0x1c, 0x12, 0x31, 0x20, 0xd1, 0x52, 0x14, 0xad, 0xc4, 0xa8, 0x54,
  0x1e, 0xa9, 0x66, 0x51, 0x99, 0xef, 0x1c, 0x40, 0x81, 0x18, 0xde, 0xb7,
  0x1d, 0x1b, 0x1a, 0x2b, 0x8a, 0xee, 0x7f, 0x8b, 0x4c, 0x08, 0xb3, 0x08,
  0x12, 0xc7, 0xe1, 0x6e, 0x39, 0xe8, 0x02, 0xaa, 0x90, 0x53, 0x03, 0xf6,
  0x81, 0x6e, 0x3a, 0x8a, 0x56, 0xf5, 0xec, 0xc0, 0x0e, 0x0b, 0x55, 0x72,
  0x33, 0x53, 0xd8, 0xad, 0x41, 0xb7, 0x57, 0x38, 0x2f, 0x21, 0x39, 0x14,
  0xee, 0x17, 0x6b, 0xcf, 0x86, 0x64, 0x44, 0xa6, 0x64, 0x81, 0x0c, 0xc7,
  0x8a, 0x2f, 0x60, 0x62, 0x36, 0x40, 0x26, 0x43, 0x28, 0xa1, 0x7f, 0xad,
  0x4b, 0xce, 0x05, 0x35, 0x56, 0x0d, 0x1f, 0x1b, 0xf2, 0xfe, 0xdc, 0x3c,
  0x8d, 0x28, 0xca, 0xed, 0x81, 0xe0, 0xd0, 0xd9, 0xfc, 0x4b, 0x24, 0x49,
  0x55, 0xcd, 0x17, 0x7c, 0x0f, 0x8b, 0x2b, 0x81, 0x32, 0x4e, 0x03, 0xa7,
  0xb3, 0x92, 0x24, 0x54, 0x17, 0xef, 0x45, 0xc3, 0xd3, 0xed, 0xc9, 0xb1,
  0xda, 0xcc, 0x89, 0xa2, 0xfe, 0x1d, 0xf5, 0xd7, 0xa8, 0xfc, 0xbe, 0x9c,
  0x92, 0x19, 0x4d, 0x34, 0xa3, 0xbb, 0x7f, 0xc0, 0x8b, 0x0e, 0x51, 0xe5,
  0xb0, 0x9e, 0x2e, 0x31, 0xe5, 0x8a, 0xdf, 0xdb, 0x59, 0xb6, 0x3d, 0x7f,
  0x62, 0xb5, 0x5c, 0xd0, 0xeb, 0x29, 0xde, 0x39, 0xb6, 0x1d, 0xfc, 0x60,
  0x86, 0x24, 0x0b, 0xc7, 0x89, 0x60, 0x32, 0x33, 0x93, 0x54, 0x41, 0x88,
  0x05, 0xc8, 0x8d, 0xbc, 0x5e, 0x85, 0x81, 0x18, 0xaf, 0x57, 0x42, 0xd2,
  0x2b, 0xfa, 0x0d, 0x58, 0xce, 0xad, 0xac, 0x89, 0x11, 0x76, 0xb2, 0xe1,
  0x6a, 0x26, 0x53, 0x40, 0x00, 0xe5, 0xd1, 0x71, 0x4d, 0xeb, 0xd0, 0x10,
  0x50, 0xac, 0xb6, 0xc3, 0x99, 0x81, 0x25, 0x96, 0xf8, 0x52, 0x30, 0xfe,
  0xc8, 0xf2, 0x07, 0xb0, 0x99, 0x9f, 0x46, 0xc3, 0xaa, 0x1c, 0x32, 0x2e,
  0x31, 0x0d, 0x7b, 0x30, 0x81, 0x92, 0x1a, 0x28, 0x33, 0xa8, 0x21, 0x91,
  0x05, 0x95, 0xd1, 0x57, 0xb5, 0x2d, 0x5e, 0x37, 0x81, 0x91, 0x62, 0xd5,
  0x9b, 0x67, 0xce, 0x01, 0xb1, 0xf2, 0x54, 0x15, 0x4f, 0x6a, 0x5f, 0x46,
  0xe0, 0x2c, 0xa5, 0xbe, 0x3f, 0x43, 0x02, 0x67, 0x90, 0x3e, 0x42, 0x49,
  0x4e, 0xdd, 0xfd, 0x67, 0x83, 0x41, 0x81, 0x44, 0x5f, 0xd3, 0x8d, 0x67,
  0x04, 0x03, 0xc4, 0x15, 0x02, 0xeb, 0x82, 0x2f, 0xc6, 0xee, 0xf3, 0xa4,
  0x08, 0x09, 0x26, 0x38, 0x14, 0xf0, 0xe9, 0x6e, 0x84, 0x31, 0x35, 0x7f,
  0x22, 0xf1, 0xff, 0xff, 0x04, 0x00, 0x00, 0x00, 0x80, 0x0c, 0x00, 0x00,
  0xc9, 0x11, 0x24, 0x04, 0xa6, 0x0f, 0xb0, 0x0a, 0xe9, 0xd5, 0xdf, 0xc5,
  0xbc, 0x0d, 0x0e, 0x0c, 0x0f, 0x26, 0xca, 0x1a, 0xc3, 0xc5, 0x27, 0xfc,
  0xec, 0xfd, 0xcf, 0xe5, 0x3d, 0x3b, 0x1e, 0xe8, 0xd4, 0xe3, 0xf9, 0xc7,
  0x30, 0x2f, 0xcb, 0xe3, 0x21, 0x10, 0xdf, 0xe2, 0xf5, 0xfc, 0xc6, 0x2b,
  0xbc, 0x18, 0x14, 0x04, 0x2e, 0x19, 0x26, 0x34, 0xe0, 0xe9, 0x10, 0xca,
  0xd1, 0xff, 0x3a, 0xe9, 0x28, 0xc7, 0xec, 0xe7, 0xc3, 0x2e, 0x19, 0x03,
  0xcd, 0x28, 0x23, 0x25, 0x46, 0xc8, 0x3c, 0xdc, 0x12, 0xdd, 0x04, 0xdf,
  0xd2, 0xbf, 0xb6, 0x10, 0xc0, 0xf0, 0x08, 0x2a, 0x0e, 0x18, 0x25, 0xb9,
  0x3a, 0xe5, 0x3e, 0x19, 0x0e, 0x0b, 0xfd, 0x38, 0xc9, 0xd9, 0xf1, 0x03,
  0xe7, 0x0b, 0x4b, 0x04, 0x3a, 0x39, 0x20, 0xff, 0x15, 0xfa, 0xc4, 0x02,
  0xb9, 0x2c, 0x02, 0xbe, 0xf7, 0x04, 0x30, 0x2a, 0x0a, 0xda, 0xd2, 0x10,
  0xf7, 0x4b, 0x4c, 0x05, 0xfb, 0x22, 0xf6, 0xe4, 0xe7, 0xc8, 0xeb, 0x0a,
  0xcc, 0xd0, 0x29, 0xc9, 0x2a, 0x00, 0x13, 0xb4, 0x20, 0xd6, 0x11, 0xeb,
  0x12, 0xea, 0x24, 0x0d, 0x01, 0xef, 0xdc, 0x0d, 0x2f, 0xed, 0x0d, 0x2a,
  0xc5, 0xc5, 0x2b, 0x3b, 0xd7, 0x36, 0xf9, 0xf8, 0xc9, 0xd1, 0x48, 0xd9,
  0xf9, 0x03, 0xe2, 0xcf, 0xd6, 0xcc, 0x30, 0xbb, 0xc8, 0x18, 0x3b, 0x0d,
  0xf9, 0x23, 0x1e, 0x07, 0x26, 0x1a, 0x38, 0x00, 0x0f, 0x16, 0x27, 0xfb,
  0x39, 0xe3, 0x33, 0x12, 0x3b, 0xac, 0xde, 0xd3, 0x24, 0xbd, 0xc8, 0x1d,
  0xd9, 0x01, 0x51, 0x35, 0x04, 0x34, 0x34, 0xbd, 0x1f, 0xe8, 0x36, 0x42,
  0x09, 0xb3, 0xe3, 0x36, 0xcb, 0x09, 0xee, 0xcb, 0x1d, 0x4e, 0xf1, 0x24,
  0xc4, 0xc0, 0x21, 0x1b, 0xf7, 0x12, 0x1c, 0x45, 0xb7, 0xee, 0xcf, 0x15,
  0x2f, 0x18, 0x3a, 0xe0, 0xc2, 0x19, 0x0e, 0x0d, 0xd6, 0x27, 0xdf, 0x32,
  0x44, 0xf6, 0x2e, 0xce, 0x05, 0x17, 0x23, 0xde, 0xf6, 0xca, 0xe0, 0x28,
  0x15, 0xed, 0xb6, 0xf0, 0xc2, 0x43, 0x06, 0x07, 0xea, 0x2b, 0x20, 0xf7,
  0x0a, 0x02, 0xf9, 0x00, 0x17, 0xf0, 0xc2, 0x01, 0x23, 0x2f, 0x25, 0xe9,
  0xe1, 0x32, 0xec, 0x39, 0xf7, 0xce, 0x0d, 0x21, 0x32, 0xf0, 0x16, 0xb0,
  0xcc, 0x16, 0x24, 0xb9, 0x30, 0xf6, 0xe5, 0xcb, 0x39, 0x17, 0xc1, 0x04,
  0x09, 0xce, 0x0b, 0xe8, 0xdb, 0xfb, 0x32, 0x02, 0x36, 0x0a, 0xf5, 0xe6,
  0x1e, 0xc5, 0x09, 0x22, 0x3f, 0xb4, 0x2c, 0x00, 0xd2, 0x1f, 0x06, 0x34,
  0x13, 0x23, 0xc0, 0xec, 0x00, 0xd5, 0xd0, 0xd2, 0xd1, 0x63, 0xcb, 0x2f,
  0x06, 0xe1, 0xec, 0x1d, 0xff, 0xe1, 0x20, 0xf8, 0x4a, 0xd7, 0x18, 0x59,
  0xc4, 0x39, 0x24, 0xb5, 0xf7, 0x09, 0x2f, 0x35, 0xf9, 0xef, 0xea, 0x34,
  0xce, 0xcd, 0xcd, 0x31, 0xca, 0x1d, 0xb9, 0xd3, 0x29, 0x35, 0x25, 0xdb,
  0xf6, 0xb4, 0xb9, 0xfc, 0x0c, 0xc9, 0xe3, 0xef, 0x6d, 0xdc, 0xca, 0x3a,
  0x42, 0x03, 0xfb, 0x13, 0x21, 0x55, 0x3f, 0x18, 0xe0, 0x06, 0xf7, 0xd9,
  0xc4, 0x23, 0x29, 0x29, 0xc5, 0x1e, 0x1a, 0xfa, 0xdb, 0x3d, 0x09, 0x24,
  0xf3, 0x2e, 0xd4, 0x6f, 0x18, 0xcf, 0x44, 0x15, 0xba, 0x06, 0x1c, 0xf1,
  0xbd, 0x3a, 0x3c, 0xec, 0x38, 0x2e, 0x31, 0xb3, 0xd9, 0x2b, 0x10, 0x25,
  0x21, 0x09, 0xda, 0x3d, 0x1d, 0xb4, 0x14, 0xf1, 0x2b, 0x03, 0xfb, 0x1f,
  0xed, 0xb3, 0x37, 0xd5, 0xf7, 0x25, 0xf8, 0x41, 0x1b, 0x35, 0xc0, 0x23,
  0x21, 0x09, 0x1f, 0xcb, 0xf3, 0xba, 0xbf, 0x41, 0x17, 0xfd, 0xf9, 0x2f,
  0xcb, 0x0c, 0x26, 0x15, 0x05, 0x2a, 0x38, 0x03, 0x2f, 0x09, 0x35, 0xf5,
  0xbd, 0xc6, 0x3e, 0xc4, 0xd9, 0x41, 0xe7, 0xc2, 0xe4, 0x2f, 0x16, 0xc0,
  0xff, 0x56, 0x12, 0x0c, 0x40, 0xd6, 0x0e, 0xdf, 0xef, 0x26, 0xf8, 0xee,
  0xce, 0x10, 0x21, 0xf2, 0x13, 0x31, 0x49, 0xc6, 0xbd, 0xf7, 0x10, 0x1b,
  0xd0, 0xea, 0x47, 0x0c, 0xd5, 0xce, 0xce, 0xc3, 0xca, 0x3b, 0x0b, 0x45,
  0xd6, 0xbd, 0x1a, 0x09, 0x0a, 0xe7, 0x05, 0xcb, 0xe1, 0xde, 0xe4, 0x00,
  0xb9, 0xe0, 0x0d, 0x52, 0xcb, 0xfb, 0xf5, 0x70, 0xda, 0x3f, 0xb3, 0xf5,
  0xc5, 0x4e, 0xc3, 0x09, 0xcf, 0xc5, 0xe3, 0x43, 0xc7, 0x0a, 0x1a, 0x26,
  0xee, 0x07, 0x04, 0x3e, 0xd4, 0xb6, 0xfd, 0xfb, 0x29, 0xc7, 0xb4, 0x39,
  0xeb, 0x2c, 0x09, 0xca, 0x49, 0xe9, 0x56, 0xf8, 0x07, 0x34, 0x23, 0xf1,
  0xd2, 0xe9, 0x0f, 0x23, 0x33, 0xd1, 0xcf, 0x1d, 0xf2, 0x1b, 0xdc, 0xcd,
  0x2c, 0xdd, 0xe9, 0x23, 0xf3, 0xc5, 0x22, 0xa7, 0xdf, 0xc9, 0xfd, 0x67,
  0xbd, 0x43, 0xb9, 0xbb, 0xda, 0xd7, 0xf3, 0xf7, 0x31, 0xb8, 0xce, 0xe7,
  0xc1, 0x26, 0xf0, 0xfd, 0xcc, 0xbf, 0x07, 0xf4, 0x44, 0x35, 0x3b, 0x0c,
  0x3a, 0xf5, 0x4d, 0x0a, 0xee, 0x04, 0xe7, 0xfc, 0xfc, 0xef, 0x2a, 0x3b,
  0xd5, 0xe4, 0x03, 0x0f, 0xcb, 0x0f, 0x15, 0xd0, 0xcc, 0xe6, 0x0a, 0x3b,
  0x4d, 0xe3, 0x19, 0x17, 0xdc, 0x1f, 0x14, 0x28, 0x0e, 0xd7, 0xeb, 0x1b,
  0xc1, 0xcf, 0x48, 0x1a, 0xdc, 0xd4, 0x22, 0x2d, 0x1e, 0xdd, 0xba, 0x15,
  0x40, 0xe0, 0x52, 0x03, 0xd7, 0xeb, 0x0a, 0x22, 0xc7, 0xf2, 0xd9, 0x5f,
  0xe1, 0xda, 0xec, 0xb7, 0x58, 0xef, 0x07, 0xeb, 0xea, 0xc9, 0x0e, 0x33,
  0x15, 0x4a, 0xca, 0x21, 0xd6, 0x3c, 0xe0, 0xc2, 0x3b, 0x5c, 0x27, 0xc5,
  0x05, 0x20, 0x1a, 0xef, 0x34, 0x65, 0x58, 0xcc, 0xc4, 0xf1, 0x66, 0x24,
  0x3f, 0xf6, 0x2d, 0x58, 0xf9, 0xeb, 0x1a, 0xf7, 0x22, 0x14, 0xe1, 0xbc,
  0xea, 0x11, 0x15, 0x31, 0x36, 0x30, 0xe3, 0x0f, 0xdf, 0x0a, 0x06, 0x23,
  0xe4, 0x1d, 0xc7, 0x09, 0x37, 0xc3, 0x2b, 0x0d, 0xfb, 0xd6, 0x67, 0xfc,
  0xce, 0xc1, 0x4f, 0x30, 0xf2, 0x00, 0xdd, 0x21, 0xbf, 0x58, 0x07, 0x1c,
  0xba, 0x29, 0x4b, 0xcb, 0x06, 0xd5, 0x09, 0x51, 0xd1, 0x07, 0x4e, 0xd3,
  0x08, 0x22, 0x54, 0xfc, 0x2d, 0xfb, 0x0e, 0x2d, 0x09, 0xef, 0x53, 0x3d,
  0x5a, 0x1a, 0x1e, 0xec, 0xe1, 0xf5, 0xba, 0x38, 0x54, 0x26, 0xfd, 0xc8,
  0xf7, 0xb8, 0xde, 0xcc, 0x1f, 0xbd, 0xe5, 0x4d, 0x3b, 0x34, 0x42, 0xe5,
  0x52, 0xb5, 0x5e, 0x0b, 0x3b, 0x07, 0x4a, 0xfa, 0xf1, 0x3b, 0xeb, 0xd5,
  0xb2, 0xfc, 0x08, 0x17, 0x30, 0xcc, 0xfa, 0x12, 0x23, 0x37, 0xc5, 0xed,
  0x4b, 0x30, 0xfd, 0xd1, 0xe3, 0xf8, 0x08, 0x1e, 0x04, 0xc7, 0x3c, 0x05,
  0x2a, 0x16, 0x44, 0x0d, 0x2a, 0x16, 0xba, 0x24, 0xee, 0x02, 0xbc, 0x08,
  0xf8, 0xf4, 0x44, 0x38, 0xe4, 0xe0, 0x29, 0xd3, 0xd9, 0x28, 0xcd, 0x54,
  0x22, 0xe8, 0xc2, 0xf0, 0xde, 0xfb, 0xbe, 0x30, 0x0a, 0x30, 0x15, 0x46,
  0x17, 0x0d, 0xf4, 0xc8, 0x0f, 0xe7, 0x3a, 0xf3, 0x1e, 0x3c, 0xed, 0x18,
  0xdd, 0xdd, 0xf5, 0x4c, 0xf2, 0x42, 0x01, 0xe5, 0x34, 0x0b, 0x49, 0x02,
  0x2b, 0x3d, 0xe1, 0x3b, 0xce, 0x29, 0xee, 0xe6, 0xc7, 0x29, 0xdf, 0xfe,
  0x0e, 0xc9, 0x26, 0xd0, 0x4f, 0xd7, 0x2e, 0xd4, 0xf6, 0xfd, 0xb4, 0xee,
  0x23, 0x1e, 0xc8, 0xfd, 0x1e, 0xbb, 0x2c, 0xf1, 0xb5, 0x21, 0xe9, 0x33,
  0x0d, 0x2e, 0x0c, 0xc5, 0xb9, 0x1e, 0xb7, 0x0d, 0x1c, 0x3c, 0x1b, 0xf1,
  0x2f, 0x48, 0x23, 0xf1, 0x16, 0x42, 0x0b, 0x3e, 0x1e, 0x2c, 0x41, 0x19,
  0xbd, 0x3d, 0x19, 0x02, 0xdf, 0x21, 0xd3, 0xd8, 0xbc, 0xf8, 0xfd, 0xe4,
  0xcc, 0xeb, 0xd0, 0xfe, 0x21, 0x10, 0xcb, 0x37, 0xda, 0x0a, 0xd4, 0x3c,
  0xe8, 0xdf, 0x05, 0xf4, 0xbc, 0x22, 0xf0, 0x6b, 0xe8, 0xf6, 0xfa, 0x0b,
  0x15, 0xdd, 0x00, 0x27, 0x23, 0xd0, 0x22, 0x1a, 0xb3, 0x39, 0x30, 0xf9,
  0x3b, 0x34, 0x31, 0x37, 0xf9, 0x50, 0x13, 0x14, 0xd9, 0x28, 0xd0, 0x47,
  0x3d, 0x19, 0x6a, 0x47, 0xdc, 0xf7, 0x04, 0x1d, 0xf1, 0xd1, 0x32, 0x14,
  0xdb, 0x0a, 0x3c, 0x13, 0x0e, 0x16, 0x0a, 0x31, 0x20, 0x30, 0xd4, 0x04,
  0x14, 0x4a, 0xdf, 0x31, 0x42, 0x30, 0xd2, 0x13, 0xcf, 0x0e, 0xc6, 0xee,
  0x17, 0xca, 0xc6, 0x1d, 0x4b, 0x29, 0xfc, 0xee, 0xda, 0xfc, 0x1e, 0xd2,
  0x34, 0x1f, 0x42, 0x0b, 0xd0, 0x3b, 0xe4, 0xe5, 0x3c, 0x4e, 0x32, 0x01,
  0x00, 0xe2, 0x04, 0x5d, 0x15, 0x3f, 0x08, 0xc3, 0x30, 0xfa, 0xe4, 0x42,
  0xb6, 0xef, 0xf7, 0xe6, 0x0a, 0xfc, 0x4b, 0xde, 0x4a, 0x0f, 0xf8, 0xf9,
  0x29, 0x65, 0xc1, 0x49, 0x31, 0x56, 0x0d, 0x17, 0x35, 0x29, 0x29, 0x11,
  0x39, 0xd4, 0x00, 0x2e, 0xbe, 0x3a, 0x27, 0x44, 0x52, 0x02, 0xf1, 0x0b,
  0x07, 0xf6, 0x1e, 0xd0, 0x16, 0x42, 0xef, 0xc9, 0xd0, 0x61, 0x14, 0x24,
  0xdd, 0xed, 0x5c, 0xad, 0xbb, 0x13, 0x48, 0x0f, 0x0c, 0x43, 0xf3, 0x19,
  0xc9, 0x0d, 0x19, 0x39, 0x23, 0xe1, 0xc6, 0x27, 0xca, 0xb9, 0x54, 0x3c,
  0x3a, 0x17, 0x26, 0x28, 0x1a, 0x52, 0xb6, 0x4a, 0xe8, 0x31, 0x50, 0xcb,
  0x0f, 0xbb, 0xef, 0xd3, 0xde, 0xe4, 0xcf, 0xdd, 0xf7, 0x29, 0xf7, 0x2e,
  0xe5, 0xfc, 0xf6, 0x5e, 0x19, 0x2d, 0x41, 0xfe, 0xdb, 0xc8, 0x1a, 0xd0,
  0x3b, 0xf8, 0xe4, 0x30, 0x23, 0x07, 0x0c, 0xf1, 0xbc, 0x45, 0x42, 0x30,
  0x26, 0x3b, 0x61, 0x30, 0x30, 0x0e, 0xec, 0x23, 0x1f, 0x3a, 0xb9, 0x43,
  0xe6, 0xe9, 0xdc, 0x63, 0xba, 0x2b, 0xc8, 0xd0, 0xec, 0x4a, 0xfb, 0xe8,
  0x56, 0xe2, 0x61, 0xfc, 0x23, 0xd7, 0xe6, 0x2b, 0xdf, 0x6d, 0xd6, 0xdd,
  0xf4, 0xdd, 0x1b, 0xe7, 0x1b, 0xd7, 0x4f, 0xc2, 0x43, 0xdc, 0x06, 0xd7,
  0x4c, 0xfd, 0x2e, 0x20, 0xd3, 0x32, 0x25, 0x42, 0xe9, 0xf8, 0x21, 0xd0,
  0xf9, 0xf2, 0xd7, 0x48, 0x51, 0xd7, 0xea, 0xcb, 0xe4, 0x25, 0x42, 0x23,
  0xf6, 0x06, 0x3c, 0x20, 0x4c, 0x3c, 0x47, 0x6a, 0xcc, 0x14, 0xd3, 0x03,
  0xe5, 0x30, 0xc0, 0x33, 0x10, 0x02, 0xdd, 0xe2, 0x0b, 0x2b, 0x27, 0xd8,
  0xfa, 0x24, 0x1e, 0x2d, 0x08, 0x04, 0xe9, 0xbf, 0xd8, 0x11, 0xe9, 0x0f,
  0xce, 0x41, 0xf3, 0xff, 0x35, 0xb4, 0x35, 0xbf, 0x25, 0x1a, 0xd7, 0x07,
  0xdb, 0x40, 0x3c, 0x13, 0xf8, 0xd7, 0xd7, 0x0d, 0x17, 0x32, 0xec, 0xee,
  0xcd, 0x5e, 0xd2, 0x4b, 0xc8, 0x1c, 0x5c, 0x37, 0x3e, 0xd4, 0x04, 0x0c,
  0x54, 0x32, 0x51, 0xc3, 0xf0, 0xf1, 0xd9, 0x42, 0xfa, 0xee, 0x08, 0x31,
  0xd9, 0x0d, 0x18, 0x3f, 0x46, 0x4f, 0x14, 0x4f, 0xe7, 0xc5, 0xe7, 0xf9,
  0xf3, 0xc4, 0x24, 0x4d, 0xe4, 0xf0, 0x66, 0xf2, 0xf4, 0x0d, 0x32, 0xcf,
  0x1a, 0x2e, 0xd0, 0x3e, 0xbd, 0xfc, 0x3d, 0xf0, 0x41, 0x01, 0xc0, 0xd7,
  0xfe, 0x3c, 0xe8, 0xd5, 0xc8, 0x2f, 0x50, 0xf4, 0x36, 0xf0, 0xe3, 0x14,
  0x2d, 0xe3, 0x38, 0x2e, 0xdf, 0xf4, 0xe5, 0xcd, 0x33, 0xcf, 0xdb, 0x32,
  0x1a, 0x30, 0x35, 0x1a, 0x19, 0x0c, 0xd2, 0xd5, 0xe2, 0x05, 0xec, 0xef,
  0x2e, 0xce, 0x2b, 0x40, 0xcb, 0x02, 0x6a, 0x03, 0xd9, 0xf4, 0xfa, 0x09,
  0xd0, 0x20, 0xca, 0x03, 0x1d, 0x64, 0xf9, 0x49, 0xb2, 0x19, 0x55, 0x1d,
  0xdf, 0xda, 0x2b, 0xd9, 0xb7, 0x5d, 0xe9, 0xf6, 0x2b, 0x34, 0x1c, 0x25,
  0x24, 0x42, 0xd0, 0x41, 0x16, 0xd9, 0x2b, 0x12, 0x06, 0x19, 0x1d, 0xfc,
  0x1c, 0xf3, 0xdb, 0xdf, 0xfc, 0xd8, 0x5e, 0x10, 0x04, 0x29, 0xfe, 0xdb,
  0x4b, 0x2b, 0x3d, 0x43, 0x15, 0xdb, 0x1a, 0x3a, 0x15, 0x2c, 0xcd, 0x0e,
  0x1a, 0x00, 0x3f, 0x39, 0x1b, 0x42, 0xbb, 0xbf, 0xfd, 0xf9, 0xfe, 0xef,
  0xd4, 0xde, 0x26, 0x1f, 0x2c, 0x19, 0xbf, 0x10, 0xe9, 0x0c, 0x18, 0xd3,
  0xfc, 0x2d, 0x00, 0xeb, 0x06, 0xe4, 0xf4, 0x2c, 0xc8, 0x20, 0xd8, 0x4a,
  0x1a, 0x1c, 0xf8, 0xdd, 0x1f, 0xfd, 0x46, 0x2c, 0xe0, 0x25, 0xf5, 0xd1,
  0xfa, 0xf6, 0x0d, 0xf2, 0xd8, 0x1b, 0x22, 0xc5, 0xd0, 0x1d, 0xff, 0x01,
  0xc4, 0x4a, 0x3b, 0x36, 0x39, 0xdb, 0xfe, 0xdf, 0x02, 0x16, 0xd1, 0x04,
  0xf0, 0x4a, 0xea, 0xd9, 0xc9, 0x00, 0xd8, 0xd0, 0xd7, 0xed, 0xe9, 0xd8,
  0x44, 0x33, 0x05, 0xb8, 0xdd, 0x17, 0x20, 0xfa, 0x33, 0x31, 0xd6, 0x3b,
  0x08, 0xea, 0x24, 0x3b, 0xd7, 0xe6, 0xff, 0xdf, 0x37, 0x19, 0x42, 0x1b,
  0x38, 0xd2, 0xd7, 0x25, 0xc2, 0xcd, 0x1e, 0x14, 0xf4, 0x5e, 0x1d, 0x04,
  0xba, 0xf4, 0x1b, 0xc8, 0xe4, 0x1e, 0x12, 0xeb, 0x29, 0x25, 0xcf, 0x1c,
  0xc8, 0xdf, 0xc3, 0xdf, 0x04, 0x21, 0xe9, 0x14, 0xef, 0x03, 0xe3, 0xc6,
  0xde, 0x1a, 0xfc, 0xf5, 0x04, 0x41, 0xb5, 0x35, 0xde, 0xd3, 0xc9, 0xfc,
  0x41, 0x00, 0x34, 0xde, 0x37, 0x22, 0xe6, 0x16, 0x50, 0xd2, 0xc1, 0x17,
  0x32, 0x47, 0x2b, 0x42, 0xfc, 0x12, 0x0c, 0x02, 0xbd, 0x3b, 0x27, 0x26,
  0xc0, 0x3a, 0x0c, 0xdc, 0xcf, 0x0b, 0xe1, 0xe8, 0xee, 0x17, 0x0a, 0x38,
  0x1c, 0xda, 0xe9, 0xbd, 0xd6, 0x02, 0xaf, 0xe7, 0x1d, 0x27, 0xe4, 0x1a,
  0xc4, 0x1b, 0xe2, 0x2e, 0x2f, 0x21, 0xf7, 0xfa, 0xb4, 0xd2, 0x11, 0x3c,
  0x11, 0xf4, 0xff, 0xc3, 0x12, 0xe7, 0xfc, 0xf0, 0xf0, 0x3d, 0x0a, 0x2d,
  0xdf, 0xdc, 0x2d, 0x00, 0xd2, 0x0b, 0x38, 0x01, 0xe1, 0xda, 0x17, 0x18,
  0xd5, 0xea, 0xe5, 0xfb, 0x1d, 0x3b, 0xee, 0x1d, 0x1d, 0x1c, 0x1a, 0x32,
  0xe5, 0x10, 0x41, 0xea, 0x02, 0x15, 0xcc, 0x2e, 0x38, 0xb0, 0x0d, 0xe0,
  0x32, 0xd5, 0x47, 0xf7, 0xe0, 0x51, 0x0c, 0xd0, 0x14, 0x03, 0xd4, 0x39,
  0xe4, 0x12, 0x2a, 0x13, 0xc9, 0x36, 0xcc, 0x0f, 0xca, 0x26, 0xdc, 0xce,
  0xe0, 0xd1, 0x1d, 0x25, 0x24, 0x31, 0xe9, 0x38, 0x03, 0xda, 0x01, 0x5b,
  0x3e, 0xf7, 0x3f, 0x1f, 0xfa, 0xe2, 0x0e, 0x05, 0x03, 0xfe, 0xda, 0xbc,
  0x42, 0x38, 0x28, 0x0f, 0xdf, 0x19, 0xe4, 0x0d, 0xe2, 0x3f, 0xe7, 0x2b,
  0x0f, 0xf3, 0x10, 0xdc, 0x40, 0x14, 0xc8, 0x15, 0xd3, 0xed, 0x31, 0xd0,
  0xdd, 0x32, 0xd0, 0xe0, 0x36, 0xb7, 0xe1, 0x21, 0x1b, 0x35, 0x25, 0x05,
  0xe5, 0x52, 0xfd, 0x00, 0xe8, 0x00, 0xfb, 0x20, 0xe8, 0xfe, 0xfa, 0xd8,
  0xb9, 0x31, 0x21, 0x25, 0xe9, 0x3f, 0x09, 0xed, 0x18, 0x1b, 0x46, 0x36,
  0xef, 0x2d, 0x10, 0xf9, 0x17, 0x47, 0x2e, 0xc1, 0x17, 0x35, 0x19, 0x4a,
  0x0b, 0xd9, 0xc5, 0x08, 0x34, 0xad, 0x27, 0xc9, 0x0a, 0xf1, 0xd4, 0x0a,
  0x23, 0xce, 0x45, 0x49, 0x14, 0xc0, 0xd6, 0x19, 0x1f, 0xf1, 0xe7, 0xdc,
  0xef, 0x25, 0xd2, 0xe9, 0x11, 0xb6, 0xc7, 0xd1, 0x24, 0xc5, 0x14, 0x3d,
  0xd6, 0x27, 0xeb, 0xcf, 0x41, 0x14, 0x2c, 0x2e, 0xcc, 0xe7, 0xd3, 0x13,
  0x18, 0xc3, 0x31, 0x2f, 0xc8, 0x17, 0x2a, 0x1b, 0xcf, 0x4c, 0x10, 0xc1,
  0xc7, 0xf0, 0x14, 0x46, 0x3a, 0x24, 0xcc, 0xda, 0x19, 0xbb, 0xcf, 0x44,
  0xe6, 0xef, 0x21, 0x0b, 0xce, 0x02, 0x18, 0xd0, 0x19, 0xec, 0x14, 0xdd,
  0xc7, 0x2b, 0xc1, 0x40, 0x2a, 0xf4, 0x13, 0xc8, 0x21, 0x04, 0xf7, 0x1e,
  0xd0, 0xdf, 0x0a, 0x04, 0xf2, 0xeb, 0xc3, 0xce, 0xd2, 0xe1, 0xe4, 0xe8,
  0x29, 0xfe, 0xfa, 0x22, 0xf2, 0xc5, 0xd3, 0x2b, 0xeb, 0x2a, 0xe1, 0x13,
  0x07, 0x4b, 0xdc, 0x06, 0xba, 0x50, 0x31, 0x0c, 0x47, 0x01, 0xcc, 0x28,
  0xab, 0x1f, 0xde, 0x4d, 0x1b, 0x1d, 0x01, 0xd4, 0x25, 0xd4, 0xd9, 0x46,
  0x18, 0xd4, 0x25, 0x06, 0x1a, 0xcf, 0xc1, 0xbb, 0x28, 0x34, 0x01, 0xa3,
  0xef, 0xe1, 0x41, 0xb3, 0xd8, 0x10, 0xe5, 0x16, 0xb3, 0xcd, 0x34, 0x12,
  0xc2, 0x28, 0x4b, 0xf5, 0xd1, 0x25, 0xec, 0xbf, 0xd9, 0xd3, 0x3f, 0x35,
  0x36, 0xcb, 0x50, 0xd9, 0x30, 0xde, 0xfe, 0x1d, 0xb3, 0x0c, 0xd0, 0x3a,
  0xca, 0xf9, 0xf2, 0xf9, 0xc7, 0xf3, 0xbf, 0x0b, 0xe0, 0x33, 0xc4, 0xe2,
  0x3e, 0xe2, 0x00, 0xb9, 0xd3, 0xd2, 0x0f, 0xde, 0xf6, 0x07, 0x06, 0xf7,
  0x32, 0xf2, 0xd3, 0x1a, 0x30, 0x3c, 0xba, 0x28, 0x25, 0xf0, 0x03, 0x1e,
  0xc1, 0x40, 0xf2, 0xff, 0x3e, 0xcb, 0x3c, 0xeb, 0xec, 0x1a, 0x2a, 0xf9,
  0xe2, 0x09, 0x12, 0x11, 0xe0, 0x05, 0xd0, 0xd5, 0xf4, 0xd0, 0xef, 0xf0,
  0x4a, 0xf5, 0x0e, 0x0b, 0x26, 0x14, 0xbf, 0xce, 0x01, 0x0b, 0x33, 0x27,
  0x1f, 0x47, 0x0d, 0x36, 0x0f, 0xd7, 0xfa, 0xd6, 0x15, 0xcf, 0x01, 0xba,
  0x24, 0xde, 0xb1, 0xba, 0xf7, 0x4f, 0xf4, 0x3f, 0xcb, 0xd9, 0xd2, 0xe5,
  0xd7, 0x12, 0x37, 0xf5, 0x25, 0x1b, 0x22, 0xc3, 0xdc, 0x08, 0x33, 0x31,
  0xef, 0xd8, 0x27, 0x1c, 0xe2, 0x3e, 0x46, 0xcd, 0x4f, 0xff, 0xd9, 0x2e,
  0x47, 0x0f, 0x0f, 0x38, 0x3b, 0xc9, 0xfb, 0x3a, 0x2b, 0xde, 0xe4, 0xbc,
  0xc6, 0xbb, 0x44, 0xf7, 0x04, 0xef, 0xc5, 0x18, 0x1d, 0x0c, 0x29, 0xe5,
  0x21, 0xd0, 0x1f, 0x9d, 0x2e, 0x0c, 0x31, 0x3d, 0xcb, 0xad, 0xa6, 0x96,
  0xbc, 0xdd, 0xd1, 0xd3, 0xc7, 0xd1, 0xc9, 0xfe, 0xdc, 0x08, 0x3b, 0xd3,
  0xf7, 0xbe, 0x11, 0xcf, 0xef, 0x15, 0x26, 0x2d, 0xf0, 0xca, 0xf2, 0xe9,
  0xeb, 0xe3, 0x24, 0x05, 0xb9, 0xf2, 0xee, 0xd8, 0xf9, 0x09, 0xc5, 0x0a,
  0x43, 0x4b, 0xa6, 0xe8, 0xf0, 0xe4, 0x1f, 0xc2, 0x39, 0xf4, 0x22, 0x40,
  0x3f, 0x92, 0xe5, 0x32, 0xe0, 0x31, 0x45, 0xee, 0x39, 0x26, 0xf5, 0xcc,
  0xff, 0x19, 0x23, 0x0f, 0xf9, 0xfe, 0x0b, 0xaa, 0xcc, 0xf0, 0x0a, 0xd2,
  0x35, 0xec, 0x0a, 0xeb, 0x26, 0xdb, 0xea, 0xa0, 0xe9, 0xd2, 0xff, 0xdf,
  0xc0, 0x34, 0xfd, 0x2d, 0xf1, 0x40, 0x3a, 0xc1, 0xf5, 0x3f, 0xf2, 0x3c,
  0x07, 0xe3, 0xec, 0x21, 0x11, 0x25, 0xb7, 0x10, 0x30, 0xb9, 0xd4, 0x10,
  0x3e, 0x05, 0xe9, 0x37, 0x4c, 0xbd, 0x30, 0x20, 0x12, 0x41, 0x44, 0x1d,
  0x18, 0xba, 0xda, 0xce, 0x00, 0x16, 0xf5, 0xd3, 0x31, 0x12, 0x30, 0xfa,
  0xcc, 0x03, 0xb9, 0x1e, 0xf4, 0xbc, 0xd1, 0x23, 0xf5, 0xf9, 0x09, 0xbc,
  0x12, 0x19, 0xe4, 0x37, 0x07, 0xd0, 0xdc, 0xed, 0x3b, 0xc5, 0x0f, 0xde,
  0xd6, 0xf7, 0xe6, 0xb9, 0x00, 0x36, 0x8d, 0xab, 0x2d, 0x0a, 0xeb, 0xea,
  0xe1, 0xee, 0x36, 0x07, 0x01, 0xec, 0xdc, 0x01, 0xe8, 0x29, 0xd2, 0xd5,
  0x03, 0x44, 0xc8, 0x27, 0x30, 0x00, 0xb4, 0xbd, 0xd7, 0x03, 0x0a, 0xfb,
  0x38, 0x0c, 0xc0, 0xee, 0x18, 0x28, 0xce, 0xd0, 0xa0, 0x42, 0xc9, 0x2e,
  0x3f, 0x08, 0x24, 0x96, 0x2d, 0xfd, 0xf1, 0x13, 0x10, 0xd8, 0xf3, 0x10,
  0xe3, 0x2c, 0xe8, 0x12, 0xef, 0xd3, 0xdc, 0x0e, 0xe8, 0xdb, 0x0b, 0x1d,
  0xe9, 0xf8, 0xf5, 0x0d, 0xbe, 0x0e, 0x1c, 0x34, 0xcb, 0x02, 0xe2, 0xd1,
  0xdc, 0x1f, 0xde, 0x42, 0x1c, 0x32, 0x18, 0xfa, 0xbb, 0xc8, 0x0c, 0x00,
  0x21, 0xd3, 0xc9, 0x1c, 0xcd, 0x36, 0x30, 0x44, 0xe0, 0x05, 0xfb, 0x13,
  0x16, 0x48, 0x05, 0x0d, 0xf7, 0xe1, 0x57, 0x26, 0x17, 0x15, 0xb4, 0x11,
  0x2e, 0xe8, 0xdb, 0x15, 0x3d, 0xd7, 0xe8, 0x35, 0x36, 0x18, 0x30, 0x2b,
  0x20, 0x06, 0xae, 0xfb, 0xdd, 0xc8, 0x26, 0xe1, 0xd3, 0xd5, 0xdb, 0xd5,
  0x45, 0x10, 0xdf, 0x28, 0x21, 0x98, 0xc3, 0x2b, 0xc6, 0x15, 0xc2, 0xba,
  0x15, 0xde, 0xbc, 0xd0, 0xe9, 0xdc, 0xfc, 0x8f, 0xd9, 0x4a, 0x0a, 0xe8,
  0xbc, 0xe2, 0x22, 0xfd, 0xd2, 0xd5, 0xc2, 0x14, 0x26, 0x2e, 0x3f, 0xe6,
  0x29, 0xb4, 0xb3, 0xd5, 0xf1, 0xf9, 0xe6, 0xea, 0xec, 0xf8, 0xfc, 0xbb,
  0x2f, 0x3b, 0x46, 0xc3, 0xa0, 0x37, 0x14, 0xde, 0x05, 0x41, 0x9e, 0x07,
  0xe5, 0xff, 0x24, 0xc4, 0xd2, 0x81, 0xf6, 0x09, 0x34, 0xe6, 0xc1, 0x39,
  0xcc, 0x31, 0xfb, 0xdd, 0xdd, 0xaa, 0xf0, 0x09, 0xcd, 0xdb, 0x06, 0xd1,
  0xf8, 0x0c, 0xca, 0xe2, 0xf7, 0x42, 0xa5, 0xc1, 0xd5, 0xb8, 0xe1, 0xf7,
  0x42, 0xf9, 0x23, 0xfd, 0x07, 0xbf, 0xeb, 0xd7, 0xb7, 0xc1, 0x28, 0x0c,
  0xf0, 0xf5, 0x06, 0xe4, 0xfd, 0xba, 0x02, 0xf5, 0x20, 0xe4, 0x9f, 0xa8,
  0xe6, 0xe4, 0xb7, 0xc8, 0xc0, 0xf7, 0x27, 0xcc, 0xe3, 0xcb, 0x35, 0x25,
  0x03, 0xb0, 0xf7, 0xc8, 0x39, 0x2f, 0x3b, 0x1e, 0x36, 0xbc, 0xdb, 0x35,
  0xeb, 0xe2, 0x25, 0x1a, 0xce, 0xed, 0xc4, 0xbe, 0xfe, 0x40, 0xdf, 0x1d,
  0xa6, 0x47, 0xcf, 0x47, 0x46, 0xb3, 0xd9, 0x0e, 0xcf, 0x27, 0x07, 0xf3,
  0xd3, 0x0d, 0x30, 0xce, 0xd7, 0xc5, 0x4e, 0xb3, 0x30, 0x4a, 0xbf, 0x1b,
  0xc7, 0x2c, 0xae, 0x04, 0xc0, 0xde, 0xbd, 0xc7, 0x21, 0x3e, 0xe6, 0x0c,
  0x19, 0xa0, 0x1f, 0xcd, 0xe4, 0xa3, 0x10, 0x19, 0xf9, 0x19, 0x45, 0xba,
  0x24, 0xf5, 0xa2, 0x40, 0xba, 0x05, 0xd9, 0xb9, 0x42, 0x3e, 0xdc, 0xd6,
  0xe0, 0xea, 0xa8, 0xaa, 0xa8, 0x23, 0x0a, 0x0f, 0x18, 0xf6, 0x1b, 0xa8,
  0xf3, 0xba, 0xe1, 0x11, 0xea, 0xe0, 0x36, 0x44, 0x4c, 0xe3, 0xeb, 0x10,
  0xf4, 0xc5, 0xf6, 0x00, 0xdb, 0x1b, 0x30, 0xf7, 0xfb, 0x14, 0xb7, 0x27,
  0x0b, 0xc7, 0xd7, 0x31, 0xf3, 0xd7, 0xd7, 0x29, 0x1e, 0x11, 0xf3, 0x1f,
  0x16, 0x39, 0x0b, 0xb8, 0x03, 0xc5, 0xe5, 0x0a, 0x15, 0x26, 0xb8, 0xf3,
  0x17, 0xf2, 0xd5, 0xde, 0xc0, 0x29, 0x16, 0xa4, 0xd9, 0xf0, 0x0c, 0xde,
  0xf7, 0xe0, 0x46, 0xc7, 0x24, 0x12, 0xcc, 0xcc, 0xed, 0xd6, 0x2f, 0x34,
  0x1d, 0xd6, 0x18, 0xed, 0x01, 0xf4, 0xf0, 0xdf, 0x34, 0xe1, 0xf0, 0x13,
  0xe0, 0x22, 0x0b, 0xd2, 0xf9, 0x17, 0x1f, 0x12, 0x44, 0xcd, 0xdf, 0x24,
  0xe2, 0xe9, 0x0b, 0x36, 0xed, 0xcb, 0x38, 0xd6, 0xcf, 0xd8, 0xc9, 0xda,
  0xfb, 0xea, 0x0d, 0xb5, 0xc0, 0x04, 0x13, 0xea, 0x36, 0xfc, 0x26, 0xd7,
  0xda, 0x16, 0x3d, 0x1d, 0xb9, 0xb7, 0x1a, 0x01, 0xec, 0x99, 0xf9, 0x1b,
  0xf9, 0x0d, 0x12, 0xf7, 0x18, 0xd5, 0x11, 0xb7, 0xf6, 0xc0, 0x12, 0xc6,
  0xe7, 0xee, 0x92, 0xb4, 0x01, 0x3f, 0xfa, 0xdc, 0xd0, 0x01, 0x2c, 0x3c,
  0xe8, 0xad, 0xed, 0x34, 0x12, 0x02, 0x0a, 0x1f, 0xcd, 0xe5, 0x0f, 0xe1,
  0xa9, 0xba, 0xeb, 0xcf, 0x37, 0x20, 0xe8, 0xcb, 0x00, 0xbf, 0x16, 0xcb,
  0xea, 0x0a, 0x1a, 0xb2, 0x13, 0x04, 0x30, 0xce, 0xca, 0xc4, 0x4b, 0x1c,
  0x20, 0xec, 0xa2, 0xf0, 0xe3, 0xd6, 0xfb, 0x09, 0x2a, 0xe4, 0x11, 0xb3,
  0xbf, 0x01, 0xf9, 0x32, 0x24, 0xc5, 0xbe, 0x04, 0x31, 0xb4, 0x09, 0xe1,
  0x0b, 0x3e, 0x3a, 0x23, 0xb3, 0xce, 0xf7, 0x28, 0xf2, 0x9a, 0xe9, 0xd9,
  0xcf, 0xf6, 0xf5, 0xa8, 0xfa, 0xc6, 0xa7, 0x32, 0xcd, 0xdc, 0xcb, 0x90,
  0xe6, 0xb1, 0xd0, 0xb4, 0x15, 0xe7, 0x16, 0xf9, 0xf0, 0xcc, 0xd5, 0xb4,
  0xe8, 0x00, 0x15, 0xcb, 0x2c, 0x0d, 0xd4, 0xe7, 0x41, 0x27, 0xd6, 0x1e,
  0x11, 0xd5, 0xc8, 0xbe, 0xc2, 0x0e, 0xf3, 0xde, 0xf8, 0x19, 0x07, 0xa5,
  0xeb, 0x12, 0x99, 0x2d, 0x23, 0xeb, 0x09, 0x0e, 0xc2, 0xca, 0x00, 0x22,
  0xc6, 0xbb, 0xcc, 0x3d, 0x06, 0x3e, 0xd0, 0xda, 0xc2, 0x30, 0x15, 0x32,
  0xbf, 0xe9, 0xd5, 0xc3, 0xc9, 0xc1, 0xf3, 0xab, 0x03, 0xf6, 0x2a, 0xea,
  0xb2, 0x26, 0xe6, 0x13, 0xc0, 0x05, 0x38, 0xe6, 0x22, 0x3c, 0x19, 0xe8,
  0x1c, 0xce, 0xca, 0xf7, 0xc3, 0xd7, 0xdb, 0xd2, 0xdb, 0xf4, 0xce, 0x10,
  0x44, 0x01, 0xdf, 0x07, 0x1a, 0xd1, 0xb1, 0x03, 0x0f, 0xf7, 0x15, 0x36,
  0x30, 0xf5, 0xc7, 0x25, 0xf1, 0x06, 0xa9, 0xf8, 0x49, 0xe9, 0xf3, 0x10,
  0x32, 0xc7, 0xc0, 0xd7, 0x34, 0xe9, 0x1f, 0xe1, 0xd9, 0x1f, 0xc6, 0xd8,
  0x2f, 0x3b, 0x28, 0x0c, 0xfc, 0xe3, 0xca, 0x3c, 0xae, 0xfd, 0xff, 0xff,
  0x04, 0x00, 0x00, 0x00, 0x08, 0x00, 0x00, 0x00, 0xff, 0xff, 0xff, 0xff,
  0x40, 0x06, 0x00, 0x00, 0xc2, 0xfd, 0xff, 0xff, 0x04, 0x00, 0x00, 0x00,
  0x08, 0x00, 0x00, 0x00, 0xd9, 0x00, 0x00, 0x00, 0x27, 0xff, 0xff, 0xff,
  0xd6, 0xfd, 0xff, 0xff, 0x04, 0x00, 0x00, 0x00, 0x00, 0x01, 0x00, 0x00,
  0x86, 0xff, 0xff, 0xff, 0x3a, 0x00, 0x00, 0x00, 0xcd, 0xff, 0xff, 0xff,
  0x30, 0x00, 0x00, 0x00, 0xc4, 0xff, 0xff, 0xff, 0x45, 0x00, 0x00, 0x00,
  0x36, 0x00, 0x00, 0x00, 0x3f, 0x00, 0x00, 0x00, 0x57, 0x00, 0x00, 0x00,
  0x3e, 0x00, 0x00, 0x00, 0xb0, 0xff, 0xff, 0xff, 0xf6, 0xff, 0xff, 0xff,
  0xc8, 0xff, 0xff, 0xff, 0x1d, 0x00, 0x00, 0x00, 0xab, 0xff, 0xff, 0xff,
  0x28, 0x00, 0x00, 0x00, 0x39, 0x00, 0x00, 0x00, 0xbd, 0xff, 0xff, 0xff,
  0x36, 0x00, 0x00, 0x00, 0x41, 0x00, 0x00, 0x00, 0x67, 0x00, 0x00, 0x00,
  0xb1, 0xff, 0xff, 0xff, 0x2c, 0x00, 0x00, 0x00, 0xd9, 0xff, 0xff, 0xff,
  0xbe, 0xff, 0xff, 0xff, 0xe8, 0xff, 0xff, 0xff, 0x65, 0x00, 0x00, 0x00,
  0x40, 0x00, 0x00, 0x00, 0x3d, 0x00, 0x00, 0x00, 0x4e, 0x00, 0x00, 0x00,
  0x2f, 0x00, 0x00, 0x00, 0xb2, 0xff, 0xff, 0xff, 0xae, 0xff, 0xff, 0xff,
  0x6a, 0x00, 0x00, 0x00, 0x3c, 0x00, 0x00, 0x00, 0xb2, 0xff, 0xff, 0xff,
  0xc9, 0xff, 0xff, 0xff, 0x6a, 0x00, 0x00, 0x00, 0x41, 0x00, 0x00, 0x00,
  0x29, 0x00, 0x00, 0x00, 0xcc, 0xff, 0xff, 0xff, 0xa6, 0xff, 0xff, 0xff,
  0xb4, 0xff, 0xff, 0xff, 0x66, 0x00, 0x00, 0x00, 0xe2, 0xff, 0xff, 0xff,
  0x5b, 0x00, 0x00, 0x00, 0x64, 0x00, 0x00, 0x00, 0xf7, 0xff, 0xff, 0xff,
  0xf6, 0xff, 0xff, 0xff, 0x1f, 0x00, 0x00, 0x00, 0x40, 0x00, 0x00, 0x00,
  0x72, 0x00, 0x00, 0x00, 0x3e, 0x00, 0x00, 0x00, 0xb8, 0xff, 0xff, 0xff,
  0x4b, 0x00, 0x00, 0x00, 0x51, 0x00, 0x00, 0x00, 0xaf, 0xff, 0xff, 0xff,
  0xb0, 0xff, 0xff, 0xff, 0x3e, 0x00, 0x00, 0x00, 0x34, 0x00, 0x00, 0x00,
  0x6d, 0x00, 0x00, 0x00, 0xff, 0xff, 0xff, 0xff, 0x34, 0x00, 0x00, 0x00,
  0xa4, 0xff, 0xff, 0xff, 0xe2, 0xfe, 0xff, 0xff, 0x04, 0x00, 0x00, 0x00,
  0x80, 0x00, 0x00, 0x00, 0x31, 0x00, 0x00, 0x00, 0x3a, 0x00, 0x00, 0x00,
  0x46, 0x00, 0x00, 0x00, 0x49, 0x00, 0x00, 0x00, 0x50, 0x00, 0x00, 0x00,
  0x34, 0x00, 0x00, 0x00, 0xcd, 0xff, 0xff, 0xff, 0x27, 0x00, 0x00, 0x00,
  0xac, 0xff, 0xff, 0xff, 0x46, 0x00, 0x00, 0x00, 0xf7, 0xff, 0xff, 0xff,
  0x13, 0x00, 0x00, 0x00, 0x0b, 0x00, 0x00, 0x00, 0xad, 0xff, 0xff, 0xff,
  0xc0, 0xff, 0xff, 0xff, 0x1b, 0x00, 0x00, 0x00, 0x34, 0x00, 0x00, 0x00,
  0x0d, 0x00, 0x00, 0x00, 0x52, 0x00, 0x00, 0x00, 0x3b, 0x00, 0x00, 0x00,
  0xae, 0xff, 0xff, 0xff, 0xbe, 0xff, 0xff, 0xff, 0xdb, 0xff, 0xff, 0xff,
  0x2d, 0x00, 0x00, 0x00, 0xdc, 0xff, 0xff, 0xff, 0x2e, 0x00, 0x00, 0x00,
  0xf7, 0xff, 0xff, 0xff, 0x36, 0x00, 0x00, 0x00, 0xd4, 0xff, 0xff, 0xff,
  0x0e, 0x00, 0x00, 0x00, 0xc5, 0xff, 0xff, 0xff, 0xc8, 0xff, 0xff, 0xff,
  0x80, 0xef, 0xff, 0xff, 0x84, 0xef, 0xff, 0xff, 0x0f, 0x00, 0x00, 0x00,
  0x4d, 0x4c, 0x49, 0x52, 0x20, 0x43, 0x6f, 0x6e, 0x76, 0x65, 0x72, 0x74,
  0x65, 0x64, 0x2e, 0x00, 0x01, 0x00, 0x00, 0x00, 0x14, 0x00, 0x00, 0x00,
  0x00, 0x00, 0x0e, 0x00, 0x18, 0x00, 0x14, 0x00, 0x10, 0x00, 0x0c, 0x00,
  0x08, 0x00, 0x04, 0x00, 0x0e, 0x00, 0x00, 0x00, 0x14, 0x00, 0x00, 0x00,
  0x1c, 0x00, 0x00, 0x00, 0x08, 0x02, 0x00, 0x00, 0x0c, 0x02, 0x00, 0x00,
  0x10, 0x02, 0x00, 0x00, 0x04, 0x00, 0x00, 0x00, 0x6d, 0x61, 0x69, 0x6e,
  0x00, 0x00, 0x00, 0x00, 0x07, 0x00, 0x00, 0x00, 0xa4, 0x01, 0x00, 0x00,
  0x40, 0x01, 0x00, 0x00, 0xf0, 0x00, 0x00, 0x00, 0xac, 0x00, 0x00, 0x00,
  0x84, 0x00, 0x00, 0x00, 0x40, 0x00, 0x00, 0x00, 0x04, 0x00, 0x00, 0x00,
  0xe6, 0xfe, 0xff, 0xff, 0x1c, 0x00, 0x00, 0x00, 0x00, 0x00, 0x00, 0x09,
  0x1c, 0x00, 0x00, 0x00, 0x20, 0x00, 0x00, 0x00, 0x04, 0x00, 0x00, 0x00,
  0x00, 0x00, 0x06, 0x00, 0x08, 0x00, 0x04, 0x00, 0x06, 0x00, 0x00, 0x00,
  0x00, 0x00, 0x80, 0x3f, 0x01, 0x00, 0x00, 0x00, 0x0e, 0x00, 0x00, 0x00,
  0x01, 0x00, 0x00, 0x00, 0x0d, 0x00, 0x00, 0x00, 0x1e, 0xff, 0xff, 0xff,
  0x14, 0x00, 0x00, 0x00, 0x00, 0x00, 0x00, 0x08, 0x10, 0x00, 0x00, 0x00,
  0x14, 0x00, 0x00, 0x00, 0x03, 0x00, 0x00, 0x00, 0x48, 0xf0, 0xff, 0xff,
  0x01, 0x00, 0x00, 0x00, 0x0d, 0x00, 0x00, 0x00, 0x03, 0x00, 0x00, 0x00,
  0x0c, 0x00, 0x00, 0x00, 0x05, 0x00, 0x00, 0x00, 0x03, 0x00, 0x00, 0x00,
  0x00, 0x00, 0x0a, 0x00, 0x10, 0x00, 0x0c, 0x00, 0x08, 0x00, 0x04, 0x00,
  0x0a, 0x00, 0x00, 0x00, 0x0c, 0x00, 0x00, 0x00, 0x10, 0x00, 0x00, 0x00,
  0x02, 0x00, 0x00, 0x00, 0x01, 0x00, 0x00, 0x00, 0x0c, 0x00, 0x00, 0x00,
  0x02, 0x00, 0x00, 0x00, 0x0b, 0x00, 0x00, 0x00, 0x04, 0x00, 0x00, 0x00,
  0x82, 0xff, 0xff, 0xff, 0x14, 0x00, 0x00, 0x00, 0x00, 0x00, 0x00, 0x05,
  0x24, 0x00, 0x00, 0x00, 0x28, 0x00, 0x00, 0x00, 0x01, 0x00, 0x00, 0x00,
  0x72, 0xff, 0xff, 0xff, 0x03, 0x00, 0x00, 0x00, 0x03, 0x00, 0x00, 0x00,
  0x03, 0x00, 0x00, 0x00, 0x03, 0x00, 0x00, 0x00, 0x00, 0x00, 0x00, 0x01,
  0x01, 0x00, 0x00, 0x00, 0x0b, 0x00, 0x00, 0x00, 0x01, 0x00, 0x00, 0x00,
  0x0a, 0x00, 0x00, 0x00, 0x62, 0xff, 0xff, 0xff, 0x10, 0x00, 0x00, 0x00,
  0x00, 0x00, 0x00, 0x01, 0x18, 0x00, 0x00, 0x00, 0x1c, 0x00, 0x00, 0x00,
  0x54, 0xff, 0xff, 0xff, 0x00, 0x00, 0x00, 0x01, 0x01, 0x00, 0x00, 0x00,
  0x01, 0x00, 0x00, 0x00, 0x01, 0x00, 0x00, 0x00, 0x0a, 0x00, 0x00, 0x00,
  0x03, 0x00, 0x00, 0x00, 0x09, 0x00, 0x00, 0x00, 0x07, 0x00, 0x00, 0x00,
  0x02, 0x00, 0x00, 0x00, 0x00, 0x00, 0x0e, 0x00, 0x1a, 0x00, 0x14, 0x00,
  0x10, 0x00, 0x0c, 0x00, 0x0b, 0x00, 0x04, 0x00, 0x0e, 0x00, 0x00, 0x00,
  0x24, 0x00, 0x00, 0x00, 0x00, 0x00, 0x00, 0x05, 0x34, 0x00, 0x00, 0x00,
  0x38, 0x00, 0x00, 0x00, 0x01, 0x00, 0x00, 0x00, 0x00, 0x00, 0x0e, 0x00,
  0x18, 0x00, 0x17, 0x00, 0x10, 0x00, 0x0c, 0x00, 0x08, 0x00, 0x04, 0x00,
  0x0e, 0x00, 0x00, 0x00, 0x02, 0x00, 0x00, 0x00, 0x02, 0x00, 0x00, 0x00,
  0x02, 0x00, 0x00, 0x00, 0x02, 0x00, 0x00, 0x00, 0x00, 0x00, 0x00, 0x01,
  0x01, 0x00, 0x00, 0x00, 0x09, 0x00, 0x00, 0x00, 0x01, 0x00, 0x00, 0x00,
  0x08, 0x00, 0x00, 0x00, 0x00, 0x00, 0x0e, 0x00, 0x14, 0x00, 0x00, 0x00,
  0x10, 0x00, 0x0c, 0x00, 0x0b, 0x00, 0x04, 0x00, 0x0e, 0x00, 0x00, 0x00,
  0x1c, 0x00, 0x00, 0x00, 0x00, 0x00, 0x00, 0x01, 0x24, 0x00, 0x00, 0x00,
  0x28, 0x00, 0x00, 0x00, 0x0c, 0x00, 0x10, 0x00, 0x00, 0x00, 0x0c, 0x00,
  0x08, 0x00, 0x07, 0x00, 0x0c, 0x00, 0x00, 0x00, 0x00, 0x00, 0x00, 0x01,
  0x01, 0x00, 0x00, 0x00, 0x01, 0x00, 0x00, 0x00, 0x01, 0x00, 0x00, 0x00,
  0x08, 0x00, 0x00, 0x00, 0x03, 0x00, 0x00, 0x00, 0x00, 0x00, 0x00, 0x00,
  0x06, 0x00, 0x00, 0x00, 0x01, 0x00, 0x00, 0x00, 0x01, 0x00, 0x00, 0x00,
  0x0e, 0x00, 0x00, 0x00, 0x01, 0x00, 0x00, 0x00, 0x00, 0x00, 0x00, 0x00,
  0x0f, 0x00, 0x00, 0x00, 0x58, 0x14, 0x00, 0x00, 0x44, 0x12, 0x00, 0x00,
  0xc4, 0x0e, 0x00, 0x00, 0x48, 0x0e, 0x00, 0x00, 0xfc, 0x0d, 0x00, 0x00,
  0x80, 0x0d, 0x00, 0x00, 0x8c, 0x0a, 0x00, 0x00, 0x18, 0x05, 0x00, 0x00,
  0x14, 0x04, 0x00, 0x00, 0x68, 0x03, 0x00, 0x00, 0x5c, 0x02, 0x00, 0x00,
  0xb0, 0x01, 0x00, 0x00, 0x1c, 0x01, 0x00, 0x00, 0x70, 0x00, 0x00, 0x00,
  0x04, 0x00, 0x00, 0x00, 0xf8, 0xeb, 0xff, 0xff, 0x18, 0x00, 0x00, 0x00,
  0x20, 0x00, 0x00, 0x00, 0x3c, 0x00, 0x00, 0x00, 0x0f, 0x00, 0x00, 0x00,
  0x00, 0x00, 0x00, 0x09, 0x44, 0x00, 0x00, 0x00, 0x02, 0x00, 0x00, 0x00,
  0xff, 0xff, 0xff, 0xff, 0x02, 0x00, 0x00, 0x00, 0x04, 0xee, 0xff, 0xff,
  0x08, 0x00, 0x00, 0x00, 0x10, 0x00, 0x00, 0x00, 0x01, 0x00, 0x00, 0x00,
  0x80, 0xff, 0xff, 0xff, 0xff, 0xff, 0xff, 0xff, 0x01, 0x00, 0x00, 0x00,
  0x00, 0x00, 0x80, 0x3b, 0x0d, 0x00, 0x00, 0x00, 0x49, 0x64, 0x65, 0x6e,
  0x74, 0x69, 0x74, 0x79, 0x5f, 0x69, 0x6e, 0x74, 0x38, 0x00, 0x00, 0x00,
  0x02, 0x00, 0x00, 0x00, 0x01, 0x00, 0x00, 0x00, 0x02, 0x00, 0x00, 0x00,
  0x60, 0xec, 0xff, 0xff, 0x18, 0x00, 0x00, 0x00, 0x20, 0x00, 0x00, 0x00,
  0x58, 0x00, 0x00, 0x00, 0x0e, 0x00, 0x00, 0x00, 0x00, 0x00, 0x00, 0x09,
  0x84, 0x00, 0x00, 0x00, 0x02, 0x00, 0x00, 0x00, 0xff, 0xff, 0xff, 0xff,
  0x02, 0x00, 0x00, 0x00, 0x44, 0xec, 0xff, 0xff, 0x10, 0x00, 0x00, 0x00,
  0x1c, 0x00, 0x00, 0x00, 0x20, 0x00, 0x00, 0x00, 0x24, 0x00, 0x00, 0x00,
  0x01, 0x00, 0x00, 0x00, 0x3f, 0x00, 0x00, 0x00, 0x00, 0x00, 0x00, 0x00,
  0x00, 0x00, 0x00, 0x00, 0x01, 0x00, 0x00, 0x00, 0x5c, 0x27, 0x0a, 0x3e,
  0x01, 0x00, 0x00, 0x00, 0xc8, 0x0d, 0x0b, 0x41, 0x01, 0x00, 0x00, 0x00,
  0x86, 0xb3, 0xcd, 0xc1, 0x30, 0x00, 0x00, 0x00, 0x73, 0x65, 0x71, 0x75,
  0x65, 0x6e, 0x74, 0x69, 0x61, 0x6c, 0x2f, 0x64, 0x65, 0x6e, 0x73, 0x65,
  0x2f, 0x4d, 0x61, 0x74, 0x4d, 0x75, 0x6c, 0x3b, 0x73, 0x65, 0x71, 0x75,
  0x65, 0x6e, 0x74, 0x69, 0x61, 0x6c, 0x2f, 0x64, 0x65, 0x6e, 0x73, 0x65,
  0x2f, 0x42, 0x69, 0x61, 0x73, 0x41, 0x64, 0x64, 0x00, 0x00, 0x00, 0x00,
  0x02, 0x00, 0x00, 0x00, 0x01, 0x00, 0x00, 0x00, 0x02, 0x00, 0x00, 0x00,
  0x08, 0xed, 0xff, 0xff, 0x18, 0x00, 0x00, 0x00, 0x20, 0x00, 0x00, 0x00,
  0x58, 0x00, 0x00, 0x00, 0x0d, 0x00, 0x00, 0x00, 0x00, 0x00, 0x00, 0x09,
  0x6c, 0x00, 0x00, 0x00, 0x02, 0x00, 0x00, 0x00, 0xff, 0xff, 0xff, 0xff,
  0x40, 0x06, 0x00, 0x00, 0xec, 0xec, 0xff, 0xff, 0x10, 0x00, 0x00, 0x00,
  0x1c, 0x00, 0x00, 0x00, 0x20, 0x00, 0x00, 0x00, 0x24, 0x00, 0x00, 0x00,
  0x01, 0x00, 0x00, 0x00, 0x80, 0xff, 0xff, 0xff, 0xff, 0xff, 0xff, 0xff,
  0x00, 0x00, 0x00, 0x00, 0x01, 0x00, 0x00, 0x00, 0xea, 0xde, 0x27, 0x3e,
  0x01, 0x00, 0x00, 0x00, 0x0b, 0x37, 0x27, 0x42, 0x01, 0x00, 0x00, 0x00,
  0x00, 0x00, 0x00, 0x00, 0x1a, 0x00, 0x00, 0x00, 0x73, 0x65, 0x71, 0x75,
  0x65, 0x6e, 0x74, 0x69, 0x61, 0x6c, 0x2f, 0x66, 0x6c, 0x61, 0x74, 0x74,
  0x65, 0x6e, 0x2f, 0x52, 0x65, 0x73, 0x68, 0x61, 0x70, 0x65, 0x00, 0x00,
  0x02, 0x00, 0x00, 0x00, 0x01, 0x00, 0x00, 0x00, 0x40, 0x06, 0x00, 0x00,
  0x98, 0xed, 0xff, 0xff, 0x18, 0x00, 0x00, 0x00, 0x28, 0x00, 0x00, 0x00,
  0x60, 0x00, 0x00, 0x00, 0x0c, 0x00, 0x00, 0x00, 0x00, 0x00, 0x00, 0x09,
  0x7c, 0x00, 0x00, 0x00, 0x04, 0x00, 0x00, 0x00, 0xff, 0xff, 0xff, 0xff,
  0x05, 0x00, 0x00, 0x00, 0x05, 0x00, 0x00, 0x00, 0x40, 0x00, 0x00, 0x00,
  0x84, 0xed, 0xff, 0xff, 0x10, 0x00, 0x00, 0x00, 0x1c, 0x00, 0x00, 0x00,
  0x20, 0x00, 0x00, 0x00, 0x24, 0x00, 0x00, 0x00, 0x01, 0x00, 0x00, 0x00,
  0x80, 0xff, 0xff, 0xff, 0xff, 0xff, 0xff, 0xff, 0x00, 0x00, 0x00, 0x00,
  0x01, 0x00, 0x00, 0x00, 0xea, 0xde, 0x27, 0x3e, 0x01, 0x00, 0x00, 0x00,
  0x0b, 0x37, 0x27, 0x42, 0x01, 0x00, 0x00, 0x00, 0x00, 0x00, 0x00, 0x00,
  0x22, 0x00, 0x00, 0x00, 0x73, 0x65, 0x71, 0x75, 0x65, 0x6e, 0x74, 0x69,
  0x61, 0x6c, 0x2f, 0x6d, 0x61, 0x78, 0x5f, 0x70, 0x6f, 0x6f, 0x6c, 0x69,
  0x6e, 0x67, 0x32, 0x64, 0x5f, 0x31, 0x2f, 0x4d, 0x61, 0x78, 0x50, 0x6f,
  0x6f, 0x6c, 0x00, 0x00, 0x04, 0x00, 0x00, 0x00, 0x01, 0x00, 0x00, 0x00,
  0x05, 0x00, 0x00, 0x00, 0x05, 0x00, 0x00, 0x00, 0x40, 0x00, 0x00, 0x00,
  0x40, 0xee, 0xff, 0xff, 0x18, 0x00, 0x00, 0x00, 0x28, 0x00, 0x00, 0x00,
  0x60, 0x00, 0x00, 0x00, 0x0b, 0x00, 0x00, 0x00, 0x00, 0x00, 0x00, 0x09,
  0xdc, 0x00, 0x00, 0x00, 0x04, 0x00, 0x00, 0x00, 0xff, 0xff, 0xff, 0xff,
  0x10, 0x00, 0x00, 0x00, 0x10, 0x00, 0x00, 0x00, 0x40, 0x00, 0x00, 0x00,
  0x2c, 0xee, 0xff, 0xff, 0x10, 0x00, 0x00, 0x00, 0x1c, 0x00, 0x00, 0x00,
  0x20, 0x00, 0x00, 0x00, 0x24, 0x00, 0x00, 0x00, 0x01, 0x00, 0x00, 0x00,
  0x80, 0xff, 0xff, 0xff, 0xff, 0xff, 0xff, 0xff, 0x00, 0x00, 0x00, 0x00,
  0x01, 0x00, 0x00, 0x00, 0xea, 0xde, 0x27, 0x3e, 0x01, 0x00, 0x00, 0x00,
  0x0b, 0x37, 0x27, 0x42, 0x01, 0x00, 0x00, 0x00, 0x00, 0x00, 0x00, 0x00,
  0x83, 0x00, 0x00, 0x00, 0x73, 0x65, 0x71, 0x75, 0x65, 0x6e, 0x74, 0x69,
  0x61, 0x6c, 0x2f, 0x63, 0x6f, 0x6e, 0x76, 0x32, 0x64, 0x5f, 0x31, 0x2f,
  0x52, 0x65, 0x6c, 0x75, 0x3b, 0x73, 0x65, 0x71, 0x75, 0x65, 0x6e, 0x74,
  0x69, 0x61, 0x6c, 0x2f, 0x63, 0x6f, 0x6e, 0x76, 0x32, 0x64, 0x5f, 0x31,
  0x2f, 0x42, 0x69, 0x61, 0x73, 0x41, 0x64, 0x64, 0x3b, 0x73, 0x65, 0x71,
  0x75, 0x65, 0x6e, 0x74, 0x69, 0x61, 0x6c, 0x2f, 0x63, 0x6f, 0x6e, 0x76,
  0x32, 0x64, 0x5f, 0x31, 0x2f, 0x43, 0x6f, 0x6e, 0x76, 0x32, 0x44, 0x3b,
  0x73, 0x65, 0x71, 0x75, 0x65, 0x6e, 0x74, 0x69, 0x61, 0x6c, 0x2f, 0x63,
  0x6f, 0x6e, 0x76, 0x32, 0x64, 0x5f, 0x31, 0x2f, 0x42, 0x69, 0x61, 0x73,
  0x41, 0x64, 0x64, 0x2f, 0x52, 0x65, 0x61, 0x64, 0x56, 0x61, 0x72, 0x69,
  0x61, 0x62, 0x6c, 0x65, 0x4f, 0x70, 0x2f, 0x72, 0x65, 0x73, 0x6f, 0x75,
  0x72, 0x63, 0x65, 0x00, 0x04, 0x00, 0x00, 0x00, 0x01, 0x00, 0x00, 0x00,
  0x10, 0x00, 0x00, 0x00, 0x10, 0x00, 0x00, 0x00, 0x40, 0x00, 0x00, 0x00,
  0x48, 0xef, 0xff, 0xff, 0x18, 0x00, 0x00, 0x00, 0x28, 0x00, 0x00, 0x00,
  0x60, 0x00, 0x00, 0x00, 0x0a, 0x00, 0x00, 0x00, 0x00, 0x00, 0x00, 0x09,
  0x7c, 0x00, 0x00, 0x00, 0x04, 0x00, 0x00, 0x00, 0xff, 0xff, 0xff, 0xff,
  0x10, 0x00, 0x00, 0x00, 0x10, 0x00, 0x00, 0x00, 0x20, 0x00, 0x00, 0x00,
  0x34, 0xef, 0xff, 0xff, 0x10, 0x00, 0x00, 0x00, 0x1c, 0x00, 0x00, 0x00,
  0x20, 0x00, 0x00, 0x00, 0x24, 0x00, 0x00, 0x00, 0x01, 0x00, 0x00, 0x00,
  0x80, 0xff, 0xff, 0xff, 0xff, 0xff, 0xff, 0xff, 0x00, 0x00, 0x00, 0x00,
  0x01, 0x00, 0x00, 0x00, 0x73, 0xfd, 0xc4, 0x3e, 0x01, 0x00, 0x00, 0x00,
  0x76, 0x38, 0xc4, 0x42, 0x01, 0x00, 0x00, 0x00, 0x00, 0x00, 0x00, 0x00,
  0x20, 0x00, 0x00, 0x00, 0x73, 0x65, 0x71, 0x75, 0x65, 0x6e, 0x74, 0x69,
  0x61, 0x6c, 0x2f, 0x6d, 0x61, 0x78, 0x5f, 0x70, 0x6f, 0x6f, 0x6c, 0x69,
  0x6e, 0x67, 0x32, 0x64, 0x2f, 0x4d, 0x61, 0x78, 0x50, 0x6f, 0x6f, 0x6c,
  0x00, 0x00, 0x00, 0x00, 0x04, 0x00, 0x00, 0x00, 0x01, 0x00, 0x00, 0x00,
  0x10, 0x00, 0x00, 0x00, 0x10, 0x00, 0x00, 0x00, 0x20, 0x00, 0x00, 0x00,
  0xf0, 0xef, 0xff, 0xff, 0x18, 0x00, 0x00, 0x00, 0x28, 0x00, 0x00, 0x00,
  0x60, 0x00, 0x00, 0x00, 0x09, 0x00, 0x00, 0x00, 0x00, 0x00, 0x00, 0x09,
  0xd4, 0x00, 0x00, 0x00, 0x04, 0x00, 0x00, 0x00, 0xff, 0xff, 0xff, 0xff,
  0x20, 0x00, 0x00, 0x00, 0x20, 0x00, 0x00, 0x00, 0x20, 0x00, 0x00, 0x00,
  0xdc, 0xef, 0xff, 0xff, 0x10, 0x00, 0x00, 0x00, 0x1c, 0x00, 0x00, 0x00,
  0x20, 0x00, 0x00, 0x00, 0x24, 0x00, 0x00, 0x00, 0x01, 0x00, 0x00, 0x00,
  0x80, 0xff, 0xff, 0xff, 0xff, 0xff, 0xff, 0xff, 0x00, 0x00, 0x00, 0x00,
  0x01, 0x00, 0x00, 0x00, 0x73, 0xfd, 0xc4, 0x3e, 0x01, 0x00, 0x00, 0x00,
  0x76, 0x38, 0xc4, 0x42, 0x01, 0x00, 0x00, 0x00, 0x00, 0x00, 0x00, 0x00,
  0x7b, 0x00, 0x00, 0x00, 0x73, 0x65, 0x71, 0x75, 0x65, 0x6e, 0x74, 0x69,
  0x61, 0x6c, 0x2f, 0x63, 0x6f, 0x6e, 0x76, 0x32, 0x64, 0x2f, 0x52, 0x65,
  0x6c, 0x75, 0x3b, 0x73, 0x65, 0x71, 0x75, 0x65, 0x6e, 0x74, 0x69, 0x61,
  0x6c, 0x2f, 0x63, 0x6f, 0x6e, 0x76, 0x32, 0x64, 0x2f, 0x42, 0x69, 0x61,
  0x73, 0x41, 0x64, 0x64, 0x3b, 0x73, 0x65, 0x71, 0x75, 0x65, 0x6e, 0x74,
  0x69, 0x61, 0x6c, 0x2f, 0x63, 0x6f, 0x6e, 0x76, 0x32, 0x64, 0x2f, 0x43,
  0x6f, 0x6e, 0x76, 0x32, 0x44, 0x3b, 0x73, 0x65, 0x71, 0x75, 0x65, 0x6e,
  0x74, 0x69, 0x61, 0x6c, 0x2f, 0x63, 0x6f, 0x6e, 0x76, 0x32, 0x64, 0x2f,
  0x42, 0x69, 0x61, 0x73, 0x41, 0x64, 0x64, 0x2f, 0x52, 0x65, 0x61, 0x64,
  0x56, 0x61, 0x72, 0x69, 0x61, 0x62, 0x6c, 0x65, 0x4f, 0x70, 0x2f, 0x72,
  0x65, 0x73, 0x6f, 0x75, 0x72, 0x63, 0x65, 0x00, 0x04, 0x00, 0x00, 0x00,
  0x01, 0x00, 0x00, 0x00, 0x20, 0x00, 0x00, 0x00, 0x20, 0x00, 0x00, 0x00,
  0x20, 0x00, 0x00, 0x00, 0xfa, 0xf2, 0xff, 0xff, 0x14, 0x00, 0x00, 0x00,
  0x34, 0x05, 0x00, 0x00, 0x08, 0x00, 0x00, 0x00, 0x00, 0x00, 0x00, 0x09,
  0x48, 0x05, 0x00, 0x00, 0xc4, 0xf0, 0xff, 0xff, 0x10, 0x00, 0x00, 0x00,
  0x10, 0x02, 0x00, 0x00, 0x10, 0x03, 0x00, 0x00, 0x10, 0x04, 0x00, 0x00,
  0x40, 0x00, 0x00, 0x00, 0x00, 0x00, 0x00, 0x00, 0x00, 0x00, 0x00, 0x00,
  0x00, 0x00, 0x00, 0x00, 0x00, 0x00, 0x00, 0x00, 0x00, 0x00, 0x00, 0x00,
  0x00, 0x00, 0x00, 0x00, 0x00, 0x00, 0x00, 0x00, 0x00, 0x00, 0x00, 0x00,
  0x00, 0x00, 0x00, 0x00, 0x00, 0x00, 0x00, 0x00, 0x00, 0x00, 0x00, 0x00,
  0x00, 0x00, 0x00, 0x00, 0x00, 0x00, 0x00, 0x00, 0x00, 0x00, 0x00, 0x00,
  0x00, 0x00, 0x00, 0x00, 0x00, 0x00, 0x00, 0x00, 0x00, 0x00, 0x00, 0x00,
  0x00, 0x00, 0x00, 0x00, 0x00, 0x00, 0x00, 0x00, 0x00, 0x00, 0x00, 0x00,
  0x00, 0x00, 0x00, 0x00, 0x00, 0x00, 0x00, 0x00, 0x00, 0x00, 0x00, 0x00,
  0x00, 0x00, 0x00, 0x00, 0x00, 0x00, 0x00, 0x00, 0x00, 0x00, 0x00, 0x00,
  0x00, 0x00, 0x00, 0x00, 0x00, 0x00, 0x00, 0x00, 0x00, 0x00, 0x00, 0x00,
  0x00, 0x00, 0x00, 0x00, 0x00, 0x00, 0x00, 0x00, 0x00, 0x00, 0x00, 0x00,
  0x00, 0x00, 0x00, 0x00, 0x00, 0x00, 0x00, 0x00, 0x00, 0x00, 0x00, 0x00,
  0x00, 0x00, 0x00, 0x00, 0x00, 0x00, 0x00, 0x00, 0x00, 0x00, 0x00, 0x00,
  0x00, 0x00, 0x00, 0x00, 0x00, 0x00, 0x00, 0x00, 0x00, 0x00, 0x00, 0x00,
  0x00, 0x00, 0x00, 0x00, 0x00, 0x00, 0x00, 0x00, 0x00, 0x00, 0x00, 0x00,
  0x00, 0x00, 0x00, 0x00, 0x00, 0x00, 0x00, 0x00, 0x00, 0x00, 0x00, 0x00,
  0x00, 0x00, 0x00, 0x00, 0x00, 0x00, 0x00, 0x00, 0x00, 0x00, 0x00, 0x00,
  0x00, 0x00, 0x00, 0x00, 0x00, 0x00, 0x00, 0x00, 0x00, 0x00, 0x00, 0x00,
  0x00, 0x00, 0x00, 0x00, 0x00, 0x00, 0x00, 0x00, 0x00, 0x00, 0x00, 0x00,
  0x00, 0x00, 0x00, 0x00, 0x00, 0x00, 0x00, 0x00, 0x00, 0x00, 0x00, 0x00,
  0x00, 0x00, 0x00, 0x00, 0x00, 0x00, 0x00, 0x00, 0x00, 0x00, 0x00, 0x00,
  0x00, 0x00, 0x00, 0x00, 0x00, 0x00, 0x00, 0x00, 0x00, 0x00, 0x00, 0x00,
  0x00, 0x00, 0x00, 0x00, 0x00, 0x00, 0x00, 0x00, 0x00, 0x00, 0x00, 0x00,
  0x00, 0x00, 0x00, 0x00, 0x00, 0x00, 0x00, 0x00, 0x00, 0x00, 0x00, 0x00,
  0x00, 0x00, 0x00, 0x00, 0x00, 0x00, 0x00, 0x00, 0x00, 0x00, 0x00, 0x00,
  0x00, 0x00, 0x00, 0x00, 0x00, 0x00, 0x00, 0x00, 0x00, 0x00, 0x00, 0x00,
  0x00, 0x00, 0x00, 0x00, 0x00, 0x00, 0x00, 0x00, 0x00, 0x00, 0x00, 0x00,
  0x00, 0x00, 0x00, 0x00, 0x00, 0x00, 0x00, 0x00, 0x00, 0x00, 0x00, 0x00,
  0x00, 0x00, 0x00, 0x00, 0x00, 0x00, 0x00, 0x00, 0x00, 0x00, 0x00, 0x00,
  0x00, 0x00, 0x00, 0x00, 0x00, 0x00, 0x00, 0x00, 0x00, 0x00, 0x00, 0x00,
  0x00, 0x00, 0x00, 0x00, 0x00, 0x00, 0x00, 0x00, 0x00, 0x00, 0x00, 0x00,
  0x00, 0x00, 0x00, 0x00, 0x00, 0x00, 0x00, 0x00, 0x00, 0x00, 0x00, 0x00,
  0x00, 0x00, 0x00, 0x00, 0x00, 0x00, 0x00, 0x00, 0x00, 0x00, 0x00, 0x00,
  0x00, 0x00, 0x00, 0x00, 0x00, 0x00, 0x00, 0x00, 0x00, 0x00, 0x00, 0x00,
  0x00, 0x00, 0x00, 0x00, 0x00, 0x00, 0x00, 0x00, 0x00, 0x00, 0x00, 0x00,
  0x00, 0x00, 0x00, 0x00, 0x00, 0x00, 0x00, 0x00, 0x00, 0x00, 0x00, 0x00,
  0x00, 0x00, 0x00, 0x00, 0x00, 0x00, 0x00, 0x00, 0x00, 0x00, 0x00, 0x00,
  0x00, 0x00, 0x00, 0x00, 0x00, 0x00, 0x00, 0x00, 0x00, 0x00, 0x00, 0x00,
  0x00, 0x00, 0x00, 0x00, 0x00, 0x00, 0x00, 0x00, 0x00, 0x00, 0x00, 0x00,
  0x00, 0x00, 0x00, 0x00, 0x00, 0x00, 0x00, 0x00, 0x00, 0x00, 0x00, 0x00,
  0x00, 0x00, 0x00, 0x00, 0x00, 0x00, 0x00, 0x00, 0x00, 0x00, 0x00, 0x00,
  0x00, 0x00, 0x00, 0x00, 0x00, 0x00, 0x00, 0x00, 0x00, 0x00, 0x00, 0x00,
  0x00, 0x00, 0x00, 0x00, 0x00, 0x00, 0x00, 0x00, 0x00, 0x00, 0x00, 0x00,
  0x40, 0x00, 0x00, 0x00, 0x5c, 0x6c, 0x98, 0x3a, 0xff, 0xfe, 0x84, 0x3a,
  0xbf, 0xb4, 0xa6, 0x3a, 0xbd, 0x56, 0xbb, 0x3a, 0xb1, 0x16, 0x88, 0x3a,
  0x9d, 0x76, 0x97, 0x3a, 0x49, 0x0d, 0x8e, 0x3a, 0xc2, 0x7e, 0x8d, 0x3a,
  0x7c, 0xe4, 0x9d, 0x3a, 0x59, 0xb0, 0x9a, 0x3a, 0xab, 0xfa, 0x9b, 0x3a,
  0x76, 0x3f, 0x82, 0x3a, 0xf0, 0x5c, 0x96, 0x3a, 0xbd, 0x18, 0xab, 0x3a,
  0xdd, 0xeb, 0x8d, 0x3a, 0xff, 0x51, 0x89, 0x3a, 0xe4, 0x8a, 0xa8, 0x3a,
  0x8e, 0x8c, 0x91, 0x3a, 0xd0, 0xca, 0x91, 0x3a, 0xd8, 0x95, 0x86, 0x3a,
  0x02, 0x96, 0x8e, 0x3a, 0xa8, 0xa1, 0x8c, 0x3a, 0x91, 0x69, 0x9f, 0x3a,
  0x17, 0x47, 0x91, 0x3a, 0xf4, 0x98, 0xa7, 0x3a, 0x99, 0x6c, 0x89, 0x3a,
  0x76, 0xac, 0x8e, 0x3a, 0x17, 0xe0, 0x9f, 0x3a, 0xae, 0x85, 0x84, 0x3a,
  0x53, 0x19, 0x97, 0x3a, 0xbd, 0x87, 0x9b, 0x3a, 0x45, 0x38, 0x90, 0x3a,
  0x0d, 0x72, 0x81, 0x3a, 0x25, 0x22, 0x87, 0x3a, 0x79, 0x9a, 0x9e, 0x3a,
  0x10, 0xd4, 0x9c, 0x3a, 0xd5, 0xdb, 0xae, 0x3a, 0x66, 0x33, 0x8d, 0x3a,
  0x54, 0x5e, 0x81, 0x3a, 0x0b, 0xaf, 0xaf, 0x3a, 0xf2, 0x50, 0x89, 0x3a,
  0x53, 0xd9, 0x81, 0x3a, 0x53, 0xc2, 0x9d, 0x3a, 0x5a, 0xe0, 0x93, 0x3a,
  0x93, 0x24, 0x83, 0x3a, 0x30, 0xd5, 0xa7, 0x3a, 0xc4, 0x40, 0x89, 0x3a,
  0xbc, 0xb7, 0x84, 0x3a, 0x59, 0x37, 0x81, 0x3a, 0xbb, 0x21, 0xa1, 0x3a,
  0x65, 0x40, 0x9f, 0x3a, 0xde, 0xc1, 0x8c, 0x3a, 0xff, 0xd4, 0x94, 0x3a,
  0x9c, 0x6e, 0x91, 0x3a, 0x04, 0x37, 0x85, 0x3a, 0x41, 0xf5, 0xa7, 0x3a,
  0x14, 0x23, 0x92, 0x3a, 0x4a, 0x68, 0x8f, 0x3a, 0xdf, 0x11, 0x9c, 0x3a,
  0x4b, 0x36, 0xa2, 0x3a, 0x0a, 0x84, 0x97, 0x3a, 0x1e, 0x57, 0x80, 0x3a,
  0xbf, 0x92, 0xa5, 0x3a, 0xf0, 0x72, 0x98, 0x3a, 0x40, 0x00, 0x00, 0x00,
  0x83, 0x3b, 0x17, 0x3e, 0x39, 0x16, 0xfd, 0x3d, 0xa4, 0xc5, 0xf5, 0x3d,
  0x10, 0xe0, 0x39, 0x3e, 0x84, 0x06, 0x07, 0x3e, 0x96, 0x7a, 0xf8, 0x3d,
  0x2e, 0xf1, 0x0c, 0x3e, 0xc4, 0x63, 0x0c, 0x3e, 0xb3, 0xa8, 0x1c, 0x3e,
  0xf8, 0x7a, 0x19, 0x3e, 0xc3, 0x30, 0x01, 0x3e, 0x6c, 0xbf, 0xff, 0x3d,
  0xe9, 0xdf, 0xf7, 0x3d, 0x8c, 0xc2, 0x29, 0x3e, 0x3a, 0x78, 0xf8, 0x3d,
  0xbc, 0x33, 0xf5, 0x3d, 0xce, 0x39, 0x27, 0x3e, 0xc7, 0xc2, 0x02, 0x3e,
  0x3a, 0xa7, 0x10, 0x3e, 0x0f, 0x01, 0x04, 0x3e, 0x3f, 0x63, 0x06, 0x3e,
  0x0e, 0x95, 0x00, 0x3e, 0xbe, 0x2a, 0x1e, 0x3e, 0x24, 0x82, 0x09, 0x3e,
  0xdf, 0x5e, 0xfd, 0x3d, 0x25, 0x21, 0x05, 0x3e, 0x13, 0xcd, 0x0a, 0x3e,
  0x94, 0x6f, 0xd8, 0x3d, 0x59, 0xab, 0xfc, 0x3d, 0x20, 0xeb, 0x15, 0x3e,
  0x06, 0x04, 0xfa, 0x3d, 0xf4, 0x16, 0xf9, 0x3d, 0x32, 0x6a, 0xf9, 0x3d,
  0xe1, 0x13, 0x06, 0x3e, 0x44, 0x5d, 0x1d, 0x3e, 0x9c, 0x5a, 0x12, 0x3e,
  0x4e, 0xbe, 0xe7, 0x3d, 0xff, 0x18, 0x0c, 0x3e, 0x97, 0x5b, 0x00, 0x3e,
  0xc7, 0x67, 0xfc, 0x3d, 0x0c, 0x13, 0xf3, 0x3d, 0xeb, 0xc9, 0xf3, 0x3d,
  0xfd, 0x96, 0x02, 0x3e, 0x99, 0xb8, 0x12, 0x3e, 0x4a, 0x1e, 0x02, 0x3e,
  0x86, 0x85, 0x26, 0x3e, 0x42, 0x2e, 0x08, 0x3e, 0xc4, 0xcc, 0xf7, 0x3d,
  0x04, 0x6b, 0xf9, 0x3d, 0x78, 0xdf, 0x1f, 0x3e, 0xe4, 0x01, 0x1e, 0x3e,
  0x5a, 0xa8, 0x0b, 0x3e, 0x55, 0xab, 0x13, 0x3e, 0xd2, 0xec, 0x06, 0x3e,
  0x96, 0x2c, 0x04, 0x3e, 0x56, 0xa5, 0x26, 0x3e, 0xce, 0xfe, 0x10, 0x3e,
  0xf0, 0xab, 0xfd, 0x3d, 0xaa, 0x18, 0x13, 0x3e, 0xde, 0xf1, 0x20, 0x3e,
  0x02, 0x55, 0x16, 0x3e, 0xe0, 0xac, 0xfe, 0x3d, 0xa5, 0xcd, 0xfc, 0x3d,
  0x78, 0xc6, 0xfd, 0x3d, 0x40, 0x00, 0x00, 0x00, 0x64, 0x25, 0xed, 0xbd,
  0x01, 0xf5, 0x03, 0xbe, 0x56, 0x67, 0x25, 0xbe, 0xb4, 0xef, 0x05, 0xbe,
  0x57, 0xde, 0x06, 0xbe, 0xb0, 0x47, 0x16, 0xbe, 0x93, 0x32, 0x01, 0xbe,
  0xd6, 0x5b, 0x02, 0xbe, 0x9f, 0xfe, 0x05, 0xbe, 0x5b, 0xe0, 0xf0, 0xbd,
  0xb6, 0xc2, 0x1a, 0xbe, 0xf7, 0x3a, 0x01, 0xbe, 0x36, 0x30, 0x15, 0xbe,
  0xe0, 0x98, 0x24, 0xbe, 0x05, 0xd0, 0x0c, 0xbe, 0x5b, 0x3f, 0x08, 0xbe,
  0x6c, 0x11, 0xfe, 0xbd, 0x75, 0x69, 0x10, 0xbe, 0x8b, 0x31, 0x08, 0xbe,
  0xac, 0x88, 0x05, 0xbe, 0xd6, 0x78, 0x0d, 0xbe, 0x65, 0x88, 0x0b, 0xbe,
  0x60, 0x30, 0xfa, 0xbd, 0x89, 0x24, 0x10, 0xbe, 0xc2, 0x49, 0x26, 0xbe,
  0xc0, 0x59, 0x08, 0xbe, 0x1d, 0x8f, 0x0d, 0xbe, 0x57, 0xa0, 0x1e, 0xbe,
  0xa3, 0x7c, 0x03, 0xbe, 0xfb, 0xae, 0x0b, 0xbe, 0xae, 0x50, 0x1a, 0xbe,
  0xd4, 0x17, 0x0f, 0xbe, 0x29, 0x6f, 0x00, 0xbe, 0x1c, 0xd6, 0x01, 0xbe,
  0x22, 0xe8, 0x06, 0xbe, 0x68, 0x9a, 0x1b, 0xbe, 0x1d, 0x7e, 0x2d, 0xbe,
  0xfb, 0xb5, 0x03, 0xbe, 0xbb, 0x79, 0xf4, 0xbd, 0xad, 0x4f, 0x2e, 0xbe,
  0x50, 0x3e, 0x08, 0xbe, 0xa0, 0xd5, 0x00, 0xbe, 0xce, 0x86, 0x1c, 0xbe,
  0x22, 0x81, 0x03, 0xbe, 0x43, 0x08, 0xf3, 0xbd, 0x66, 0xcd, 0x04, 0xbe,
  0xd4, 0x1c, 0x01, 0xbe, 0x4d, 0xae, 0x03, 0xbe, 0xea, 0x34, 0x00, 0xbe,
  0x5c, 0x05, 0x05, 0xbe, 0x75, 0x4e, 0xf0, 0xbd, 0x01, 0x80, 0xf6, 0xbd,
  0x09, 0x44, 0x0d, 0xbe, 0xbf, 0x4b, 0x10, 0xbe, 0x92, 0x47, 0x00, 0xbe,
  0x5b, 0x94, 0x03, 0xbe, 0x9a, 0x21, 0xed, 0xbd, 0x79, 0x49, 0x0e, 0xbe,
  0xbb, 0xd9, 0x1a, 0xbe, 0xf7, 0xb8, 0x00, 0xbe, 0x23, 0x85, 0x00, 0xbe,
  0xf5, 0xd8, 0xfc, 0xbd, 0x9a, 0x47, 0x24, 0xbe, 0x0a, 0x42, 0x17, 0xbe,
  0x1a, 0x00, 0x00, 0x00, 0x73, 0x65, 0x71, 0x75, 0x65, 0x6e, 0x74, 0x69,
