unsigned char cnn_gray_32_k3_quant_tflite[] = {
  0x1c, 0x00, 0x00, 0x00, 0x54, 0x46, 0x4c, 0x33, 0x00, 0x00, 0x12, 0x00,
  0x1c, 0x00, 0x18, 0x00, 0x14, 0x00, 0x10, 0x00, 0x0c, 0x00, 0x08, 0x00,
  0x00, 0x00, 0x04, 0x00, 0x12, 0x00, 0x00, 0x00, 0x18, 0x00, 0x00, 0x00,
  0x48, 0x00, 0x00, 0x00, 0x50, 0x30, 0x00, 0x00, 0x60, 0x30, 0x00, 0x00,
  0x90, 0x47, 0x00, 0x00, 0x03, 0x00, 0x00, 0x00, 0x01, 0x00, 0x00, 0x00,
  0x0c, 0x00, 0x00, 0x00, 0x08, 0x00, 0x0c, 0x00, 0x08, 0x00, 0x04, 0x00,
  0x08, 0x00, 0x00, 0x00, 0x10, 0x00, 0x00, 0x00, 0x04, 0x00, 0x00, 0x00,
  0x13, 0x00, 0x00, 0x00, 0x6d, 0x69, 0x6e, 0x5f, 0x72, 0x75, 0x6e, 0x74,
  0x69, 0x6d, 0x65, 0x5f, 0x76, 0x65, 0x72, 0x73, 0x69, 0x6f, 0x6e, 0x00,
  0x11, 0x00, 0x00, 0x00, 0x04, 0x30, 0x00, 0x00, 0xfc, 0x2f, 0x00, 0x00,
  0x6c, 0x2f, 0x00, 0x00, 0x5c, 0x2e, 0x00, 0x00, 0x44, 0x2e, 0x00, 0x00,
  0x2c, 0x2e, 0x00, 0x00, 0x9c, 0x21, 0x00, 0x00, 0x6c, 0x20, 0x00, 0x00,
  0x5c, 0x00, 0x00, 0x00, 0x54, 0x00, 0x00, 0x00, 0x4c, 0x00, 0x00, 0x00,
  0x44, 0x00, 0x00, 0x00, 0x3c, 0x00, 0x00, 0x00, 0x34, 0x00, 0x00, 0x00,
  0x2c, 0x00, 0x00, 0x00, 0x24, 0x00, 0x00, 0x00, 0x04, 0x00, 0x00, 0x00,
  0xb2, 0xcf, 0xff, 0xff, 0x04, 0x00, 0x00, 0x00, 0x10, 0x00, 0x00, 0x00,
  0x31, 0x2e, 0x35, 0x2e, 0x30, 0x00, 0x00, 0x00, 0x00, 0x00, 0x00, 0x00,
  0x00, 0x00, 0x00, 0x00, 0xe0, 0xbf, 0xff, 0xff, 0xe4, 0xbf, 0xff, 0xff,
  0xe8, 0xbf, 0xff, 0xff, 0xec, 0xbf, 0xff, 0xff, 0xf0, 0xbf, 0xff, 0xff,
  0xf4, 0xbf, 0xff, 0xff, 0xf8, 0xbf, 0xff, 0xff, 0xea, 0xcf, 0xff, 0xff,
  0x04, 0x00, 0x00, 0x00, 0x00, 0x20, 0x00, 0x00, 0x6f, 0x7c, 0x54, 0x6a,
  0xb8, 0xc8, 0xb3, 0x11, 0x52, 0xa6, 0x6c, 0x6e, 0xca, 0x19, 0x4a, 0x24,
  0x8e, 0x13, 0x4b, 0x7b, 0x08, 0x76, 0xa2, 0x2f, 0x4b, 0x60, 0xd8, 0xf0,
  0x6b, 0xc4, 0x30, 0xa9, 0x25, 0x97, 0x6f, 0x3b, 0x08, 0x50, 0x97, 0x1a,
  0xa3, 0x86, 0x30, 0x60, 0x34, 0x20, 0x5f, 0x21, 0xac, 0xbb, 0xd1, 0x6b,
  0x50, 0xe5, 0x08, 0x81, 0x59, 0xa7, 0x2c, 0x5f, 0x90, 0x31, 0x1b, 0xe2,
  0x8b, 0x12, 0xd4, 0x75, 0x3a, 0xa3, 0xf8, 0xfa, 0xbd, 0x3f, 0x08, 0x8a,
  0x99, 0x68, 0xfb, 0x20, 0x98, 0xfc, 0xf1, 0x71, 0x8f, 0xf9, 0x06, 0x12,
  0x48, 0x37, 0x24, 0x89, 0x00, 0xbc, 0xfd, 0x99, 0x13, 0x88, 0xeb, 0x81,
  0x86, 0x6a, 0x3b, 0x64, 0x1d, 0x79, 0x82, 0x0d, 0xe1, 0xe0, 0xc8, 0x90,
  0x83, 0x3b, 0x26, 0x82, 0x0b, 0x9b, 0xcf, 0x29, 0x58, 0xc3, 0x0c, 0xdc,
  0x0b, 0xdb, 0x9f, 0x0c, 0xc2, 0x17, 0x06, 0xdd, 0x2a, 0xd2, 0x0f, 0x9b,
  0x9c, 0xad, 0x43, 0x82, 0xd3, 0x26, 0xef, 0x95, 0x1d, 0xb4, 0x87, 0xf1,
  0xb3, 0x5c, 0xdc, 0xd6, 0x08, 0xe1, 0x28, 0x44, 0x10, 0x31, 0x9d, 0x37,
  0xf2, 0x3a, 0x2d, 0x9e, 0x64, 0xcd, 0x7e, 0x69, 0x28, 0x14, 0x04, 0x53,
  0xbd, 0x40, 0x2e, 0xcf, 0x1e, 0x0a, 0xfd, 0x8b, 0x21, 0x2c, 0xe1, 0xd5,
  0x75, 0x03, 0x8d, 0x72, 0xf4, 0xed, 0x87, 0xdc, 0x21, 0x16, 0x6d, 0x7b,
  0x70, 0xd8, 0x77, 0x18, 0xed, 0x7d, 0x0e, 0x06, 0x93, 0x81, 0x09, 0x22,
  0x7e, 0xa0, 0xbf, 0x84, 0x42, 0x15, 0xf2, 0xbe, 0x1d, 0x22, 0x34, 0x35,
  0x60, 0x86, 0xfd, 0x9c, 0xb3, 0xed, 0xeb, 0xa1, 0x98, 0x10, 0x01, 0x8e,
  0x37, 0xbd, 0xa8, 0xa7, 0x81, 0x62, 0xde, 0x23, 0x8f, 0xe8, 0x7b, 0x68,
  0xb8, 0x54, 0x61, 0x67, 0x15, 0xfe, 0xd8, 0xe5, 0x99, 0x58, 0x88, 0x0d,
  0xc7, 0x55, 0xf5, 0xb2, 0x31, 0x42, 0x3e, 0xae, 0xf3, 0xad, 0xc2, 0xa8,
  0x31, 0xb1, 0xc6, 0xb9, 0x0e, 0x18, 0x5d, 0x44, 0xaa, 0xa6, 0xc2, 0xe7,
  0x67, 0x55, 0xf6, 0xe2, 0xcc, 0xea, 0xfa, 0x36, 0x4b, 0x12, 0x01, 0x0a,
  0x54, 0x2d, 0xb5, 0xb9, 0x93, 0xd9, 0x43, 0xa8, 0xb3, 0x1e, 0x53, 0x5f,
  0x3c, 0x22, 0xc6, 0x1f, 0x87, 0xa5, 0x96, 0x1b, 0x15, 0x64, 0x9a, 0xab,
  0x63, 0x39, 0x9a, 0xfc, 0x53, 0x01, 0xb6, 0x3d, 0x24, 0xb8, 0x3c, 0xa7,
  0x3c, 0x2f, 0xc3, 0xb9, 0x6a, 0xcc, 0xe7, 0xad, 0x03, 0xf5, 0xb3, 0xdf,
  0x58, 0x20, 0x1d, 0x68, 0x72, 0x03, 0xb1, 0xea, 0xcc, 0x38, 0x8b, 0xaf,
  0x34, 0xc6, 0x3b, 0x6c, 0xf9, 0xbd, 0x71, 0x8b, 0x22, 0xc8, 0x52, 0xef,
  0x34, 0xa7, 0x25, 0x5c, 0x44, 0x44, 0xa8, 0x55, 0xfc, 0xda, 0x12, 0x13,
  0xef, 0x70, 0xc2, 0x89, 0x7f, 0xf1, 0xfc, 0xca, 0x64, 0x58, 0xf5, 0xb2,
  0x64, 0x20, 0xd6, 0x42, 0x51, 0xaf, 0x42, 0xf0, 0x81, 0xd0, 0x36, 0x4b,
  0x23, 0x6a, 0xb0, 0x47, 0xf6, 0x60, 0x89, 0x46, 0x38, 0x6a, 0xdb, 0x4a,
  0x29, 0x22, 0xc9, 0xfb, 0x30, 0xe5, 0x29, 0x31, 0x5d, 0x04, 0x97, 0x12,
  0xa7, 0xb5, 0x57, 0xc5, 0x36, 0x39, 0xb8, 0x00, 0x4c, 0x57, 0x43, 0x25,
  0x2e, 0xf5, 0x0c, 0x5d, 0x30, 0xe0, 0x21, 0xd9, 0x90, 0xe7, 0x18, 0x17,
  0xf1, 0xb1, 0x44, 0xbb, 0x83, 0xd7, 0x96, 0xfc, 0xa6, 0xbd, 0xf8, 0xbd,
  0xb9, 0xbd, 0x07, 0xc4, 0xf1, 0xfd, 0xbb, 0x60, 0xc7, 0xda, 0x06, 0x48,
  0x2b, 0xe0, 0x2c, 0xb5, 0x95, 0x6a, 0x9f, 0x4a, 0x2e, 0xe6, 0xb0, 0xee,
  0xe4, 0xc4, 0xc0, 0xa0, 0xf7, 0x2d, 0xe5, 0x34, 0xdd, 0x5d, 0xff, 0x12,
  0x3f, 0x09, 0x3b, 0x92, 0x3c, 0xfd, 0xaf, 0x8a, 0x07, 0x2b, 0xc7, 0x2d,
  0x85, 0x35, 0x88, 0x4f, 0x23, 0x56, 0x81, 0x52, 0xe6, 0x11, 0x20, 0x66,
  0x28, 0xbb, 0xe3, 0x6a, 0x8d, 0x3c, 0xf0, 0xab, 0xf2, 0x97, 0x66, 0x18,
  0x7a, 0xab, 0x81, 0x9b, 0x67, 0xd7, 0x96, 0x09, 0x29, 0x34, 0x52, 0x61,
  0xf8, 0xde, 0x26, 0x9e, 0x0d, 0x0b, 0xed, 0x1b, 0x19, 0xb3, 0x3c, 0x8c,
  0x19, 0xa5, 0x47, 0xb3, 0x44, 0xa0, 0x04, 0x86, 0x19, 0xc7, 0xec, 0x2e,
  0xa8, 0x24, 0x98, 0x0f, 0x27, 0x3d, 0xdd, 0x66, 0x09, 0x3e, 0xab, 0x6c,
  0xac, 0xbb, 0x44, 0x4d, 0xf9, 0x55, 0xf8, 0x1e, 0x23, 0x6f, 0xa5, 0xec,
  0xff, 0xe5, 0x57, 0x1b, 0x29, 0x6e, 0xa4, 0x8a, 0xe6, 0xa4, 0x24, 0x17,
  0x19, 0x74, 0xde, 0x7d, 0x5a, 0x23, 0x04, 0xb4, 0x21, 0xeb, 0xfd, 0x8c,
  0xe1, 0xf2, 0xe4, 0xbe, 0xd2, 0x64, 0x3b, 0xb9, 0x1e, 0xa5, 0x4f, 0x97,
  0x19, 0x94, 0x6f, 0x58, 0xe8, 0x49, 0xf8, 0x4d, 0xf4, 0x13, 0x27, 0x71,
  0xad, 0x75, 0x25, 0xb7, 0xaf, 0x46, 0x7a, 0x24, 0xa9, 0xcc, 0x97, 0x2f,
  0x2c, 0xb4, 0x81, 0xb8, 0x48, 0xe4, 0x99, 0x3a, 0xd1, 0xcc, 0x00, 0xf2,
  0x16, 0x74, 0xf5, 0x43, 0xd9, 0x3f, 0x29, 0x8c, 0x07, 0x40, 0x9b, 0x6b,
  0xf7, 0x67, 0xe4, 0x6b, 0x54, 0xb1, 0x11, 0x03, 0xfc, 0x77, 0xa1, 0xe1,
  0xf0, 0x32, 0xbd, 0x9d, 0x0c, 0x27, 0x0d, 0x88, 0xb8, 0xce, 0xf6, 0x6d,
  0xc0, 0xec, 0x32, 0xbb, 0xfa, 0xca, 0x33, 0x06, 0xcd, 0x2e, 0xef, 0x49,
  0x3e, 0x9e, 0x4d, 0x02, 0x35, 0xc4, 0xd4, 0xbc, 0x8d, 0x67, 0x2e, 0x89,
  0x03, 0xbb, 0x85, 0x33, 0xd8, 0x49, 0xf0, 0xee, 0x00, 0x99, 0x72, 0xb8,
  0xed, 0x2f, 0x20, 0xc6, 0x78, 0xa7, 0x17, 0x4f, 0x3a, 0x03, 0xc6, 0xd5,
  0xfb, 0x5c, 0xcf, 0xe2, 0xbb, 0x86, 0xee, 0x46, 0xc2, 0xe0, 0x88, 0xfb,
  0x3f, 0x45, 0x65, 0x86, 0x36, 0x18, 0x45, 0x2e, 0xa1, 0xfa, 0x2f, 0x46,
  0xd7, 0xb6, 0x72, 0x33, 0x4a, 0x0d, 0x64, 0x2b, 0xe8, 0x29, 0xe6, 0x31,
  0x62, 0x28, 0x21, 0xbb, 0xe1, 0xea, 0xfc, 0x2d, 0xa2, 0x98, 0x7e, 0xa6,
  0x17, 0x03, 0x64, 0x7f, 0xaa, 0x19, 0xea, 0x20, 0x67, 0x93, 0x52, 0x5f,
  0xd5, 0x71, 0xf4, 0x1a, 0x10, 0x18, 0xbb, 0x9e, 0x6c, 0xf9, 0x8a, 0xba,
  0xed, 0xcf, 0xf8, 0x92, 0x0f, 0x55, 0x06, 0x13, 0x11, 0xcb, 0x1f, 0xed,
  0xfd, 0xb1, 0xfb, 0x62, 0x6a, 0x47, 0xeb, 0x0f, 0x22, 0xf7, 0xc8, 0x05,
  0x66, 0xde, 0xfc, 0xd2, 0xa7, 0x50, 0x1b, 0xdc, 0x5a, 0x9b, 0xeb, 0xe2,
  0x48, 0x4f, 0x42, 0x3b, 0xb6, 0xd2, 0x0a, 0x5e, 0x8e, 0xcd, 0x0a, 0x5e,
  0x1e, 0xab, 0xe0, 0x67, 0xec, 0x54, 0x46, 0xcd, 0x41, 0x21, 0x6f, 0x2b,
  0xf1, 0x3d, 0xa2, 0xa6, 0x2b, 0x6c, 0xc4, 0x17, 0xa2, 0x09, 0x3f, 0xc8,
  0x50, 0x31, 0x3d, 0xd7, 0x55, 0xac, 0x48, 0xd6, 0x81, 0x14, 0x2a, 0xff,
  0x98, 0x0a, 0x9b, 0x88, 0x3a, 0x4e, 0x61, 0x61, 0x96, 0x97, 0xc2, 0x08,
  0xa4, 0xda, 0xd6, 0x17, 0x2f, 0xba, 0x29, 0x38, 0x25, 0xb3, 0x0d, 0x1b,
  0xd0, 0x40, 0x51, 0x46, 0x98, 0x93, 0x88, 0xbb, 0x94, 0x67, 0xfb, 0xf0,
  0x8f, 0xc8, 0x43, 0x56, 0xff, 0xc5, 0xdb, 0x3d, 0x07, 0x9c, 0x83, 0x48,
  0x45, 0x71, 0xd5, 0x71, 0x89, 0xeb, 0xa4, 0x46, 0xec, 0x5d, 0xf1, 0x9d,
  0x00, 0x6d, 0xaf, 0x4d, 0x65, 0x78, 0x13, 0xc5, 0x34, 0xbc, 0xda, 0xea,
  0xb1, 0xfa, 0x32, 0xbb, 0x92, 0x4e, 0xa7, 0x9f, 0xd5, 0xee, 0xd9, 0xb0,
  0x73, 0x46, 0xeb, 0xe6, 0x6e, 0xfa, 0xe6, 0x67, 0x27, 0x64, 0x9a, 0x69,
  0xd2, 0x0b, 0xb2, 0x5c, 0x88, 0x60, 0x96, 0xab, 0x71, 0xc9, 0x1b, 0x4c,
  0x28, 0x3f, 0x52, 0xb2, 0xbc, 0x28, 0xbe, 0xa5, 0x62, 0x64, 0xc7, 0x2a,
  0x50, 0x64, 0x67, 0x95, 0xdd, 0x7d, 0x6c, 0x88, 0x3d, 0x23, 0x59, 0xea,
  0xf7, 0x0a, 0xcf, 0x40, 0xf6, 0x19, 0xd7, 0x95, 0x37, 0xab, 0xdd, 0x92,
  0x06, 0x93, 0xfd, 0xb5, 0x07, 0x33, 0xc4, 0x51, 0x98, 0xa1, 0x23, 0x97,
  0x67, 0xf3, 0xcc, 0x57, 0xed, 0x4b, 0xb2, 0x9b, 0x45, 0x5a, 0xc4, 0x9c,
  0x68, 0x42, 0xbf, 0xec, 0x07, 0x07, 0x2e, 0xd1, 0x0e, 0x17, 0xce, 0x2e,
  0x59, 0x2b, 0xf4, 0x2e, 0x13, 0xfc, 0x51, 0xf8, 0xeb, 0xa6, 0x69, 0x48,
  0xc4, 0xde, 0x96, 0xfb, 0x69, 0xb2, 0xf1, 0x7f, 0x66, 0x2d, 0x60, 0x45,
  0xf6, 0x9c, 0x6c, 0xc9, 0x37, 0xac, 0xa7, 0x01, 0x6e, 0x95, 0x38, 0xe0,
  0xce, 0x57, 0x14, 0x17, 0xb0, 0xd3, 0x07, 0x5b, 0xef, 0xbf, 0x17, 0x3d,
  0x43, 0x45, 0xb7, 0x0d, 0xc2, 0x04, 0x97, 0xb6, 0x47, 0x0c, 0x5e, 0xac,
  0x92, 0xa0, 0x48, 0xff, 0x32, 0x58, 0xd5, 0xd5, 0xdd, 0x4b, 0xd9, 0x47,
  0xc9, 0xcf, 0xc2, 0x01, 0x05, 0x61, 0x0d, 0xb6, 0x38, 0xf8, 0xa9, 0x58,
  0x1b, 0xa1, 0x0f, 0xda, 0xaa, 0x7f, 0x02, 0xc5, 0xa0, 0x6f, 0x5d, 0x29,
  0xad, 0x52, 0x42, 0x4a, 0x34, 0x97, 0xab, 0xf9, 0xe3, 0xad, 0x33, 0x14,
  0x30, 0x8b, 0xed, 0x1e, 0x39, 0xe1, 0x2c, 0xa6, 0x9b, 0xc3, 0x13, 0x25,
  0xba, 0x21, 0x18, 0xba, 0x04, 0x9b, 0x60, 0x5b, 0xbe, 0xad, 0x53, 0x73,
  0xc3, 0x6f, 0x8b, 0xba, 0xae, 0x04, 0xf9, 0xce, 0xf7, 0x1c, 0x0f, 0x1a,
  0x07, 0x43, 0x3b, 0x55, 0x22, 0xeb, 0xb9, 0x0a, 0x56, 0x06, 0x47, 0xac,
  0x35, 0xa4, 0x48, 0x67, 0x47, 0x2e, 0x0b, 0x47, 0xb7, 0x28, 0x5a, 0xc4,
  0xdc, 0xd6, 0xc6, 0x0d, 0x37, 0x43, 0x8d, 0x9f, 0xc2, 0xc1, 0x07, 0xe0,
  0x2a, 0x97, 0x30, 0x54, 0xdd, 0xd4, 0x61, 0xd0, 0x5d, 0x12, 0xc9, 0x4e,
  0x53, 0xad, 0xde, 0x04, 0x6b, 0x78, 0xb2, 0xf1, 0x51, 0x1f, 0x39, 0x15,
  0xe9, 0xf3, 0xe6, 0x93, 0x4f, 0x61, 0xa6, 0xd7, 0x1f, 0x2f, 0x76, 0x58,
  0x3f, 0x16, 0x9a, 0x13, 0xa4, 0xa1, 0x98, 0xf3, 0xd4, 0x6e, 0xb3, 0x26,
  0xcd, 0x63, 0x07, 0x5a, 0x79, 0x0a, 0xb7, 0xfc, 0x8b, 0xe4, 0xae, 0xc1,
  0x6d, 0xf8, 0x0f, 0x7e, 0x1b, 0x66, 0x49, 0x16, 0xe5, 0x56, 0x86, 0x85,
  0xef, 0xd8, 0x6a, 0x56, 0xc2, 0x1d, 0x22, 0xcf, 0x81, 0x58, 0x5f, 0xbf,
  0x07, 0x04, 0x4b, 0x8d, 0x3d, 0x36, 0x09, 0xb7, 0x4c, 0xa8, 0x69, 0x47,
  0x5a, 0xee, 0x67, 0x59, 0x91, 0x12, 0xf4, 0x2c, 0xf5, 0xbe, 0x26, 0x51,
  0x1d, 0x13, 0x0c, 0xce, 0x2f, 0x35, 0x73, 0x6a, 0x4b, 0xa7, 0x11, 0x28,
  0xa2, 0xa4, 0x4e, 0x68, 0x2a, 0x8b, 0x25, 0xb5, 0xc8, 0x56, 0x74, 0x66,
  0x52, 0x32, 0x43, 0xf8, 0xcc, 0x57, 0x5a, 0x3d, 0x31, 0x99, 0xf4, 0xcd,
  0xbe, 0xe3, 0x06, 0x07, 0x50, 0x44, 0xe9, 0xa5, 0x5e, 0xe1, 0x5b, 0xb3,
  0x27, 0x5c, 0xbb, 0xee, 0x3a, 0xe1, 0x16, 0x05, 0x97, 0x37, 0xcb, 0xe1,
  0x54, 0x5a, 0xff, 0xf7, 0x58, 0xd8, 0xfe, 0x69, 0x31, 0x18, 0x50, 0xc5,
  0x6b, 0xbc, 0xed, 0x9c, 0xb1, 0x65, 0x3f, 0x57, 0x1b, 0x0b, 0xe5, 0x53,
  0x96, 0xb9, 0x5f, 0x60, 0xda, 0x36, 0x95, 0xcb, 0x2f, 0x97, 0x2b, 0xb5,
  0x63, 0xdb, 0x63, 0xa1, 0x9b, 0x70, 0xe2, 0xde, 0x7f, 0xc9, 0x5d, 0xc9,
  0x08, 0x08, 0xe7, 0xbb, 0xf6, 0x11, 0xad, 0x9a, 0x50, 0xc6, 0x38, 0x49,
  0xa6, 0x55, 0x56, 0x94, 0x98, 0xfc, 0xb9, 0x12, 0x22, 0x52, 0x25, 0x2d,
  0xa4, 0x3d, 0x1d, 0x5c, 0xe1, 0xce, 0xac, 0x90, 0x43, 0x28, 0xaa, 0xc0,
  0x0e, 0x0f, 0xc3, 0x4b, 0xa8, 0xd9, 0x1c, 0x47, 0xb4, 0x1d, 0xfd, 0xbe,
  0x0e, 0xd7, 0x48, 0xdc, 0xd8, 0x39, 0x05, 0x33, 0x96, 0x0e, 0xaf, 0xae,
  0x59, 0x4e, 0x03, 0x6f, 0xa1, 0x53, 0xab, 0x90, 0xbc, 0xcd, 0x06, 0x46,
  0x01, 0xa9, 0xa7, 0x02, 0xcf, 0xa5, 0xec, 0xf9, 0xf0, 0x25, 0x6d, 0x14,
  0x29, 0x19, 0xb8, 0xe3, 0x58, 0x89, 0xec, 0x70, 0xb4, 0xdf, 0x87, 0x0b,
  0x50, 0x0a, 0x67, 0x8b, 0xfc, 0x51, 0x39, 0xe6, 0x36, 0xd5, 0xc7, 0x6e,
  0xd7, 0x7b, 0x73, 0xa6, 0x08, 0xd9, 0x21, 0xac, 0xbb, 0x62, 0xbe, 0xef,
  0xf0, 0x9f, 0x63, 0xfa, 0xdf, 0x5b, 0x70, 0x89, 0x42, 0xfe, 0xf8, 0x8a,
  0xc2, 0x6b, 0xf7, 0x58, 0x62, 0x1b, 0x4c, 0x1a, 0xb0, 0xbf, 0x8a, 0xfa,
  0x93, 0xbe, 0x2e, 0xe6, 0xd4, 0x8b, 0x38, 0xce, 0x43, 0xfc, 0xc9, 0x1c,
  0x05, 0xab, 0x9e, 0xce, 0xb1, 0xcf, 0x0e, 0x13, 0x36, 0x95, 0x42, 0x23,
  0x13, 0xc4, 0x22, 0x8c, 0x5c, 0x9d, 0x09, 0x4a, 0x81, 0x0d, 0x75, 0xd8,
  0x7a, 0x33, 0xc2, 0xec, 0x0d, 0xb2, 0xa6, 0xed, 0xbd, 0xc4, 0xbc, 0xbe,
  0xf5, 0x72, 0xd3, 0x9e, 0xe2, 0xb3, 0xbb, 0x4f, 0xaf, 0xcf, 0xbb, 0xb9,
  0x50, 0xfb, 0x02, 0xd6, 0x11, 0xdd, 0x5e, 0x62, 0xa4, 0x9f, 0xbe, 0x16,
  0xfb, 0xd0, 0x5e, 0xeb, 0x23, 0xa5, 0xd9, 0x2d, 0xaa, 0xb6, 0x3b, 0x11,
  0xd1, 0xb2, 0x69, 0x5e, 0xab, 0xe2, 0x19, 0x53, 0xcd, 0x59, 0xa8, 0xb6,
  0x28, 0x48, 0x07, 0x05, 0xdd, 0xf6, 0xa7, 0xdf, 0xf6, 0xde, 0x31, 0x8f,
  0xea, 0x48, 0xff, 0x2e, 0x07, 0x1c, 0xaf, 0xdb, 0x17, 0xd2, 0x05, 0x40,
  0xfe, 0x22, 0x48, 0x41, 0x0d, 0xb8, 0x55, 0xbf, 0xbe, 0xb7, 0x65, 0x9d,
  0x99, 0x15, 0x60, 0x25, 0xb7, 0x24, 0x1c, 0xdf, 0xa6, 0xae, 0x1e, 0xfe,
  0x02, 0x31, 0x15, 0xa8, 0x3c, 0xb5, 0x75, 0xde, 0x42, 0x5a, 0xa9, 0x6c,
  0x23, 0x20, 0x03, 0x2a, 0x21, 0xa2, 0x07, 0x30, 0x7f, 0x30, 0x5e, 0x03,
  0x0d, 0x89, 0xe3, 0xfd, 0xa3, 0x2a, 0xde, 0x55, 0x2e, 0x33, 0xe4, 0x41,
  0x81, 0xee, 0xee, 0x9d, 0xcc, 0x35, 0xd7, 0x09, 0x5a, 0x60, 0xdd, 0x0b,
  0xf2, 0x2d, 0xbe, 0xea, 0x34, 0x35, 0xed, 0x14, 0xd4, 0xc5, 0x56, 0xef,
  0x5b, 0xbf, 0xfc, 0x8a, 0x1b, 0x70, 0xd8, 0xf1, 0xc8, 0xeb, 0x20, 0x9d,
  0xcc, 0xcf, 0x1f, 0x33, 0x43, 0x29, 0x5f, 0xcc, 0x07, 0x31, 0x60, 0x6d,
  0xde, 0xad, 0xcd, 0x00, 0xac, 0x27, 0x42, 0xbd, 0x13, 0x12, 0x03, 0x19,
  0xa0, 0xe9, 0x0c, 0xab, 0x03, 0x40, 0xf0, 0x7c, 0xa9, 0x46, 0xe5, 0xb1,
  0x34, 0x6b, 0xbc, 0x88, 0xf9, 0xe8, 0x0e, 0x1a, 0x1c, 0xa9, 0x3d, 0xad,
  0xfa, 0x69, 0x6f, 0xe2, 0xdb, 0xa4, 0x25, 0x99, 0xa1, 0x07, 0xf0, 0x17,
  0xad, 0xa0, 0xa7, 0x76, 0x20, 0x85, 0x68, 0xc7, 0x5e, 0x08, 0x51, 0x1c,
  0x6b, 0x3e, 0x64, 0xe3, 0x8e, 0x73, 0x79, 0xe1, 0xe9, 0x3f, 0x99, 0xcc,
  0x17, 0x8b, 0x3d, 0x50, 0xb8, 0x73, 0xe0, 0x45, 0x2b, 0x5c, 0x5f, 0x6d,
  0x4b, 0xcc, 0xa1, 0x58, 0xb8, 0x45, 0x73, 0x14, 0xa3, 0x73, 0x3e, 0x73,
  0xc9, 0x33, 0x14, 0xae, 0x39, 0x0c, 0x09, 0x33, 0x69, 0xb3, 0x18, 0x43,
  0x66, 0xac, 0xd5, 0xd3, 0xd3, 0x68, 0xce, 0xc4, 0x68, 0xb5, 0x86, 0x25,
  0xdc, 0x81, 0xf2, 0x37, 0x02, 0xac, 0x2f, 0xbb, 0x69, 0xc0, 0x28, 0x72,
  0x04, 0x14, 0xd6, 0xaa, 0x1c, 0x6d, 0x8e, 0xcd, 0x4e, 0x36, 0x48, 0x9a,
  0xb7, 0xe4, 0x30, 0x29, 0xa6, 0xd5, 0xcd, 0x96, 0x0a, 0x2d, 0x1b, 0x0a,
  0x26, 0xa4, 0x43, 0x1e, 0x69, 0x9e, 0x05, 0x56, 0x06, 0x95, 0x43, 0x75,
  0xad, 0xb6, 0xc4, 0x18, 0xc6, 0x3c, 0x9a, 0x30, 0x63, 0x67, 0x7a, 0x9f,
  0x37, 0x60, 0x38, 0xa3, 0xd0, 0x2e, 0x17, 0x16, 0x6c, 0x1f, 0xc8, 0x95,
  0x24, 0xe7, 0x65, 0xd1, 0x8d, 0x43, 0x46, 0x2b, 0xbe, 0x0e, 0xb8, 0xee,
  0x26, 0x54, 0xf3, 0x9f, 0x0c, 0xe0, 0xb1, 0x5d, 0x2d, 0x63, 0x4d, 0x61,
  0xb7, 0x00, 0x4e, 0xd3, 0x33, 0x1d, 0x5b, 0x3e, 0x26, 0x90, 0x90, 0x78,
  0x4d, 0x0e, 0x1d, 0xca, 0x77, 0x8a, 0x53, 0x02, 0xc0, 0xf6, 0xed, 0x06,
  0x97, 0x9f, 0x03, 0x89, 0x43, 0x11, 0x05, 0x54, 0x5b, 0x83, 0xec, 0xb9,
  0xc1, 0x76, 0x68, 0xb4, 0x84, 0x60, 0x2f, 0xb9, 0xf5, 0x4f, 0xe5, 0xa2,
  0xa5, 0xed, 0xb9, 0x11, 0xda, 0x8b, 0x60, 0xfc, 0xd8, 0x8f, 0x09, 0xf3,
  0x59, 0xa7, 0x70, 0x89, 0x8c, 0x7c, 0x8d, 0x93, 0xf3, 0x3c, 0x0b, 0x0b,
  0xa3, 0x1e, 0xb0, 0xde, 0xa8, 0xbe, 0x23, 0x03, 0x5d, 0x53, 0x1e, 0x64,
  0x02, 0x57, 0xe1, 0xb9, 0x5b, 0x0b, 0x7b, 0x9a, 0xe3, 0x49, 0xca, 0x66,
  0x81, 0xa1, 0xe1, 0x7b, 0x70, 0x13, 0x4d, 0x91, 0xf8, 0x90, 0x39, 0x02,
  0xda, 0x35, 0xc1, 0xb9, 0x60, 0x76, 0xfb, 0xe9, 0x4e, 0xb1, 0x1f, 0xa4,
  0xcc, 0x65, 0x1b, 0x91, 0x44, 0xf7, 0x15, 0xd1, 0xe7, 0x57, 0x52, 0xf9,
  0x7d, 0x54, 0x0d, 0x38, 0x61, 0x13, 0x0b, 0x5a, 0xbe, 0x76, 0xc9, 0xac,
  0xfe, 0xf1, 0x1f, 0xe7, 0x3f, 0xdb, 0x6e, 0x7f, 0xc8, 0x1c, 0xa9, 0x31,
  0x89, 0xbf, 0x29, 0x73, 0x25, 0xa3, 0x50, 0x33, 0x01, 0x4b, 0x3f, 0x72,
  0xc5, 0x8b, 0x9b, 0xa6, 0x16, 0xb2, 0xfc, 0x0c, 0xbb, 0x55, 0x6c, 0x55,
  0xc1, 0x1a, 0x24, 0xad, 0xed, 0xd6, 0xf3, 0x6a, 0x42, 0xea, 0x58, 0x1d,
  0xe5, 0x12, 0x02, 0x21, 0xd7, 0x7a, 0x20, 0x61, 0xd6, 0xe4, 0xb2, 0x9e,
  0x73, 0x35, 0x9b, 0x6c, 0x55, 0xcf, 0xaa, 0x94, 0xca, 0xc4, 0xac, 0x74,
  0xfe, 0x01, 0x0b, 0x28, 0x33, 0x39, 0x8d, 0x40, 0x65, 0x07, 0xa9, 0x5a,
  0xde, 0xfe, 0xf4, 0x62, 0x4f, 0x85, 0x50, 0x02, 0x67, 0x2b, 0x20, 0xb4,
  0x46, 0xd6, 0x0b, 0x03, 0x6d, 0xae, 0x1c, 0xee, 0x24, 0x63, 0x90, 0xab,
  0x2e, 0x97, 0x6b, 0x59, 0x4c, 0xfb, 0x2a, 0x6e, 0x6c, 0x69, 0xc1, 0xf0,
  0x05, 0xfe, 0x35, 0xea, 0xed, 0x61, 0x07, 0x4e, 0x62, 0x91, 0xc1, 0xb9,
  0xfc, 0x12, 0x73, 0x04, 0x02, 0xe3, 0xcd, 0xeb, 0xc8, 0xa2, 0xbf, 0xaa,
  0xb7, 0xe8, 0x2f, 0x9c, 0xbd, 0xe9, 0xa1, 0x0c, 0xf4, 0xb3, 0x98, 0x1c,
  0x5d, 0x1b, 0xb4, 0xa8, 0xbc, 0xbd, 0x5a, 0xbb, 0xd3, 0x75, 0x8e, 0xb5,
  0x01, 0x91, 0x10, 0x35, 0xff, 0x7f, 0xd0, 0xd0, 0x4e, 0x66, 0xd8, 0x25,
  0xd2, 0x2b, 0xad, 0x6a, 0xba, 0x2c, 0xa8, 0xc0, 0x6f, 0x71, 0x96, 0x5c,
  0x08, 0x8a, 0xc6, 0x1c, 0x4f, 0xc4, 0xe1, 0x5f, 0x4e, 0xa9, 0x9b, 0x02,
  0xe1, 0xcb, 0xbc, 0x71, 0x02, 0x29, 0xbf, 0x26, 0x52, 0x5a, 0x35, 0x40,
  0x6f, 0x54, 0xad, 0x4b, 0x07, 0x8c, 0x00, 0x68, 0x43, 0x92, 0xee, 0x7b,
  0x7c, 0x69, 0x70, 0x0b, 0xe9, 0x1c, 0x6a, 0x51, 0x5b, 0x7d, 0x5b, 0xe3,
  0xea, 0x58, 0x79, 0x37, 0xea, 0x8d, 0x44, 0x9a, 0xb4, 0xa9, 0x30, 0x55,
  0x2b, 0x57, 0x12, 0x45, 0xf3, 0x45, 0x68, 0xf0, 0x07, 0xcf, 0x04, 0xa9,
  0xf2, 0x32, 0xd3, 0x4c, 0x31, 0x38, 0x04, 0xe4, 0x59, 0x2b, 0x2a, 0x77,
  0x44, 0x3e, 0xa5, 0xfd, 0xab, 0x5e, 0xc6, 0xdb, 0xe7, 0xcd, 0x6d, 0x2b,
  0xff, 0x8f, 0x7d, 0xb7, 0xdb, 0x00, 0xb9, 0x54, 0x68, 0x72, 0x89, 0x37,
  0x65, 0x20, 0x59, 0x92, 0x8d, 0x63, 0xd1, 0xf5, 0xc4, 0x0a, 0x3b, 0xae,
  0x27, 0x8b, 0xda, 0xca, 0xd5, 0x71, 0x49, 0x2a, 0x54, 0x36, 0xef, 0x5b,
  0x67, 0xab, 0xde, 0x68, 0xde, 0xd6, 0x9d, 0x38, 0xa0, 0xdf, 0x7c, 0xc3,
  0x79, 0x7b, 0xd9, 0xc8, 0x54, 0x24, 0xf5, 0x23, 0x7f, 0x8b, 0x8b, 0x30,
  0xe3, 0xb4, 0x41, 0x2d, 0x14, 0x3d, 0xa7, 0xca, 0x56, 0x8c, 0x8e, 0x02,
  0x28, 0xb5, 0x6d, 0xfb, 0xc0, 0x5f, 0xb4, 0x5c, 0xe7, 0x48, 0x68, 0x18,
  0xc0, 0x14, 0x6c, 0x29, 0x01, 0x3f, 0x22, 0x13, 0xf2, 0xa0, 0x48, 0xa7,
  0x3f, 0x3d, 0xf3, 0x40, 0xb5, 0x1c, 0x46, 0xbb, 0xbc, 0xd0, 0x0b, 0x75,
  0xa0, 0x29, 0x7f, 0xd2, 0x85, 0x06, 0xd0, 0x68, 0x6d, 0x0b, 0x05, 0x41,
  0x36, 0x75, 0x56, 0xae, 0x15, 0x50, 0x0e, 0xb8, 0x1d, 0x0c, 0x5b, 0x18,
  0x2f, 0x40, 0x09, 0xaa, 0x6b, 0xf4, 0x8b, 0x4c, 0x29, 0x76, 0x94, 0x3e,
  0xa1, 0x36, 0xa9, 0x47, 0xbf, 0x6f, 0xc4, 0x89, 0x8c, 0xd7, 0x73, 0x08,
  0x05, 0xfa, 0xab, 0x58, 0xfb, 0x58, 0xab, 0x28, 0x5e, 0x85, 0x08, 0xb3,
  0x13, 0x1e, 0xe7, 0x0a, 0xd1, 0x27, 0xa1, 0x90, 0xc8, 0x2f, 0xdf, 0x74,
  0x9c, 0x0c, 0xf0, 0x3e, 0x29, 0x12, 0x3a, 0x5c, 0x68, 0x37, 0x4a, 0x67,
  0x32, 0xa8, 0xe7, 0xab, 0x31, 0x48, 0x41, 0x00, 0x5f, 0x10, 0xc4, 0xcf,
  0x71, 0x65, 0x81, 0x53, 0x43, 0xb7, 0x42, 0x0f, 0xf2, 0xe5, 0xb1, 0xe9,
  0x48, 0xf5, 0x3e, 0xf6, 0x6e, 0xa3, 0x60, 0xd4, 0x05, 0xf0, 0xbd, 0x4e,
  0x29, 0x40, 0xa3, 0x11, 0x10, 0x6b, 0xa4, 0x5e, 0xc0, 0x9a, 0x23, 0xe3,
  0xf8, 0x70, 0xe3, 0x96, 0x54, 0xed, 0xa3, 0x3e, 0x45, 0xea, 0x1b, 0x15,
  0x64, 0xf9, 0xc2, 0x9f, 0x2e, 0x8f, 0xe2, 0x1e, 0x91, 0xeb, 0xab, 0xc7,
  0x0b, 0xaa, 0x1d, 0x10, 0x88, 0xed, 0x39, 0xac, 0x91, 0xfe, 0xe4, 0x9c,
  0x6d, 0x6b, 0xe6, 0xe3, 0x1b, 0x18, 0x64, 0x76, 0x0b, 0x61, 0xc5, 0xea,
  0xb6, 0xa8, 0x96, 0x86, 0x50, 0xdc, 0xed, 0x26, 0x34, 0x34, 0x4f, 0xee,
  0xed, 0x64, 0xdd, 0x00, 0x63, 0x1a, 0x42, 0x12, 0x47, 0x02, 0xc4, 0x32,
  0x35, 0x4a, 0xa8, 0x10, 0x43, 0x4c, 0x9c, 0xc7, 0x84, 0x9d, 0xe5, 0x3b,
  0x52, 0x26, 0x2e, 0xd4, 0xc0, 0x1c, 0xa9, 0xaa, 0x63, 0x48, 0x42, 0x47,
  0x71, 0xc1, 0x52, 0x93, 0xca, 0x87, 0x04, 0xce, 0xc0, 0x85, 0x27, 0xee,
  0x68, 0x28, 0xd9, 0xaa, 0x78, 0xdb, 0xc9, 0xda, 0x0f, 0x98, 0xae, 0xd3,
  0x45, 0x3a, 0x81, 0x65, 0x4f, 0xf5, 0x9d, 0x1f, 0x1d, 0xbb, 0x4b, 0x51,
  0x87, 0x0b, 0x05, 0xe0, 0x71, 0xd4, 0xb5, 0x41, 0xca, 0xf8, 0xab, 0xd7,
  0x6d, 0xe4, 0x62, 0xcb, 0x6f, 0x88, 0xe3, 0x6d, 0xf2, 0x1b, 0x61, 0xf9,
  0x74, 0x3d, 0x0c, 0x98, 0x01, 0x32, 0x2f, 0x68, 0x2d, 0xf7, 0x6a, 0x26,
  0xe7, 0x16, 0xb8, 0x50, 0x41, 0xe3, 0x4c, 0x61, 0xd4, 0xb8, 0xde, 0x62,
  0x3d, 0xed, 0x1d, 0x26, 0xdc, 0xe5, 0xce, 0xdf, 0xb4, 0x4a, 0xc5, 0x1a,
  0xbc, 0x18, 0x39, 0xa0, 0x6d, 0xf9, 0xe4, 0x42, 0xaf, 0xbf, 0xe8, 0x26,
  0xbe, 0x55, 0x04, 0x54, 0x9a, 0xc2, 0x6c, 0xf8, 0x3c, 0x95, 0x0b, 0x52,
  0x23, 0xb7, 0xb2, 0x65, 0xb1, 0xa4, 0x0b, 0xa8, 0xa1, 0xb3, 0x5a, 0x81,
  0x1e, 0x3a, 0xc7, 0x35, 0x2f, 0x35, 0x13, 0x86, 0x82, 0x29, 0x25, 0x14,
  0x65, 0x69, 0x4a, 0x26, 0x61, 0x6b, 0x91, 0x69, 0x67, 0x07, 0xe0, 0xa7,
  0xe5, 0x16, 0xe7, 0xcd, 0xef, 0x17, 0xc1, 0x21, 0xd5, 0x91, 0x0e, 0x6c,
  0xae, 0x5b, 0x09, 0xdd, 0xf5, 0x60, 0x75, 0xee, 0x35, 0x14, 0x1c, 0x06,
  0x39, 0x9d, 0x6d, 0xf9, 0xbf, 0xbc, 0x5c, 0x17, 0xbe, 0xec, 0xed, 0x1e,
  0x09, 0xc7, 0xa2, 0x53, 0x2c, 0x34, 0x9c, 0x3b, 0x69, 0x2e, 0xeb, 0x6d,
  0xc9, 0x89, 0xe5, 0x25, 0x54, 0xa0, 0xaa, 0x20, 0x29, 0x3a, 0x06, 0x55,
  0x25, 0x43, 0x2b, 0xbc, 0x63, 0x53, 0x4d, 0x9c, 0x47, 0xbe, 0x97, 0xb4,
  0x9d, 0xf2, 0xbf, 0xfc, 0xdc, 0xf1, 0x44, 0x06, 0x6f, 0xc9, 0xbc, 0x1f,
  0x4d, 0xde, 0x0d, 0x70, 0xee, 0x71, 0xc7, 0xd8, 0x58, 0xba, 0xd8, 0x0f,
  0xfd, 0x55, 0x7f, 0x07, 0xef, 0x06, 0xfb, 0xc3, 0x97, 0x4c, 0x2f, 0x52,
  0xcb, 0xe8, 0xac, 0x6e, 0xd7, 0x0d, 0x1f, 0x31, 0xed, 0x19, 0x6b, 0xf2,
  0x07, 0x45, 0x39, 0xca, 0x58, 0x64, 0x48, 0x31, 0xb8, 0x49, 0x3c, 0xe6,
  0xd4, 0xf4, 0xc4, 0x3a, 0x0a, 0x09, 0x27, 0xc5, 0xf6, 0xc1, 0x73, 0x09,
  0xa3, 0xf5, 0x0f, 0xa9, 0xda, 0xaf, 0xe4, 0x30, 0x96, 0xf6, 0x95, 0x34,
  0xb3, 0x25, 0x52, 0x0c, 0x02, 0x2d, 0xac, 0x0b, 0x41, 0x13, 0xbc, 0x97,
  0x3e, 0x57, 0xfa, 0x70, 0x1e, 0x0a, 0xd0, 0xbd, 0x9e, 0x59, 0xd5, 0xd2,
  0xf0, 0x24, 0x01, 0x5c, 0x28, 0xac, 0x02, 0x41, 0xf6, 0xe2, 0xad, 0x39,
  0xb4, 0x90, 0xad, 0x17, 0x3c, 0xe3, 0x2d, 0x32, 0x25, 0xbc, 0x52, 0x55,
  0x10, 0xf6, 0x21, 0xe3, 0xb5, 0x2c, 0x6c, 0x94, 0x05, 0xbf, 0x1f, 0xb4,
  0xf3, 0x72, 0x16, 0xc9, 0xa4, 0x41, 0x63, 0x12, 0x71, 0xc7, 0x3f, 0xd6,
  0x93, 0x28, 0xee, 0xbf, 0xcc, 0xb9, 0x36, 0x21, 0xfa, 0x69, 0x49, 0x8d,
  0x14, 0xd1, 0x43, 0xb7, 0x25, 0x74, 0xdf, 0x93, 0x25, 0x66, 0x75, 0xae,
  0x76, 0x35, 0xc9, 0xe9, 0xfe, 0xab, 0xdb, 0xdc, 0x4a, 0x99, 0xde, 0x1c,
  0x26, 0x07, 0xac, 0x07, 0xb3, 0xf8, 0xf3, 0x53, 0xed, 0xb1, 0xbe, 0xfb,
  0x38, 0x12, 0x39, 0xd6, 0x4b, 0xc1, 0x14, 0x60, 0x52, 0xd0, 0xd6, 0xdc,
  0xc3, 0x4f, 0xee, 0x58, 0x8d, 0x55, 0x9c, 0xeb, 0x81, 0x48, 0x8c, 0xdd,
  0x19, 0x47, 0xe6, 0xd2, 0xd6, 0x9a, 0xf2, 0xb3, 0x90, 0x21, 0xb8, 0x7c,
  0x28, 0xb4, 0x8f, 0x9d, 0x5f, 0xda, 0x9e, 0xcf, 0x56, 0xc6, 0x0f, 0xb6,
  0x04, 0x19, 0xb4, 0x09, 0xd4, 0xdb, 0x58, 0xea, 0xbe, 0x5f, 0xa8, 0xe8,
  0x38, 0x25, 0xc1, 0x99, 0x6e, 0xf1, 0x90, 0x7e, 0xec, 0x68, 0xa5, 0xc9,
  0xd8, 0xb4, 0xfe, 0x79, 0x5b, 0x73, 0x3c, 0xae, 0x0d, 0xd6, 0x9d, 0x41,
  0xd9, 0x52, 0x7f, 0xe8, 0x91, 0xc9, 0x4a, 0x71, 0x13, 0x7e, 0x10, 0xb3,
  0x47, 0x01, 0x27, 0x79, 0xd5, 0x44, 0xa3, 0x18, 0xf0, 0x89, 0x20, 0x06,
  0x85, 0x7c, 0x3a, 0xa5, 0xc3, 0xac, 0xe8, 0xe4, 0x85, 0x07, 0xba, 0xe6,
  0x58, 0x7b, 0x97, 0x7e, 0xeb, 0x57, 0x6e, 0x8f, 0x67, 0x18, 0x52, 0xc0,
  0x31, 0x3c, 0xf5, 0xc8, 0xe7, 0xc8, 0x77, 0xfd, 0x52, 0xfd, 0x99, 0x4b,
  0x10, 0xe9, 0x8a, 0x19, 0xb0, 0x79, 0x46, 0x3e, 0x51, 0x89, 0x30, 0x02,
  0xf2, 0xf1, 0xa2, 0xcc, 0x0e, 0x2b, 0x38, 0x8c, 0xea, 0x5e, 0x33, 0x41,
  0xd0, 0xb4, 0x87, 0xc7, 0xdc, 0x35, 0xc9, 0x9d, 0x85, 0x54, 0x83, 0x60,
  0xc7, 0x87, 0x5c, 0xd4, 0x0b, 0xc7, 0x84, 0xff, 0xbe, 0x73, 0x8f, 0xb6,
  0x5b, 0xd8, 0xac, 0xfe, 0x7f, 0xcd, 0xdd, 0x2a, 0xd3, 0xe0, 0xca, 0x93,
  0x66, 0xf9, 0xa6, 0x5e, 0x2b, 0x11, 0x4f, 0x21, 0x32, 0x4e, 0x6e, 0xbe,
  0x3f, 0x46, 0x31, 0x55, 0xc6, 0xaa, 0x5d, 0x74, 0x4d, 0xa3, 0x26, 0xf3,
  0xe9, 0xa4, 0x6a, 0x46, 0x1c, 0xd8, 0xb5, 0xee, 0x03, 0xba, 0x96, 0xb6,
  0x66, 0x7a, 0xa7, 0x4b, 0xcf, 0x73, 0xc9, 0xcf, 0x78, 0xa7, 0x7a, 0x42,
  0x8b, 0xe0, 0x32, 0x5a, 0x21, 0xcc, 0x71, 0x67, 0xd7, 0x62, 0xff, 0x9b,
  0xb8, 0x53, 0xf3, 0xff, 0x28, 0x68, 0xdd, 0xad, 0xf5, 0x1c, 0x91, 0x3b,
  0xe4, 0xe1, 0x7f, 0xda, 0xf8, 0x89, 0xba, 0xa5, 0x56, 0x58, 0x2d, 0x5b,
  0x5d, 0xf5, 0x17, 0x04, 0x14, 0xb6, 0x28, 0x03, 0xf6, 0x19, 0x44, 0x01,
  0xc1, 0xc4, 0x74, 0xcc, 0xb5, 0x2b, 0x56, 0xc0, 0x6f, 0x5d, 0x47, 0xe6,
  0x32, 0xf0, 0x25, 0x1f, 0x39, 0x94, 0x14, 0x93, 0xb1, 0x95, 0xf9, 0xbf,
  0xa3, 0x5b, 0xfd, 0xc5, 0xe5, 0x0c, 0x23, 0x3f, 0xfa, 0x00, 0x60, 0x5b,
  0xb8, 0xb9, 0x6c, 0x91, 0xd4, 0xfa, 0xf5, 0x03, 0x29, 0xa1, 0xd8, 0x5a,
  0x0d, 0xda, 0x3a, 0xf4, 0xc0, 0x5c, 0x69, 0x05, 0xae, 0x4f, 0x3e, 0xa5,
  0xc1, 0xb2, 0x15, 0xf4, 0xb4, 0xc5, 0x5c, 0xca, 0x27, 0x81, 0x6c, 0x63,
  0x13, 0x72, 0x9f, 0x93, 0x00, 0x4c, 0x07, 0x17, 0x62, 0x12, 0x8b, 0xd0,
  0x49, 0xc9, 0xc6, 0x60, 0xdf, 0x01, 0x5b, 0x63, 0xbb, 0x74, 0xc9, 0xde,
  0x5e, 0x82, 0x57, 0x8d, 0xed, 0x9d, 0x15, 0x06, 0xe6, 0x5a, 0x0d, 0xb5,
  0xa9, 0x08, 0x9d, 0xd0, 0x08, 0xc2, 0x5c, 0xac, 0x15, 0xd3, 0xea, 0xd7,
  0xa5, 0x15, 0x4b, 0x29, 0x5d, 0xe1, 0x28, 0xaa, 0x45, 0xb0, 0x56, 0x45,
  0x46, 0xd7, 0xc1, 0x27, 0xf8, 0xc7, 0x97, 0x0c, 0xfc, 0x6f, 0x41, 0xb0,
  0x6d, 0x70, 0xf5, 0xfd, 0x90, 0xff, 0x55, 0x1a, 0x18, 0x0c, 0x01, 0xaf,
  0x85, 0x75, 0xe9, 0x06, 0x77, 0x6d, 0xc7, 0x5a, 0x84, 0xe3, 0x0b, 0x1c,
  0x4d, 0x42, 0x02, 0x31, 0x16, 0xc6, 0x93, 0xff, 0x15, 0x5e, 0xc1, 0x17,
  0x62, 0xda, 0x93, 0x3a, 0x56, 0x44, 0x26, 0x48, 0xd2, 0xc5, 0xee, 0xb6,
  0xc1, 0xb4, 0x9e, 0x8d, 0x0e, 0x56, 0xf4, 0x98, 0xfb, 0x73, 0xe5, 0x00,
  0xb5, 0xc5, 0x08, 0xdf, 0x8e, 0x02, 0x3d, 0x45, 0xc8, 0xc2, 0x10, 0x9f,
  0x81, 0xc2, 0xea, 0x70, 0x0c, 0xb7, 0x3c, 0xf8, 0x98, 0x72, 0x42, 0x9d,
  0x26, 0x5d, 0xeb, 0x3b, 0x6e, 0x7a, 0x0e, 0xa0, 0xb2, 0xf2, 0x45, 0xc3,
  0x46, 0xc7, 0xf8, 0xaf, 0xa7, 0xb5, 0x78, 0x2f, 0xd2, 0xd3, 0x8d, 0x29,
  0xc1, 0xe0, 0x5b, 0x40, 0xe3, 0x78, 0x8e, 0xc8, 0xa2, 0xa7, 0x30, 0x4b,
  0x10, 0x0b, 0x13, 0xac, 0xbe, 0x34, 0xe8, 0x66, 0xd6, 0x1a, 0x8e, 0x36,
  0xa3, 0xa7, 0x17, 0x5e, 0x03, 0x49, 0x07, 0x9a, 0xa3, 0x5c, 0xe9, 0xa7,
  0x50, 0x7f, 0x28, 0x04, 0xea, 0x08, 0x6c, 0xdc, 0xf5, 0xc8, 0x25, 0x9f,
  0x96, 0xa2, 0x42, 0x6e, 0x10, 0x97, 0xdc, 0xf1, 0x07, 0xd2, 0x2a, 0x0b,
  0xee, 0x17, 0x60, 0xa4, 0x2b, 0x21, 0x87, 0x06, 0xf9, 0x6b, 0x58, 0xba,
  0xb9, 0x20, 0x11, 0x69, 0x68, 0x8f, 0x19, 0xae, 0x20, 0x5a, 0xbb, 0xca,
  0x63, 0x70, 0xc1, 0x7c, 0xb8, 0x10, 0x43, 0x3c, 0x93, 0xcb, 0xad, 0x5b,
  0xeb, 0xbe, 0xe6, 0x4b, 0xd5, 0x30, 0xd6, 0xbd, 0xa4, 0xa1, 0xb2, 0x6d,
  0x46, 0xf6, 0x03, 0x08, 0xe2, 0x93, 0x5e, 0xd3, 0x30, 0x10, 0x23, 0xbb,
  0x02, 0xce, 0x12, 0x21, 0xc4, 0xeb, 0x2d, 0x43, 0xa9, 0xd6, 0x5f, 0x67,
  0x13, 0x40, 0xc3, 0x0a, 0x15, 0x4d, 0xc7, 0x1b, 0x1a, 0xb0, 0x4f, 0x09,
  0x4d, 0xec, 0xc9, 0x49, 0x0b, 0xca, 0x55, 0xf0, 0xa9, 0x3e, 0x1c, 0xfd,
  0x30, 0x8b, 0x74, 0xf7, 0xe9, 0x08, 0xe6, 0x50, 0x90, 0x7a, 0x39, 0x14,
  0xdd, 0x33, 0x5e, 0x0c, 0x3b, 0xe1, 0xea, 0xd5, 0xe3, 0xae, 0x7a, 0xa6,
  0x65, 0xcc, 0xa6, 0x09, 0x26, 0xdf, 0x8c, 0x90, 0xb6, 0x8f, 0xe5, 0xf8,
  0xcd, 0xf4, 0x01, 0xd0, 0x71, 0x52, 0x23, 0x3c, 0x05, 0xb4, 0x95, 0x07,
  0xa4, 0x38, 0x34, 0x3d, 0x03, 0xd7, 0x77, 0x3a, 0x28, 0xe9, 0xc1, 0x35,
  0xcc, 0xc7, 0x8c, 0xf9, 0x54, 0x97, 0x22, 0x93, 0x0c, 0x45, 0x86, 0x81,
  0x9f, 0x2b, 0x26, 0xbe, 0xf0, 0xa7, 0xe4, 0x87, 0x33, 0x73, 0xa9, 0x12,
  0xfa, 0xad, 0x3f, 0x2f, 0x66, 0xf3, 0x59, 0x72, 0x61, 0x67, 0xb4, 0x95,
  0x51, 0x3e, 0x07, 0x49, 0xf2, 0x04, 0x54, 0x47, 0x4e, 0x25, 0x02, 0x52,
  0xe2, 0xd4, 0xc6, 0xf6, 0x42, 0xca, 0x98, 0x90, 0xdc, 0x6c, 0xdc, 0x4c,
  0x49, 0x7b, 0xc9, 0x39, 0x70, 0xcd, 0xab, 0x66, 0xa3, 0xcc, 0xfa, 0xb0,
  0xd5, 0xf5, 0x34, 0x22, 0xd5, 0xdb, 0x81, 0xa9, 0xa4, 0x73, 0xad, 0x5c,
  0xab, 0x4b, 0xd0, 0x71, 0x9b, 0x9e, 0x0c, 0xe9, 0x12, 0xbc, 0x13, 0xce,
  0xac, 0xb0, 0xec, 0x85, 0x44, 0x28, 0x90, 0x0a, 0x60, 0x8a, 0x8c, 0xf7,
  0xea, 0x94, 0x2f, 0xbb, 0x1c, 0xe8, 0x14, 0x16, 0x05, 0x01, 0x23, 0x14,
  0x1d, 0x8f, 0xe2, 0x03, 0xc7, 0x3c, 0x6b, 0x12, 0x97, 0x8e, 0x6f, 0xfe,
  0xe8, 0x84, 0xf0, 0x83, 0xda, 0x7f, 0x45, 0x3e, 0x9f, 0x69, 0xf8, 0xa7,
  0xa4, 0x72, 0xd2, 0x0b, 0x66, 0x74, 0x39, 0x64, 0xee, 0xe0, 0x53, 0xb5,
  0x87, 0xc0, 0xe1, 0x7e, 0x2c, 0xb8, 0xff, 0x50, 0x88, 0xfa, 0xf8, 0xe7,
  0x33, 0x7e, 0x90, 0x81, 0x45, 0x83, 0x99, 0xff, 0x5b, 0x4a, 0xbb, 0xab,
  0x9d, 0x5e, 0x30, 0x0a, 0x68, 0xfe, 0x14, 0x47, 0x46, 0xaf, 0xec, 0xbe,
  0x62, 0x47, 0x0c, 0x52, 0x20, 0xc0, 0x46, 0x59, 0x81, 0x4e, 0xea, 0xac,
  0x46, 0x04, 0xdf, 0xe1, 0x08, 0x56, 0x66, 0xe8, 0x93, 0x67, 0xfc, 0xfe,
  0xf9, 0x47, 0xb9, 0xd6, 0x06, 0x5e, 0xa4, 0xe7, 0xa8, 0x9f, 0x04, 0x9b,
  0x93, 0xa5, 0xfb, 0x5a, 0xe1, 0xd6, 0x5f, 0xdf, 0x03, 0xdf, 0xd1, 0xc0,
  0x67, 0xcf, 0xfa, 0x16, 0x69, 0xdd, 0xed, 0x65, 0x26, 0xbc, 0xa1, 0x46,
  0x4d, 0x1f, 0xa3, 0x78, 0x18, 0x56, 0xad, 0x37, 0x68, 0x96, 0xe3, 0x3c,
  0x91, 0x93, 0x5e, 0xf5, 0xc4, 0x6e, 0xd6, 0x27, 0x37, 0xf8, 0xe7, 0xef,
  0xc1, 0xa4, 0x72, 0xc1, 0x3d, 0xaa, 0xfe, 0x4f, 0xd2, 0x5d, 0xd0, 0xae,
  0x06, 0x33, 0x5c, 0x03, 0x00, 0x4e, 0x97, 0x37, 0x65, 0x0b, 0x1f, 0xab,
  0x2e, 0x93, 0x3b, 0x40, 0x4a, 0xbb, 0x21, 0xfc, 0x8f, 0xfc, 0xd8, 0x50,
  0xce, 0x04, 0x5d, 0xbd, 0xa2, 0xb0, 0x02, 0x1a, 0xa1, 0xed, 0xe9, 0xe6,
  0x48, 0xf1, 0x3f, 0xc6, 0x77, 0x4b, 0x12, 0xc3, 0x13, 0xcb, 0x08, 0xf4,
  0x71, 0x57, 0xd2, 0xbd, 0x9a, 0x87, 0xfc, 0x9d, 0x68, 0x66, 0x89, 0x78,
  0x56, 0x14, 0x3c, 0xee, 0x6a, 0x6e, 0xf6, 0xb7, 0xcc, 0x16, 0xc2, 0x0d,
  0x2b, 0xe9, 0x0d, 0x2d, 0xe8, 0x70, 0xca, 0xfc, 0xac, 0x88, 0x17, 0x03,
  0xe2, 0x13, 0xde, 0x41, 0x49, 0x57, 0xed, 0xce, 0x1d, 0x09, 0xf7, 0x6f,
  0x7c, 0x72, 0x74, 0xc1, 0x11, 0x4c, 0xca, 0xe5, 0x52, 0x58, 0xa1, 0x6b,
  0x45, 0x6f, 0xa0, 0xe6, 0xb3, 0xe4, 0xf5, 0x21, 0x01, 0xab, 0xf2, 0x05,
  0x6e, 0x4a, 0x81, 0xda, 0x2f, 0x57, 0xf3, 0x70, 0xb7, 0x50, 0x46, 0x89,
  0x14, 0xb8, 0xe1, 0x2a, 0x06, 0x2f, 0x3e, 0x51, 0x9e, 0xdb, 0xa8, 0x48,
  0x44, 0xd1, 0x01, 0xc4, 0x51, 0xa2, 0x73, 0x8a, 0x1a, 0x93, 0xad, 0xf1,
  0x85, 0x24, 0x48, 0xdd, 0x81, 0x5d, 0x7b, 0x2d, 0x19, 0xac, 0x60, 0x03,
  0x37, 0x11, 0x9f, 0xed, 0xfa, 0x23, 0x07, 0xa1, 0x68, 0xcf, 0x5a, 0xfd,
  0xef, 0xe4, 0xd7, 0x4a, 0x47, 0xd4, 0xd0, 0xa1, 0x98, 0x1e, 0x0b, 0x50,
  0x42, 0x2a, 0x76, 0xb1, 0xec, 0x14, 0xf7, 0x75, 0x6b, 0x41, 0x47, 0xd1,
  0x1f, 0x9d, 0xa1, 0x0f, 0xaf, 0x0a, 0xa3, 0x5f, 0xd0, 0x9d, 0x96, 0x91,
  0x71, 0x0e, 0x02, 0xb4, 0xe4, 0x56, 0x2f, 0x3a, 0x59, 0x4b, 0xa0, 0xc1,
  0x86, 0xd0, 0x15, 0x21, 0x96, 0x14, 0x5b, 0x7e, 0x1e, 0x14, 0x90, 0xab,
  0x1e, 0x00, 0x6f, 0x8f, 0xe4, 0xb8, 0xb8, 0x5c, 0x96, 0x6b, 0x5e, 0xb4,
  0x30, 0x9b, 0x00, 0x90, 0x7a, 0x54, 0xe9, 0x93, 0x70, 0xbb, 0x32, 0xd7,
  0x85, 0xdd, 0xb7, 0xd0, 0x75, 0x69, 0x9c, 0x5a, 0xcd, 0xb9, 0x1a, 0xa4,
  0xe8, 0xe4, 0xde, 0xad, 0x30, 0x66, 0x33, 0x31, 0x44, 0xa0, 0x9c, 0x2b,
  0x48, 0xe6, 0x01, 0x90, 0x5c, 0xfd, 0x06, 0x42, 0x4d, 0x92, 0xf6, 0x06,
  0xfc, 0x14, 0x1d, 0x5c, 0x50, 0x1e, 0x36, 0x54, 0xdf, 0x4f, 0xe9, 0x3f,
  0x5d, 0x0c, 0xaf, 0xe0, 0x45, 0xba, 0x05, 0x3d, 0x02, 0xb3, 0xca, 0xf1,
  0x6d, 0x69, 0xbf, 0x30, 0xd1, 0x42, 0x90, 0x36, 0x3d, 0xe1, 0x7f, 0xdd,
  0x68, 0x44, 0xf4, 0x5e, 0xab, 0x95, 0xc4, 0xb1, 0x71, 0x22, 0x1e, 0xd2,
  0xb9, 0x4f, 0x9e, 0xa9, 0x6f, 0x0b, 0x0c, 0xfd, 0x6b, 0xbe, 0x9f, 0x3e,
  0xdc, 0x46, 0xe6, 0xab, 0xb8, 0x41, 0x1b, 0x22, 0x1e, 0x6d, 0xa8, 0xf5,
  0xfb, 0x21, 0x2c, 0xd7, 0x05, 0xeb, 0x5e, 0xcc, 0x1a, 0x1d, 0x69, 0x5a,
  0x15, 0xef, 0x6c, 0x08, 0xaf, 0x06, 0x11, 0x15, 0xcd, 0xa7, 0x3a, 0xd9,
  0x0e, 0xa9, 0xb6, 0xc5, 0x14, 0xe0, 0x6e, 0xd1, 0xe5, 0xb0, 0x61, 0x36,
  0x20, 0x1b, 0x08, 0x23, 0xc9, 0x59, 0xcd, 0x7d, 0x07, 0x46, 0xbe, 0xf5,
  0x8b, 0xf2, 0xf6, 0xe5, 0xae, 0xde, 0xf8, 0x96, 0xed, 0xf4, 0x8d, 0x99,
  0x7f, 0x39, 0xd8, 0x38, 0x21, 0xd8, 0x6b, 0x7b, 0x73, 0x0d, 0x30, 0x1b,
  0xc1, 0x22, 0xab, 0x2d, 0x40, 0xc0, 0xfd, 0x34, 0x5f, 0x02, 0x23, 0xf2,
  0x12, 0x96, 0xda, 0x4d, 0x74, 0x3c, 0x56, 0x91, 0x9b, 0x6c, 0x61, 0x08,
  0xea, 0xdb, 0x51, 0x44, 0x20, 0xe1, 0xbe, 0x6b, 0x23, 0xb3, 0xb2, 0x65,
  0x31, 0x47, 0xba, 0xf0, 0x7b, 0xfa, 0x09, 0xf9, 0x45, 0x20, 0x1e, 0x48,
  0xaf, 0x76, 0x55, 0xdb, 0x91, 0xdc, 0x6b, 0xa1, 0xb3, 0x6f, 0x70, 0xc0,
  0xce, 0x59, 0x33, 0x9e, 0x90, 0x8f, 0xa4, 0x6c, 0x0d, 0x21, 0x90, 0xd0,
  0x5d, 0x8f, 0xe4, 0xf6, 0x9f, 0xa1, 0x2b, 0xbe, 0xe7, 0x41, 0x43, 0xa9,
  0xe0, 0x5d, 0x5e, 0xa9, 0xa4, 0xce, 0x17, 0x16, 0xe1, 0x1f, 0x63, 0x2c,
  0x8c, 0x30, 0xf7, 0xf9, 0xb6, 0xa5, 0x0c, 0x14, 0x6e, 0x14, 0x6a, 0x74,
  0xb3, 0xd3, 0xf5, 0x89, 0x41, 0xba, 0xb4, 0xef, 0xeb, 0xe9, 0xd6, 0x58,
  0xf0, 0x39, 0x32, 0x59, 0xc8, 0x05, 0xf7, 0xbb, 0x85, 0xc1, 0x3e, 0x4d,
  0x24, 0x0f, 0x66, 0x38, 0x5b, 0x81, 0x19, 0xbe, 0x59, 0xdf, 0x67, 0xde,
  0x67, 0xa8, 0x79, 0x2f, 0xa0, 0xaf, 0x33, 0xb3, 0xc5, 0xb8, 0x45, 0x95,
  0x14, 0x1a, 0x71, 0x6a, 0xef, 0x8f, 0x6f, 0xc8, 0x09, 0x64, 0x61, 0xb5,
  0xac, 0x85, 0xd2, 0xa4, 0x3c, 0x1d, 0x27, 0xa1, 0xd1, 0xeb, 0xfd, 0xef,
  0x6d, 0xbd, 0x9d, 0xd6, 0x89, 0xc0, 0x51, 0x18, 0x37, 0xb8, 0xe7, 0xa3,
  0x3c, 0xd8, 0x5b, 0x6a, 0xa4, 0xb6, 0xa0, 0xec, 0xea, 0xd1, 0x6d, 0x9c,
  0x64, 0x3f, 0x71, 0x8f, 0xfa, 0xa8, 0xc1, 0x38, 0xcd, 0x44, 0x9d, 0x9b,
  0x44, 0xdd, 0x2f, 0xc1, 0x9b, 0xe2, 0x59, 0x62, 0x14, 0x4f, 0x0f, 0xcd,
  0x3d, 0x6a, 0xc9, 0xc3, 0xb0, 0x29, 0x8f, 0x54, 0xd4, 0x0a, 0x51, 0x2d,
  0xed, 0x26, 0xc9, 0x61, 0x27, 0xce, 0x25, 0xf7, 0xcd, 0x75, 0x68, 0x07,
  0x68, 0xcb, 0x63, 0xd1, 0xa0, 0x31, 0x95, 0x37, 0x08, 0x9f, 0x4d, 0xb8,
  0xf1, 0xcd, 0xef, 0x34, 0x01, 0x17, 0x34, 0x48, 0x60, 0x43, 0xe8, 0xc5,
  0xa7, 0x7e, 0x3e, 0x49, 0x62, 0x06, 0x91, 0x9e, 0xc8, 0x3c, 0x77, 0x20,
  0x72, 0x35, 0xfd, 0xe1, 0xfb, 0xbc, 0x24, 0x21, 0x81, 0xa6, 0xa0, 0x47,
  0x5f, 0xa4, 0xff, 0xe0, 0x3b, 0xd7, 0x90, 0xf1, 0x33, 0x05, 0x64, 0x35,
  0xd1, 0x48, 0x87, 0x23, 0x18, 0x16, 0x39, 0x39, 0x4e, 0x0d, 0xde, 0x2b,
  0x94, 0x95, 0xeb, 0x34, 0x89, 0xfb, 0x9b, 0xe8, 0x78, 0x5a, 0xca, 0xfe,
  0xbb, 0x58, 0xed, 0xf9, 0xdb, 0x17, 0xc6, 0x25, 0xbc, 0x76, 0x07, 0xb9,
  0xcf, 0xea, 0x4f, 0x6d, 0x29, 0xca, 0xa7, 0xa6, 0x6d, 0xc4, 0x13, 0x28,
  0xeb, 0x96, 0x65, 0xab, 0x24, 0xde, 0xe3, 0x4f, 0xbe, 0x4e, 0xd0, 0x9b,
  0x4f, 0x20, 0xd5, 0x1c, 0x1b, 0x13, 0x07, 0xfe, 0xcd, 0x58, 0xc6, 0x28,
  0xcd, 0x43, 0x1c, 0x29, 0x01, 0x64, 0xe7, 0x13, 0x13, 0xaa, 0x43, 0xb5,
  0x73, 0xfb, 0xd0, 0x86, 0xa7, 0x25, 0xca, 0x6b, 0x0d, 0xa0, 0x4f, 0xaa,
  0x3c, 0xaa, 0x2b, 0xc7, 0x4c, 0xa3, 0x58, 0x88, 0x52, 0xdd, 0xf4, 0x0f,
  0x63, 0xda, 0x11, 0x38, 0x35, 0x63, 0x5c, 0x33, 0x3e, 0x41, 0x14, 0x81,
  0xd7, 0x29, 0x50, 0x07, 0x05, 0x3c, 0xb4, 0x9d, 0x69, 0xbf, 0x6e, 0xaa,
  0xa8, 0x10, 0xa6, 0x20, 0x01, 0x58, 0x6b, 0xd3, 0xc0, 0x5b, 0x14, 0x1a,
  0x61, 0xf4, 0xaa, 0x5e, 0xd8, 0x6d, 0x84, 0x56, 0x05, 0x50, 0xf3, 0xc4,
  0x2b, 0x51, 0x27, 0x50, 0xa2, 0xd7, 0x83, 0x68, 0xc1, 0xe6, 0xb1, 0x12,
  0x29, 0x29, 0xbb, 0xb2, 0xd0, 0x96, 0xd9, 0xe4, 0xdc, 0xe7, 0x44, 0xa4,
  0x19, 0xb4, 0xe9, 0x02, 0x1c, 0xfe, 0x12, 0xd6, 0x66, 0xcc, 0x04, 0xc2,
  0x45, 0x12, 0x9a, 0xd1, 0x11, 0xdc, 0x3a, 0xd0, 0x66, 0xbf, 0xb8, 0x14,
  0x1f, 0x5a, 0x8f, 0x98, 0xf6, 0xe1, 0xa0, 0x3b, 0x8d, 0x49, 0x60, 0x81,
  0x91, 0x9d, 0x35, 0xf7, 0xdf, 0x9f, 0x4d, 0x21, 0x94, 0x8f, 0xed, 0x60,
  0x30, 0x18, 0xe5, 0x3b, 0x1d, 0x16, 0xca, 0x12, 0xff, 0x42, 0x65, 0xa8,
  0x2d, 0x15, 0x4b, 0xca, 0x9f, 0x43, 0xce, 0x15, 0x2e, 0xc6, 0x3c, 0xbd,
  0xdd, 0xca, 0x19, 0x36, 0x9c, 0xf6, 0x6a, 0xab, 0xb3, 0x08, 0xea, 0x01,
  0x35, 0x93, 0x67, 0x24, 0x6d, 0xab, 0x44, 0x8e, 0x8c, 0x31, 0x06, 0x51,
  0xf9, 0x49, 0xa4, 0xdd, 0x54, 0x66, 0x23, 0x33, 0x58, 0x08, 0xd6, 0x5c,
  0x4f, 0xd6, 0x68, 0xd1, 0xfd, 0xcf, 0xd9, 0x65, 0x0f, 0xce, 0x59, 0x9c,
  0x21, 0x9e, 0xc3, 0xb5, 0xc2, 0xfe, 0xd3, 0x37, 0xe7, 0xae, 0x49, 0x40,
  0xf2, 0x6f, 0x55, 0xf5, 0x1a, 0xe1, 0x4c, 0x2e, 0xc8, 0xef, 0x43, 0x29,
  0x08, 0x35, 0xed, 0xbf, 0x6e, 0xe9, 0xe0, 0xf7, 0x2a, 0xff, 0xea, 0x36,
  0xcf, 0x60, 0xf2, 0x00, 0xa2, 0x57, 0xa7, 0x2c, 0x01, 0xe1, 0x5f, 0xbc,
  0xff, 0x44, 0x5a, 0xa4, 0x29, 0x1c, 0x21, 0xc8, 0xd5, 0xb3, 0xf0, 0x31,
  0xd9, 0xca, 0x44, 0x53, 0x68, 0x47, 0x97, 0x5a, 0x5a, 0x94, 0x56, 0xad,
  0x92, 0xee, 0x5a, 0x63, 0xa0, 0xe2, 0xe8, 0xc6, 0xcb, 0xe4, 0xe3, 0xf3,
  0x34, 0x3c, 0xa7, 0x96, 0xd4, 0x90, 0xd8, 0xce, 0x3e, 0x60, 0xf0, 0x7f,
  0x65, 0xff, 0x24, 0x4d, 0x97, 0x0c, 0x27, 0xcf, 0x48, 0x1b, 0x01, 0xcd,
  0x27, 0xe2, 0xfd, 0xf7, 0xa9, 0x53, 0xc5, 0x2c, 0x5a, 0x23, 0xa5, 0x4f,
  0x05, 0x44, 0x1c, 0xa8, 0xd2, 0x69, 0x9b, 0xaa, 0xa8, 0x31, 0xf2, 0xa5,
  0x25, 0x31, 0x18, 0xed, 0xce, 0x03, 0x6e, 0x09, 0x5d, 0x5d, 0x53, 0x54,
  0x62, 0xcb, 0xe1, 0x97, 0xc1, 0x2e, 0xe3, 0xbc, 0x04, 0xaf, 0x6e, 0xfa,
  0x08, 0x8e, 0x22, 0x06, 0xe0, 0xb8, 0x2c, 0x4b, 0x0f, 0xd5, 0x55, 0x25,
  0xf0, 0x26, 0x97, 0xdb, 0xf7, 0x4b, 0x94, 0x99, 0xab, 0x7f, 0x98, 0x3b,
  0x19, 0xee, 0x4f, 0x06, 0x60, 0x0a, 0x42, 0x7a, 0xa1, 0xd6, 0xab, 0xba,
  0xda, 0x1d, 0x97, 0xc8, 0x60, 0x33, 0x19, 0x0a, 0x1c, 0x4d, 0x2d, 0x66,
  0xa4, 0x02, 0xe5, 0x0d, 0x1b, 0x45, 0xb7, 0xf6, 0x1a, 0x3a, 0x75, 0x63,
  0xc6, 0x89, 0xec, 0xb3, 0x25, 0x67, 0xa0, 0x20, 0xde, 0x32, 0x9d, 0x68,
  0x6c, 0xba, 0x44, 0xb5, 0x0e, 0x95, 0xa0, 0x0f, 0x28, 0xa9, 0x2f, 0x29,
  0xf6, 0x9d, 0x47, 0x24, 0xae, 0xad, 0xd5, 0xcd, 0xe4, 0x2b, 0x0f, 0x58,
  0xf0, 0x59, 0x52, 0xea, 0x57, 0x21, 0x5c, 0xb1, 0x64, 0x1e, 0x5f, 0x0d,
  0xa0, 0x4c, 0x9e, 0xac, 0xda, 0xdd, 0xc2, 0x01, 0xd8, 0xe2, 0x50, 0x48,
  0x34, 0xc8, 0xb1, 0xcd, 0x48, 0xd3, 0x6e, 0x58, 0x38, 0x66, 0xd5, 0xca,
  0x49, 0xa2, 0x57, 0x20, 0xf5, 0x42, 0x95, 0xdf, 0xd1, 0x05, 0x21, 0x37,
  0xbe, 0x17, 0xe6, 0xe4, 0xc3, 0xad, 0xc1, 0xe2, 0x3b, 0xbb, 0x9b, 0xc6,
  0x66, 0x0f, 0x04, 0x60, 0x65, 0x3e, 0x94, 0x26, 0x08, 0x29, 0xb2, 0x8f,
  0x68, 0x4f, 0x09, 0xbf, 0xdd, 0x27, 0x0a, 0xc0, 0xe2, 0xe8, 0x4d, 0x9d,
  0xc4, 0x0c, 0x98, 0x61, 0x66, 0x59, 0xab, 0x0a, 0x7f, 0xab, 0x9d, 0xd2,
  0x36, 0xdf, 0xbd, 0xc0, 0xa6, 0xaf, 0x97, 0x1a, 0x34, 0x87, 0xb6, 0xf0,
  0x5d, 0xd2, 0xc0, 0xbc, 0x2e, 0x43, 0x95, 0xfa, 0x9d, 0x9f, 0x0e, 0x4d,
  0xfb, 0x01, 0x07, 0xee, 0x0b, 0x60, 0xe3, 0xdb, 0x13, 0x5f, 0x8e, 0x23,
  0x05, 0xad, 0xcf, 0xdc, 0x8d, 0x2e, 0x10, 0x72, 0x50, 0x6f, 0x0f, 0xf2,
  0xc5, 0x12, 0xe1, 0x59, 0x0c, 0x93, 0x30, 0xe4, 0xee, 0x6f, 0x7d, 0x37,
  0x19, 0x8c, 0x43, 0xc3, 0x1e, 0x37, 0xb3, 0x07, 0x6a, 0x3d, 0x0b, 0x86,
  0xb1, 0x36, 0x4a, 0xac, 0x72, 0x53, 0xf3, 0x60, 0xb4, 0xc3, 0xb5, 0x1a,
  0x06, 0xa6, 0xb2, 0x68, 0x0c, 0xc5, 0xc3, 0x22, 0x64, 0x8c, 0xa1, 0x0d,
  0x2c, 0x7f, 0x3f, 0xcf, 0xcc, 0xee, 0x46, 0x9a, 0xeb, 0x09, 0x0a, 0x91,
  0xaf, 0x55, 0x0d, 0x39, 0x53, 0x70, 0xe9, 0x51, 0x11, 0xdb, 0x12, 0xa6,
  0xa8, 0xde, 0x29, 0xe2, 0x96, 0xcf, 0xf2, 0x43, 0x74, 0xf8, 0xb6, 0xf3,
  0xb3, 0x30, 0xe1, 0x87, 0x99, 0x8a, 0x88, 0x6c, 0x56, 0x45, 0x50, 0xee,
  0xc4, 0x1f, 0x84, 0x6e, 0x60, 0x4c, 0xbb, 0xeb, 0x99, 0xbb, 0x22, 0x28,
  0xe2, 0xb4, 0x2d, 0x93, 0x37, 0xd9, 0x3f, 0x46, 0xed, 0xaf, 0x4f, 0x56,
  0x49, 0xad, 0x6a, 0x30, 0xe1, 0xba, 0x0c, 0x42, 0x36, 0x05, 0xfa, 0x78,
  0xae, 0x27, 0x2b, 0x0a, 0x31, 0x5a, 0xb5, 0x68, 0x47, 0xbe, 0x86, 0xc7,
  0x81, 0x26, 0x0a, 0xe0, 0x4e, 0x74, 0x09, 0x9b, 0x71, 0x08, 0x88, 0x8f,
  0x38, 0x05, 0x6d, 0x3a, 0x9d, 0xf3, 0x3a, 0x19, 0xc9, 0xb8, 0x0b, 0x4b,
  0x54, 0xd3, 0xa9, 0x21, 0x8e, 0x6e, 0x10, 0x67, 0x68, 0xa4, 0x84, 0xda,
  0x7b, 0x63, 0x70, 0xdf, 0x1b, 0x24, 0x52, 0xd0, 0xc4, 0xf3, 0x64, 0x59,
  0xae, 0x70, 0xed, 0x16, 0x4d, 0x8f, 0xa7, 0xec, 0x7a, 0x9b, 0x03, 0xd5,
  0x3d, 0xb3, 0x64, 0xed, 0xba, 0xaf, 0x5b, 0x28, 0xb9, 0x4b, 0x0a, 0xa2,
  0xb1, 0x60, 0x0c, 0x24, 0x61, 0x52, 0x87, 0xa6, 0x3d, 0x62, 0x37, 0x10,
  0xf9, 0xf2, 0xc5, 0xb8, 0xbd, 0xf3, 0xda, 0x4c, 0xda, 0xa5, 0xbd, 0xbc,
  0xff, 0xa6, 0x5a, 0x49, 0x6c, 0x8b, 0x8a, 0xd0, 0xf3, 0x7d, 0xdf, 0x47,
  0xba, 0x59, 0x6a, 0xd2, 0xd8, 0xc4, 0x0e, 0x0d, 0x75, 0x86, 0x2f, 0x2f,
  0x8d, 0x26, 0xb8, 0xf9, 0x19, 0xbf, 0xb6, 0xc2, 0xe5, 0x26, 0xb7, 0x28,
  0x36, 0xae, 0xd1, 0x38, 0x31, 0xce, 0xf5, 0xd6, 0xde, 0x8e, 0xc9, 0xb8,
  0xe9, 0x7a, 0xd4, 0xb0, 0xc2, 0xb9, 0x09, 0xfa, 0xf2, 0xaf, 0x1c, 0x03,
  0x67, 0x27, 0xb4, 0x5a, 0xfd, 0x2b, 0xd6, 0x0c, 0x67, 0x7f, 0x41, 0x24,
  0xa7, 0xe3, 0x13, 0x49, 0x15, 0x81, 0xca, 0x89, 0x3a, 0x08, 0xda, 0x14,
  0xeb, 0xfe, 0xac, 0xbc, 0x66, 0x3e, 0x6f, 0x9b, 0x38, 0xd0, 0xd2, 0x1b,
  0x0a, 0xe6, 0x7b, 0xb2, 0x94, 0x87, 0x65, 0xf8, 0xca, 0x34, 0xda, 0x68,
  0x68, 0x8e, 0x3c, 0xf8, 0x61, 0x7e, 0x2e, 0xad, 0x36, 0x8b, 0x55, 0xcb,
  0x5a, 0xb3, 0x2d, 0xee, 0xcb, 0xfc, 0xe6, 0x0a, 0xda, 0x64, 0x1a, 0x13,
  0xb4, 0xdf, 0x04, 0xb2, 0xe7, 0x9e, 0xdd, 0xee, 0x5b, 0x28, 0x97, 0x92,
  0x19, 0x56, 0x92, 0xbe, 0x66, 0xa0, 0x5b, 0x35, 0x20, 0x11, 0x4a, 0x15,
  0x65, 0xae, 0xeb, 0xcf, 0x6d, 0x35, 0xf2, 0x37, 0x45, 0x21, 0xa5, 0x13,
  0xe3, 0x1b, 0xa6, 0xe3, 0x2a, 0xd0, 0x52, 0xa0, 0x54, 0x29, 0xde, 0xc0,
  0x5d, 0x68, 0xab, 0x52, 0x65, 0x50, 0x38, 0x92, 0x6a, 0x2c, 0x5c, 0x39,
  0xaa, 0x72, 0x81, 0x47, 0xd4, 0x4b, 0x60, 0x36, 0x5e, 0xe2, 0xe4, 0x55,
  0x41, 0x62, 0xa4, 0xd9, 0x69, 0x4f, 0xdd, 0xfc, 0xcc, 0x72, 0x8a, 0xbb,
  0x6b, 0xb6, 0x12, 0x40, 0x7e, 0xe0, 0xec, 0x68, 0xeb, 0xb7, 0x5c, 0xc7,
  0x1b, 0x4a, 0x9f, 0x31, 0xf7, 0x62, 0x50, 0x8d, 0x43, 0xfc, 0x51, 0x63,
  0x5e, 0xa5, 0x5a, 0xe0, 0xfe, 0xf8, 0xd0, 0x55, 0xc0, 0xc5, 0x54, 0x21,
  0xb1, 0x46, 0xfd, 0xe2, 0x43, 0xaf, 0xd5, 0x7d, 0xa4, 0x6b, 0x41, 0xef,
  0xb7, 0xa9, 0x26, 0xeb, 0x12, 0x14, 0x3b, 0x00, 0x4c, 0x3f, 0x2e, 0x57,
  0xae, 0x94, 0x8d, 0xa1, 0x23, 0xb0, 0xa3, 0xe5, 0x42, 0x99, 0xbc, 0xe4,
  0x8d, 0xbc, 0xb2, 0x9d, 0x39, 0x54, 0x8b, 0x6b, 0xfd, 0x47, 0x8e, 0xa4,
  0x5c, 0xf1, 0x98, 0xd5, 0x53, 0xda, 0xee, 0xed, 0x01, 0xbe, 0xb7, 0xbf,
  0x49, 0x97, 0xa6, 0x17, 0xbf, 0xfa, 0x46, 0x9d, 0x3c, 0x8d, 0xb9, 0x5d,
  0x20, 0x2a, 0x63, 0x21, 0x6a, 0xbd, 0xff, 0x6a, 0xb0, 0x69, 0xf5, 0x1b,
  0xcf, 0x7f, 0x54, 0x4f, 0x02, 0xde, 0xf6, 0x23, 0x16, 0x43, 0x30, 0xce,
  0xfb, 0xcb, 0xfa, 0xa8, 0xd9, 0xb4, 0x4d, 0x4c, 0xcf, 0x93, 0xb8, 0x5b,
  0x24, 0xc2, 0x8a, 0xc7, 0xab, 0x3f, 0x4d, 0xe7, 0x97, 0x6b, 0xf7, 0xf4,
  0x9c, 0x2e, 0x36, 0x0f, 0x04, 0xd0, 0xd3, 0x56, 0x1b, 0x3c, 0xc6, 0x51,
  0x73, 0xe6, 0x5f, 0x52, 0xb9, 0xf1, 0x69, 0x33, 0x3f, 0xa9, 0x17, 0xf6,
  0x97, 0x3c, 0x3d, 0x5a, 0xa2, 0x7c, 0xed, 0x8e, 0x4a, 0xe6, 0x2c, 0xa0,
  0xbe, 0x23, 0xb4, 0x60, 0x1e, 0xab, 0x31, 0x44, 0x5b, 0xa6, 0x56, 0xdc,
  0xe8, 0x44, 0x46, 0x07, 0x41, 0xeb, 0x46, 0xc5, 0xd5, 0xa4, 0xb8, 0x30,
  0x16, 0xbe, 0x1f, 0x9b, 0xe7, 0xad, 0x48, 0x6b, 0xb6, 0xef, 0x56, 0x1f,
  0x5e, 0xfd, 0x5b, 0x9e, 0xce, 0x5a, 0x86, 0x31, 0xb8, 0x39, 0xef, 0x39,
  0x98, 0x1c, 0x72, 0xd7, 0x69, 0x9c, 0xac, 0x4c, 0xfc, 0x02, 0x81, 0xec,
  0x4e, 0xdb, 0x18, 0x88, 0xd7, 0x6b, 0x0b, 0x0c, 0x5e, 0x42, 0x62, 0xa9,
  0x09, 0x3e, 0x66, 0x9c, 0xfd, 0xd9, 0x1e, 0xad, 0x4c, 0xc1, 0xe7, 0xc8,
  0x6c, 0x58, 0x0d, 0xd7, 0xeb, 0x53, 0x57, 0x85, 0xaa, 0x6a, 0x90, 0xe5,
  0x57, 0xe3, 0xa7, 0x66, 0x20, 0x51, 0x54, 0xf2, 0x4f, 0x18, 0xff, 0x0d,
  0xc2, 0x0f, 0x5c, 0xc4, 0x1c, 0xca, 0xff, 0xe3, 0xaf, 0xdf, 0x2c, 0xc4,
  0xb8, 0x7f, 0x17, 0x3b, 0xf9, 0x91, 0xbb, 0x52, 0x43, 0xb4, 0x0d, 0xfc,
  0xd2, 0xc6, 0x72, 0x43, 0xda, 0xf2, 0x0d, 0x41, 0xae, 0xe3, 0xd7, 0x34,
  0xbd, 0xec, 0xf5, 0x63, 0xbd, 0x43, 0xae, 0xeb, 0x61, 0x62, 0x37, 0x3f,
  0xe3, 0x96, 0x5c, 0x92, 0x39, 0xdb, 0x62, 0xd7, 0x54, 0xc8, 0x88, 0x6a,
  0xb9, 0x64, 0xe1, 0x27, 0x45, 0x1d, 0x28, 0x27, 0xe1, 0x54, 0x6f, 0xc7,
  0xb0, 0x28, 0x0b, 0x21, 0xba, 0x76, 0xac, 0x13, 0xcd, 0x98, 0x22, 0x3d,
  0xf3, 0x6b, 0x0b, 0xff, 0x82, 0xa4, 0xfe, 0x99, 0x13, 0x16, 0xf5, 0xad,
  0x7e, 0x64, 0xba, 0x4d, 0x0b, 0xbe, 0xe3, 0x30, 0x24, 0x40, 0xa4, 0x1a,
  0x8d, 0xcb, 0xfb, 0x3e, 0xfc, 0x02, 0xe3, 0x1c, 0xbb, 0xc9, 0x4e, 0x31,
  0x58, 0x4f, 0x52, 0x51, 0xdc, 0x23, 0x24, 0x91, 0x73, 0xd9, 0x9a, 0x53,
  0xbd, 0xf0, 0x58, 0x5d, 0x99, 0xd5, 0x26, 0xce, 0x5f, 0xae, 0x15, 0xdf,
  0x9a, 0x07, 0x93, 0x1c, 0xe2, 0x4d, 0x03, 0xca, 0xdf, 0xa6, 0xa9, 0xe1,
  0xf6, 0x2a, 0x1e, 0x31, 0xb9, 0x3f, 0x1c, 0x26, 0xed, 0x4a, 0xe0, 0xa0,
  0xf6, 0xef, 0x8b, 0xc8, 0x75, 0x0c, 0xec, 0x01, 0x51, 0xad, 0x62, 0x05,
  0x45, 0x90, 0x6e, 0x44, 0x04, 0x5a, 0xfa, 0x44, 0xec, 0x06, 0xaf, 0xd8,
  0x6b, 0xc6, 0xf4, 0xd5, 0x17, 0x84, 0xb0, 0xad, 0x58, 0xcd, 0x94, 0x12,
  0xae, 0x1f, 0x4a, 0xde, 0x19, 0x1f, 0x56, 0x90, 0x3d, 0x2b, 0x86, 0xdc,
  0xa3, 0x0d, 0x07, 0xd7, 0x01, 0xa2, 0x29, 0x04, 0x40, 0x17, 0xb3, 0x10,
  0x42, 0xb2, 0xf5, 0xf4, 0x98, 0x09, 0x66, 0x81, 0x28, 0x2d, 0x51, 0x46,
  0x61, 0xfe, 0xcd, 0xf0, 0x46, 0x20, 0x42, 0x90, 0x91, 0x67, 0xa5, 0x24,
  0x8f, 0xd3, 0xe2, 0x41, 0xc7, 0xff, 0x1e, 0x4e, 0x03, 0xa7, 0xb0, 0xf5,
  0x85, 0x68, 0xf0, 0x90, 0x4e, 0xd6, 0xff, 0x39, 0xdd, 0x14, 0xfd, 0xba,
  0xe0, 0x26, 0x42, 0x78, 0x7c, 0xf8, 0x5a, 0x11, 0x36, 0x34, 0x53, 0xdd,
  0xc9, 0x0b, 0xdc, 0xd9, 0x3d, 0xde, 0x9e, 0xe7, 0x39, 0x6b, 0x38, 0xce,
  0xb5, 0xf0, 0x53, 0x2d, 0x6b, 0xa7, 0xeb, 0x47, 0x01, 0x3a, 0xda, 0x9b,
  0x0f, 0x28, 0x12, 0xde, 0x4e, 0xf3, 0xb2, 0x6d, 0x67, 0x6b, 0x10, 0x68,
  0xa8, 0x81, 0x98, 0xb7, 0x62, 0x1f, 0x96, 0x99, 0x4a, 0x88, 0xa0, 0x99,
  0x6a, 0x2d, 0x84, 0x8a, 0x72, 0x3d, 0xcb, 0xec, 0xc3, 0x04, 0x81, 0x1d,
  0x89, 0x14, 0x9f, 0xfc, 0x36, 0x15, 0xce, 0x17, 0x16, 0xab, 0xd3, 0x91,
  0x60, 0xe2, 0xc6, 0x21, 0xb6, 0x0d, 0x07, 0xcd, 0x26, 0x4f, 0xca, 0xa9,
  0x05, 0x13, 0xfe, 0xa0, 0x9d, 0x0c, 0xb7, 0xf4, 0xfb, 0xb1, 0xbf, 0x36,
  0xe9, 0x5c, 0xc9, 0x55, 0xa9, 0xdd, 0xc9, 0x4d, 0xcc, 0x92, 0x4d, 0x22,
  0x45, 0xb0, 0xe1, 0xf5, 0x49, 0x9c, 0x27, 0x73, 0xdb, 0xa9, 0xf7, 0x15,
  0x7f, 0x6e, 0xa1, 0x53, 0x0f, 0x4d, 0x8a, 0x0e, 0x9e, 0x30, 0xc1, 0x6d,
  0x7c, 0x02, 0x1f, 0xb3, 0x74, 0x1b, 0x47, 0xb2, 0xa9, 0x6b, 0xa4, 0xa6,
  0x26, 0xbd, 0xc2, 0x66, 0x2d, 0x16, 0xff, 0x4b, 0xf7, 0xb3, 0xb2, 0x2e,
  0x4d, 0x54, 0x07, 0x1c, 0x0a, 0x8b, 0x06, 0xf4, 0x05, 0xb7, 0xec, 0x7a,
  0xb8, 0x3d, 0x14, 0xc9, 0x5c, 0x1d, 0xc5, 0xb9, 0x78, 0x37, 0x55, 0xb7,
  0xb5, 0x9b, 0xca, 0xb0, 0x64, 0xda, 0x47, 0xf1, 0xd9, 0xe1, 0x1c, 0xbf,
  0xb7, 0x99, 0x98, 0xe6, 0x0e, 0x33, 0x13, 0xe4, 0x6a, 0xd5, 0x1f, 0xf6,
  0x1a, 0xaa, 0x1a, 0x07, 0xe3, 0x2e, 0x19, 0x0e, 0x50, 0xaf, 0xce, 0x9f,
  0x41, 0xbd, 0x20, 0xe6, 0x34, 0xc2, 0xa5, 0xb5, 0xeb, 0x9d, 0x05, 0x8d,
  0xfa, 0x30, 0x39, 0x9e, 0xc4, 0xa6, 0x0a, 0x34, 0xc4, 0x2f, 0x25, 0x64,
  0xe8, 0x5a, 0xe3, 0x4a, 0x40, 0x6a, 0x59, 0x5c, 0x1d, 0xf1, 0xb3, 0x0c,
  0x5d, 0xe3, 0xa4, 0x7c, 0xe4, 0xe9, 0xdf, 0xe8, 0x0a, 0xc0, 0xe9, 0x52,
  0x55, 0x26, 0xf3, 0xed, 0xfc, 0xf6, 0xbd, 0xe7, 0xd6, 0x2d, 0x62, 0xe3,
  0xa4, 0xed, 0xf8, 0x52, 0x02, 0x8e, 0xc7, 0x61, 0xf0, 0x8e, 0x4c, 0xad,
  0x49, 0x6d, 0x1e, 0xdb, 0x2f, 0x4f, 0xef, 0xa5, 0x92, 0x3f, 0x29, 0x2f,
  0x54, 0x7f, 0x31, 0x44, 0xcc, 0xe3, 0x94, 0xd4, 0x0e, 0x5a, 0xc9, 0x9d,
  0x1d, 0x3b, 0x12, 0x26, 0xd7, 0x97, 0xdd, 0x62, 0xb0, 0xc8, 0x7d, 0xf6,
  0x51, 0x1a, 0x03, 0xd9, 0xfa, 0xe4, 0x34, 0xef, 0xe1, 0x20, 0x4a, 0x24,
  0x1f, 0x34, 0x23, 0xf6, 0x76, 0xab, 0x17, 0xb2, 0x18, 0xac, 0x41, 0xf5,
  0x5a, 0x88, 0x4e, 0x3c, 0xd3, 0xaf, 0x62, 0x92, 0x9f, 0xfd, 0x01, 0xcf,
  0x94, 0x4a, 0x36, 0xd3, 0x77, 0x29, 0x9e, 0xe5, 0x11, 0x0b, 0xca, 0xf3,
  0x57, 0x02, 0xee, 0x15, 0xe9, 0x37, 0x63, 0x20, 0x1b, 0x93, 0x48, 0xfa,
  0x5a, 0xc2, 0x7a, 0x9b, 0xd0, 0xc2, 0xf6, 0xb6, 0xb2, 0x69, 0x68, 0x9c,
  0xc6, 0x11, 0xf2, 0x8b, 0xd3, 0x63, 0xb0, 0xda, 0x46, 0xb0, 0x60, 0x2a,
  0x85, 0x2f, 0xbe, 0xf6, 0x6a, 0xab, 0x13, 0x13, 0x81, 0xda, 0x3d, 0x11,
  0x35, 0x6f, 0xe9, 0xde, 0x0f, 0x68, 0x07, 0x8b, 0x6f, 0x49, 0xf9, 0xaf,
  0x4e, 0x64, 0x71, 0x9e, 0x15, 0x15, 0x78, 0xe3, 0x32, 0xa6, 0x22, 0x0e,
  0x08, 0x05, 0xac, 0xf0, 0xaa, 0x9e, 0x2e, 0xf5, 0x19, 0x41, 0xad, 0x2d,
  0xb7, 0xb4, 0x00, 0x4c, 0xcf, 0x26, 0x73, 0x01, 0xb0, 0x1a, 0x8e, 0x9d,
  0xf0, 0x2d, 0xa9, 0xc9, 0x8a, 0x0d, 0x70, 0x3a, 0xc8, 0x37, 0xef, 0xf7,
  0x0a, 0x6f, 0x94, 0x45, 0xe9, 0x8d, 0x8a, 0xab, 0x17, 0xde, 0x3d, 0x37,
  0xe6, 0x50, 0x9e, 0xf4, 0x4c, 0xe2, 0x57, 0xf1, 0x64, 0x77, 0x21, 0x4d,
  0xca, 0xf5, 0x2a, 0x04, 0xb4, 0x0c, 0xfa, 0xc5, 0x02, 0xde, 0xce, 0xe6,
  0xfb, 0x6b, 0x43, 0xac, 0x5a, 0x10, 0xaa, 0x86, 0x42, 0xf1, 0x82, 0x9c,
  0x41, 0xe8, 0x84, 0xa0, 0xce, 0x03, 0xb9, 0xdd, 0xea, 0x81, 0x6f, 0xb8,
  0x3b, 0xea, 0xd2, 0x12, 0x47, 0xc2, 0x22, 0x10, 0xf8, 0x34, 0x73, 0x8c,
  0xb3, 0x0f, 0xa8, 0xd1, 0xb7, 0x75, 0x1a, 0x9b, 0x94, 0xec, 0x5d, 0x14,
  0x4d, 0xae, 0x66, 0xfd, 0x7a, 0x8d, 0x7d, 0xd5, 0xfc, 0x3c, 0xde, 0xcf,
  0x63, 0x12, 0x60, 0xd4, 0xb1, 0x3c, 0xeb, 0x01, 0x4d, 0xbd, 0x7d, 0xc9,
  0xd1, 0x03, 0x71, 0xd4, 0x18, 0x04, 0x4d, 0xfd, 0x39, 0x44, 0x5d, 0x65,
  0x11, 0xe1, 0xad, 0x90, 0x1a, 0x90, 0xd9, 0xd6, 0x64, 0x2a, 0x3c, 0xe7,
  0xc5, 0x09, 0x52, 0x88, 0x41, 0x90, 0x16, 0xc3, 0x67, 0x8e, 0xd8, 0x3c,
  0xeb, 0x3c, 0x3c, 0x39, 0xa9, 0xca, 0x56, 0x21, 0x39, 0xb3, 0x5a, 0x46,
  0x67, 0xb2, 0x6b, 0x7f, 0x41, 0xd9, 0x96, 0x4f, 0x62, 0x67, 0x11, 0xe2,
  0xda, 0xed, 0x91, 0x4c, 0x4f, 0x33, 0x2f, 0xe2, 0xa2, 0x25, 0xd9, 0x1d,
  0x63, 0xc4, 0x5c, 0x5c, 0xe7, 0xea, 0x53, 0xa8, 0x9f, 0xf0, 0x89, 0x9b,
  0xbd, 0x0b, 0xde, 0x20, 0x1c, 0xcb, 0x38, 0xc8, 0xf9, 0x25, 0xd5, 0xd9,
  0x88, 0x29, 0xfc, 0xd1, 0x4b, 0xa4, 0x39, 0xfa, 0x05, 0xcc, 0x66, 0xa1,
  0x1a, 0xe0, 0xb3, 0x91, 0x1f, 0xef, 0x27, 0x76, 0x10, 0x56, 0x3b, 0x10,
  0xeb, 0xa1, 0x54, 0xa1, 0x15, 0xe7, 0x36, 0x01, 0x23, 0x54, 0x07, 0xc6,
  0xda, 0x07, 0x75, 0x68, 0x4a, 0xdf, 0x4c, 0x98, 0x39, 0xdf, 0xc8, 0x64,
  0xa5, 0x62, 0x9f, 0x8f, 0xfe, 0xef, 0xd1, 0x1e, 0x19, 0xe4, 0x5a, 0x59,
  0x21, 0x6a, 0xa3, 0x17, 0xae, 0x9a, 0xfe, 0xeb, 0x52, 0xd7, 0x2c, 0x23,
  0x15, 0xd8, 0xcb, 0x0b, 0xa9, 0xe3, 0x67, 0xef, 0x17, 0x91, 0x11, 0x25,
  0x92, 0x1e, 0x0e, 0x29, 0x6e, 0xca, 0xea, 0x19, 0xa4, 0xcf, 0x25, 0x41,
  0xd6, 0xe7, 0xd8, 0x74, 0xfc, 0x93, 0xf0, 0x38, 0x5e, 0xd8, 0x1f, 0xb8,
  0x1a, 0x0f, 0x55, 0xf4, 0xe6, 0x3c, 0x2d, 0x49, 0x5f, 0xe6, 0xc3, 0x9b,
  0xa8, 0x98, 0xc9, 0x34, 0x43, 0x52, 0xa0, 0xd7, 0xe7, 0x40, 0x3d, 0x44,
  0x94, 0xd8, 0xba, 0xd3, 0x28, 0xb0, 0xf7, 0x08, 0xf2, 0xf6, 0x9a, 0xb5,
  0xeb, 0xdc, 0xba, 0x51, 0x9e, 0xd7, 0xdf, 0xff, 0x2b, 0xda, 0x5b, 0xf7,
  0x09, 0xc9, 0x2b, 0x28, 0xcb, 0xf0, 0xb9, 0xf2, 0xd6, 0x43, 0x2e, 0xe2,
  0xe3, 0x25, 0x81, 0x54, 0x6a, 0xef, 0x92, 0x1a, 0xfd, 0x65, 0x99, 0xd7,
  0xe4, 0x7f, 0x05, 0xfa, 0x9f, 0xc7, 0x5e, 0xbe, 0xf0, 0x3a, 0x58, 0xa7,
  0x63, 0x73, 0x9f, 0x0c, 0xa7, 0xe3, 0x1c, 0xec, 0x9a, 0xc4, 0x07, 0x64,
  0x61, 0x0f, 0x0d, 0x2b, 0x50, 0xe2, 0xf0, 0x91, 0xb5, 0xbe, 0x29, 0x04,
  0xb0, 0x3c, 0xc7, 0xc4, 0xb4, 0x42, 0xf3, 0xf5, 0x3c, 0x14, 0xa4, 0x9c,
  0x2d, 0xcd, 0xf1, 0x77, 0x58, 0xb5, 0xe9, 0x55, 0x4a, 0xc8, 0x0c, 0xfe,
  0xb9, 0xcd, 0xca, 0x72, 0xba, 0xf3, 0xba, 0x1a, 0xba, 0x0b, 0x27, 0xec,
  0xc4, 0xc8, 0xda, 0xc4, 0x9f, 0xfc, 0xdc, 0x98, 0x8e, 0x2f, 0x15, 0xff,
  0xf1, 0x10, 0x69, 0xf1, 0x31, 0x31, 0x72, 0x9d, 0x6e, 0xf2, 0xe6, 0x36,
  0x2e, 0xaf, 0x7c, 0x97, 0xfa, 0xde, 0x18, 0x5b, 0x0f, 0x20, 0xf1, 0x08,
  0x1f, 0xcd, 0x3e, 0xe0, 0x52, 0x20, 0xa4, 0x59, 0xae, 0xcf, 0x64, 0x5c,
  0x31, 0x4d, 0x08, 0x96, 0x42, 0x24, 0xe5, 0x1a, 0x47, 0x1a, 0xab, 0x06,
  0x57, 0x3d, 0x45, 0xa0, 0x41, 0xe8, 0x04, 0x3b, 0xc1, 0xdb, 0x4c, 0xc0,
  0xd1, 0x92, 0xd0, 0x67, 0x49, 0x46, 0xa7, 0x67, 0x3f, 0x28, 0x39, 0xc5,
  0x17, 0xe3, 0x01, 0xa0, 0xb6, 0xac, 0x1e, 0x5e, 0xab, 0x68, 0x96, 0x38,
  0x98, 0xe4, 0x4f, 0x33, 0x17, 0x99, 0xc1, 0x45, 0x48, 0x81, 0x1c, 0x34,
  0x68, 0xf0, 0xbd, 0x17, 0x0b, 0x10, 0xf8, 0x92, 0xd1, 0x62, 0x3d, 0x9b,
  0xd5, 0xb8, 0xb4, 0x20, 0xf8, 0x51, 0x21, 0xd7, 0xae, 0x15, 0xc4, 0x87,
  0xfd, 0x00, 0x4a, 0xce, 0x4a, 0x13, 0xda, 0xc8, 0x2d, 0xee, 0x89, 0x99,
  0x3c, 0xfe, 0xd1, 0x3c, 0xc4, 0xdf, 0xe6, 0xcb, 0xfb, 0xf6, 0xfe, 0xca,
  0x65, 0x67, 0x67, 0x3d, 0x33, 0xc2, 0x2f, 0x9d, 0xd5, 0x1f, 0x0c, 0x2e,
  0xd1, 0x24, 0xef, 0x13, 0xf4, 0xb9, 0xa6, 0x12, 0xb8, 0xc9, 0x40, 0xe5,
  0xc8, 0x51, 0x2b, 0xa0, 0x5c, 0x5b, 0xbf, 0x4c, 0x07, 0xf5, 0x95, 0x21,
  0x8d, 0xc5, 0xeb, 0xeb, 0xea, 0x4b, 0x18, 0x9b, 0x1c, 0xea, 0xb1, 0x1d,
  0x67, 0x23, 0x5c, 0x30, 0x04, 0xf7, 0x39, 0xf1, 0x56, 0x8d, 0xd3, 0x29,
  0x26, 0xab, 0xc1, 0x29, 0x60, 0x3a, 0xd7, 0x93, 0x97, 0x02, 0x0a, 0xbc,
  0x64, 0xc6, 0xe0, 0xe7, 0x0d, 0x8b, 0x90, 0x06, 0x6d, 0x8b, 0x8c, 0xd5,
  0xcc, 0x69, 0xf7, 0xa8, 0x9a, 0xcb, 0xde, 0x0b, 0x29, 0x06, 0x18, 0xd5,
  0x75, 0x3a, 0x41, 0xa8, 0x69, 0x36, 0x0d, 0xb3, 0xb6, 0xa1, 0xf4, 0xe9,
  0xe7, 0xb7, 0x04, 0xed, 0x4f, 0xe5, 0x2e, 0xd9, 0x7b, 0xeb, 0x92, 0x52,
  0xed, 0xaa, 0x52, 0xf2, 0x17, 0x9d, 0xc6, 0xa1, 0xcc, 0x2d, 0xfd, 0x43,
  0xd5, 0xd8, 0x6d, 0xf8, 0x53, 0xf2, 0x2e, 0x1c, 0x69, 0x96, 0x1c, 0xa6,
  0x0d, 0xbf, 0x22, 0xf5, 0x7f, 0x19, 0xcc, 0xc3, 0x51, 0xcc, 0x04, 0x30,
  0xbe, 0xd3, 0x05, 0xb2, 0xd8, 0x12, 0x59, 0x35, 0x94, 0xef, 0xa4, 0x1e,
  0x3d, 0xda, 0x63, 0xe5, 0x04, 0x16, 0xbe, 0x69, 0xdd, 0x62, 0x4c, 0xd6,
  0xa5, 0x54, 0x57, 0x9a, 0x9b, 0xbc, 0x52, 0x22, 0x5e, 0xf4, 0x4c, 0x34,
  0x5a, 0xfa, 0xcc, 0x5d, 0x4c, 0xe6, 0xfe, 0x44, 0x23, 0x53, 0x35, 0xaf,
  0xdf, 0x49, 0xd8, 0x48, 0x19, 0xc7, 0xd1, 0xfb, 0x2c, 0xd0, 0x6c, 0x16,
  0x08, 0xf7, 0x42, 0x58, 0xa0, 0x5e, 0x34, 0xa8, 0x50, 0x3c, 0xaf, 0xd6,
  0x4a, 0x6b, 0xf7, 0xc0, 0x36, 0x0d, 0xcc, 0xde, 0xa2, 0xf0, 0xfe, 0x04,
  0xbb, 0xfd, 0xb4, 0x47, 0x3e, 0x51, 0xbc, 0x97, 0x4a, 0xaf, 0x48, 0xdf,
  0xa4, 0x33, 0x41, 0x0e, 0xd6, 0x37, 0x57, 0x3a, 0x2c, 0x59, 0xbc, 0xce,
  0xc8, 0x9f, 0xd8, 0x37, 0xd7, 0x7f, 0x3d, 0xbd, 0xe8, 0x0c, 0x77, 0x2a,
  0x4c, 0xaa, 0xd6, 0xe5, 0xf6, 0xef, 0xff, 0xff, 0x04, 0x00, 0x00, 0x00,
  0x20, 0x01, 0x00, 0x00, 0xc5, 0x7f, 0x0d, 0x37, 0xaf, 0x29, 0xb7, 0x61,
  0x75, 0xdc, 0xf2, 0xb3, 0xc2, 0x0a, 0x81, 0x82, 0x3d, 0x8a, 0x13, 0xd0,
  0xda, 0xdf, 0x93, 0x38, 0x7d, 0x29, 0x7f, 0x7f, 0x93, 0x3d, 0xa8, 0x23,
  0xa3, 0x66, 0xdd, 0xe9, 0x81, 0x1c, 0xee, 0x9a, 0xc6, 0x6d, 0x1b, 0xf6,
  0xc9, 0xf0, 0xf9, 0xf7, 0x81, 0x66, 0xc9, 0x9e, 0xcc, 0x41, 0xaf, 0x1e,
  0x9d, 0xcf, 0xce, 0x7f, 0x9c, 0x8d, 0xa0, 0x58, 0x52, 0x23, 0x5e, 0x42,
  0x23, 0xbf, 0x7f, 0x88, 0x7f, 0x94, 0xac, 0x7b, 0xdc, 0xb4, 0x73, 0xc9,
  0x5d, 0x1f, 0x0c, 0x86, 0x19, 0xc0, 0x77, 0x7f, 0x9a, 0x7d, 0xf6, 0x35,
  0x50, 0x70, 0xa2, 0x5c, 0x3d, 0x81, 0x3c, 0xcd, 0x7c, 0xea, 0x7f, 0xe8,
  0xda, 0x17, 0x3b, 0xcc, 0xdf, 0x46, 0xaa, 0x81, 0x15, 0x53, 0x44, 0xf6,
  0x2c, 0x27, 0x51, 0x81, 0x52, 0xef, 0x73, 0x5f, 0xf3, 0xe9, 0x1e, 0xa0,
  0x91, 0x3c, 0xf2, 0x7f, 0x53, 0x0e, 0xda, 0xa8, 0x81, 0x68, 0x48, 0x9e,
  0x07, 0xbc, 0x68, 0x4c, 0xa7, 0xce, 0x7f, 0xde, 0xa7, 0xe2, 0xbb, 0xc5,
  0xe6, 0x18, 0x38, 0xdf, 0xb1, 0x11, 0x8b, 0x6f, 0xd0, 0x81, 0x0b, 0xa7,
  0x70, 0x81, 0xf6, 0x03, 0xb8, 0x20, 0xf9, 0x4a, 0xfd, 0x28, 0x7f, 0xb6,
  0x5e, 0x4c, 0x00, 0x2c, 0xca, 0x20, 0xf6, 0xa3, 0x43, 0x7f, 0x07, 0xef,
  0x25, 0xed, 0xc2, 0x7f, 0xbb, 0x53, 0xcd, 0xb5, 0xa6, 0x78, 0x17, 0x01,
  0xd5, 0x69, 0xd6, 0x5d, 0x4d, 0x81, 0x1d, 0x54, 0x24, 0xf8, 0x81, 0x57,
  0x7b, 0x95, 0x1d, 0xec, 0xe8, 0x30, 0xe1, 0x60, 0x3d, 0x0e, 0x81, 0x18,
  0x33, 0x81, 0xf4, 0xf3, 0x5b, 0xaa, 0xca, 0x90, 0xf3, 0x84, 0xb6, 0x30,
  0xc1, 0x4e, 0xdd, 0x2d, 0x5d, 0x81, 0x1d, 0xb1, 0xfc, 0xa1, 0x81, 0x36,
  0xcc, 0x1a, 0x90, 0x18, 0xb2, 0x47, 0xbc, 0x1b, 0xd0, 0x5c, 0xa0, 0xe9,
  0x81, 0xd7, 0xc6, 0x59, 0x4d, 0x6f, 0x40, 0x7f, 0x60, 0xeb, 0x70, 0x6c,
  0x30, 0x65, 0x81, 0x15, 0xfe, 0xae, 0xf4, 0x48, 0xbb, 0xf1, 0x0c, 0xab,
  0xe6, 0x81, 0xc1, 0x63, 0x22, 0xf1, 0xff, 0xff, 0x04, 0x00, 0x00, 0x00,
  0x80, 0x0c, 0x00, 0x00, 0x16, 0xd7, 0x1a, 0x0c, 0x28, 0x29, 0x06, 0x16,
  0xb4, 0x10, 0x22, 0x18, 0x4a, 0x1a, 0xd2, 0xc2, 0x29, 0xc9, 0xd8, 0x37,
  0x19, 0x42, 0xbc, 0x1a, 0xc3, 0xd2, 0xc9, 0xad, 0xc3, 0x1c, 0xba, 0xe0,
  0xeb, 0xc9, 0x2f, 0x1d, 0x2d, 0x37, 0x16, 0x26, 0x35, 0xf3, 0xc0, 0x14,
  0xfa, 0xd6, 0xc0, 0x08, 0xc9, 0xfb, 0xb7, 0x24, 0x2f, 0x3e, 0xdd, 0xc3,
  0xd8, 0x0c, 0x2f, 0xf0, 0x20, 0x1a, 0xf6, 0x1c, 0xc8, 0x27, 0xf8, 0x10,
  0xe6, 0x32, 0x23, 0x23, 0xcd, 0xe5, 0x22, 0x04, 0x04, 0xc5, 0xdf, 0xe9,
  0x35, 0xc9, 0x3a, 0xfe, 0x2d, 0xc7, 0x32, 0xee, 0x01, 0xcb, 0xc9, 0x05,
  0x04, 0x11, 0x0d, 0xc7, 0x48, 0xf2, 0x0d, 0x24, 0xd8, 0x21, 0x06, 0x09,
  0xf3, 0x4d, 0xde, 0x3b, 0xcd, 0xfa, 0xd4, 0xef, 0x12, 0x11, 0x21, 0xf3,
  0x32, 0xc8, 0x12, 0x13, 0x22, 0xde, 0x25, 0xd8, 0x03, 0x23, 0x27, 0xe7,
  0xc7, 0x27, 0x18, 0x3f, 0xbc, 0xd7, 0x2c, 0xdb, 0x18, 0xef, 0x0b, 0xda,
  0xf2, 0xf7, 0xd5, 0xf0, 0x34, 0x46, 0x27, 0xdb, 0x03, 0xd7, 0xf2, 0x2d,
  0xf6, 0x19, 0xdc, 0xce, 0x2c, 0xb8, 0xfa, 0x3d, 0x25, 0x1d, 0x3e, 0x36,
  0xcd, 0xf4, 0xe2, 0x12, 0xfc, 0x0b, 0x10, 0x23, 0x0d, 0x06, 0x00, 0xc4,
  0xbd, 0xdc, 0x0a, 0xcc, 0x23, 0xee, 0xfc, 0x2d, 0x1f, 0x28, 0x41, 0x10,
  0xde, 0x32, 0xbe, 0x25, 0xba, 0x3d, 0xc2, 0x01, 0xdf, 0xf7, 0x23, 0x38,
  0x23, 0x08, 0xf8, 0x24, 0xf1, 0xe1, 0xcc, 0x1d, 0xd9, 0x39, 0x3d, 0xec,
  0xd8, 0x0f, 0x38, 0x23, 0xe9, 0x4a, 0xe8, 0x33, 0x32, 0x1c, 0x24, 0xdc,
  0xe9, 0x47, 0xe2, 0xde, 0xfd, 0xec, 0x36, 0x17, 0xf2, 0xbc, 0x02, 0x1a,
  0x14, 0x3f, 0x32, 0xbc, 0x07, 0xcd, 0xe9, 0xc9, 0x21, 0x03, 0xd0, 0xb4,
  0x05, 0x36, 0xdf, 0xb9, 0xc6, 0xd9, 0x13, 0xdb, 0xd9, 0xcf, 0xf9, 0x3e,
  0x32, 0xe7, 0xdb, 0xbd, 0x1d, 0x2e, 0x1d, 0xe4, 0xe4, 0xaf, 0xd0, 0xe4,
  0x10, 0xff, 0xe0, 0x2d, 0x0f, 0xc7, 0xc3, 0xc1, 0x3a, 0x49, 0xc3, 0x28,
  0x14, 0xf2, 0x05, 0x11, 0x38, 0x1f, 0x2c, 0xea, 0x29, 0xd2, 0xfc, 0xd6,
  0xca, 0xe4, 0x0c, 0x18, 0xcf, 0x10, 0xf1, 0xdc, 0x46, 0x04, 0xe5, 0x2d,
  0x27, 0xc2, 0x44, 0x08, 0x31, 0x28, 0x00, 0x0c, 0xd0, 0xc0, 0xf9, 0x09,
  0xfa, 0xc3, 0x3a, 0xce, 0xe1, 0x33, 0xc9, 0xbc, 0xf3, 0x23, 0xfb, 0x17,
  0xe7, 0xc0, 0xdf, 0x0e, 0xe8, 0x0d, 0x0e, 0xd4, 0x42, 0x38, 0xe1, 0xd6,
  0xd7, 0x38, 0xe2, 0xe9, 0xc5, 0x23, 0x11, 0x1e, 0x40, 0x33, 0x30, 0x1c,
  0x0e, 0xf6, 0xf5, 0xe6, 0xd4, 0x3d, 0x0f, 0x3c, 0x26, 0x2c, 0xe8, 0x37,
  0xd6, 0xc6, 0xdc, 0xf2, 0xf2, 0xe0, 0x45, 0xb9, 0x0c, 0x11, 0xff, 0xc2,
  0xf9, 0xe9, 0x26, 0xc0, 0x20, 0xfc, 0xe5, 0xc4, 0x3d, 0xff, 0xde, 0x0c,
  0x18, 0xe4, 0xcb, 0x22, 0x1f, 0xd2, 0xef, 0x3f, 0x24, 0xe0, 0x03, 0x2e,
  0xb5, 0xe6, 0xf5, 0x43, 0x05, 0x22, 0xd0, 0xb2, 0xe8, 0x2d, 0xda, 0xeb,
  0x1e, 0xce, 0xbf, 0xc8, 0xf9, 0x0a, 0x0c, 0x1c, 0xc4, 0xd8, 0x18, 0x2f,
  0xe0, 0xe2, 0xfe, 0xd8, 0xcb, 0x0c, 0xf1, 0xf9, 0xd6, 0x05, 0x35, 0xdb,
  0x3f, 0xc9, 0x5b, 0xff, 0x29, 0xde, 0x01, 0x42, 0xc5, 0xc9, 0x43, 0x05,
  0xf2, 0xb5, 0x41, 0xdc, 0xfb, 0x46, 0xcc, 0x0c, 0xe0, 0x38, 0x3a, 0x28,
  0xed, 0x1b, 0x13, 0x19, 0x3c, 0x21, 0x34, 0xcc, 0xdc, 0xd8, 0x20, 0xf3,
  0x02, 0x20, 0xf7, 0xcc, 0xc6, 0xf5, 0xcb, 0xc5, 0x17, 0xf0, 0xdc, 0xd0,
  0xc0, 0x40, 0xe4, 0x12, 0x29, 0x2e, 0xe2, 0xc8, 0x44, 0xf5, 0x2c, 0x12,
  0xc8, 0xe5, 0x4c, 0xf1, 0xe5, 0xc9, 0xf0, 0x18, 0x0c, 0x1f, 0xfe, 0xed,
  0x0b, 0xc0, 0x15, 0xe1, 0x03, 0xfb, 0x04, 0xe3, 0x0b, 0x09, 0xcb, 0xfb,
  0x0c, 0xcb, 0x31, 0x17, 0xd1, 0x0c, 0x18, 0x38, 0x2a, 0xd8, 0x35, 0xc1,
  0x02, 0xc6, 0x1f, 0x3c, 0xf0, 0x46, 0xf1, 0x34, 0xc3, 0xe7, 0x1c, 0xd2,
  0xc4, 0x13, 0x0f, 0x0b, 0xf7, 0x39, 0xd1, 0x3b, 0x11, 0x04, 0xf4, 0xc6,
  0x3f, 0x1c, 0x0f, 0xd0, 0xca, 0xf5, 0xe9, 0x3b, 0xf7, 0xdf, 0x17, 0xd2,
  0xf3, 0x31, 0xef, 0x40, 0x34, 0xde, 0xd5, 0x17, 0x1a, 0x39, 0x4f, 0xf5,
  0xce, 0x31, 0xf3, 0xdc, 0x2d, 0x3f, 0xea, 0x38, 0xc1, 0xa9, 0xd7, 0x14,
  0xef, 0xe2, 0xfe, 0xd3, 0x27, 0x3b, 0x31, 0xec, 0xcc, 0xef, 0xe7, 0x3a,
  0xc0, 0x1f, 0x19, 0x46, 0x07, 0xe5, 0x1f, 0xdc, 0x11, 0x06, 0xea, 0x15,
  0x37, 0x2b, 0xca, 0xf5, 0xfc, 0xc2, 0x33, 0x37, 0x15, 0x44, 0x1d, 0xd2,
  0xcb, 0x0c, 0x35, 0x23, 0x37, 0x10, 0x11, 0x09, 0xe4, 0xd2, 0xdd, 0x45,
  0x30, 0xf8, 0x2e, 0xc5, 0x01, 0x1d, 0x2e, 0xc0, 0x2a, 0xee, 0x4d, 0xe6,
  0xd2, 0x11, 0x11, 0x48, 0x0b, 0x33, 0xce, 0x1c, 0x58, 0xfa, 0x05, 0xc0,
  0x0c, 0x15, 0x3a, 0xc5, 0x21, 0xdb, 0xd1, 0xd4, 0x22, 0xed, 0xe5, 0x13,
  0x02, 0xfb, 0x07, 0x02, 0x17, 0xec, 0xc9, 0x39, 0xf2, 0x3b, 0x0c, 0xc6,
  0x05, 0x28, 0x37, 0x53, 0x2f, 0xd6, 0x37, 0x21, 0x32, 0xd3, 0xee, 0xca,
  0x19, 0x1b, 0xcb, 0xeb, 0x3c, 0x28, 0xdf, 0xdf, 0xe4, 0x3d, 0xd1, 0xfc,
  0xfd, 0x01, 0x30, 0x23, 0xe7, 0x42, 0x44, 0xf5, 0x10, 0xec, 0x13, 0x34,
  0xec, 0xe2, 0x17, 0xe7, 0x0d, 0x44, 0x3d, 0xed, 0x08, 0x33, 0xb4, 0xf5,
  0x15, 0x14, 0x01, 0xeb, 0x42, 0x28, 0xee, 0xf5, 0x13, 0x33, 0xd2, 0x3c,
  0x4c, 0xf0, 0x03, 0xc4, 0xce, 0xe6, 0x21, 0xda, 0x1e, 0xd2, 0x23, 0xfd,
  0x00, 0xce, 0xce, 0x17, 0xf4, 0x28, 0x0e, 0xed, 0x44, 0xfb, 0x12, 0x28,
  0xdc, 0x1a, 0x2c, 0xfb, 0x52, 0x02, 0x43, 0xef, 0x39, 0x52, 0x00, 0x18,
  0xcd, 0xbb, 0x01, 0xdc, 0xd2, 0xf9, 0x08, 0x0e, 0x0a, 0x4e, 0x34, 0xe5,
  0x15, 0xd7, 0x0f, 0xbb, 0xd8, 0x3b, 0xe5, 0x2c, 0x0c, 0xf3, 0xe8, 0xfd,
  0x06, 0x43, 0x46, 0xb9, 0x0b, 0xf8, 0x04, 0x41, 0x3b, 0xee, 0xd9, 0x01,
  0xf9, 0xca, 0xda, 0xdc, 0x26, 0x39, 0x16, 0xff, 0xb9, 0xdb, 0x3d, 0x11,
  0x39, 0xda, 0xf7, 0xc2, 0x3b, 0xe1, 0x15, 0xed, 0x0f, 0x1c, 0x28, 0x26,
  0x0a, 0x45, 0x1f, 0xdb, 0x29, 0x2c, 0xc7, 0xfc, 0x00, 0xf8, 0x3e, 0x23,
  0xf3, 0xf9, 0x19, 0xec, 0x0d, 0x53, 0xdf, 0x3c, 0xe1, 0x35, 0x3b, 0xda,
  0xc8, 0x09, 0x32, 0x3d, 0x53, 0x54, 0xd1, 0x32, 0xe6, 0x31, 0x24, 0xeb,
  0x33, 0xd3, 0xe5, 0x1d, 0xe8, 0xe0, 0x1a, 0xc4, 0xca, 0xdc, 0x00, 0xc3,
  0xf1, 0x38, 0x49, 0x19, 0x33, 0x33, 0x1e, 0xdf, 0xf8, 0x3e, 0x20, 0xed,
  0x34, 0xfd, 0xd0, 0xee, 0x0d, 0x31, 0xbe, 0xee, 0xe8, 0x0c, 0x1b, 0xdb,
  0xf5, 0x24, 0x3b, 0x66, 0x0e, 0xe3, 0xba, 0x08, 0xcc, 0x46, 0x08, 0x3f,
  0xcd, 0x0e, 0x4f, 0xdf, 0xc9, 0xde, 0x2d, 0xe0, 0xff, 0xd9, 0xc3, 0x3d,
  0xfc, 0x36, 0xba, 0x0f, 0x18, 0x0d, 0x30, 0x3a, 0xc5, 0xcc, 0x1d, 0xc1,
  0x04, 0x1f, 0x0c, 0xfa, 0xc9, 0x00, 0x4d, 0x1e, 0xff, 0x39, 0xe9, 0xcb,
  0x19, 0xeb, 0x38, 0xfa, 0x23, 0x05, 0xf3, 0x05, 0x41, 0xfd, 0xc9, 0xe8,
  0x27, 0xea, 0xee, 0xcb, 0x46, 0xbc, 0xf1, 0xea, 0x18, 0x25, 0x00, 0xc7,
  0xe0, 0x1b, 0xe0, 0xea, 0x40, 0xf9, 0x1a, 0x18, 0x22, 0xfb, 0x48, 0xf6,
  0xd1, 0xcf, 0xfb, 0xc8, 0xc7, 0x30, 0xcc, 0xc8, 0x19, 0x21, 0xe5, 0x5a,
  0x52, 0x3d, 0xd8, 0x1d, 0x53, 0xd3, 0xdf, 0xe9, 0x02, 0x22, 0x33, 0x09,
  0xd4, 0x38, 0x08, 0xf2, 0xf9, 0x04, 0x13, 0x04, 0x25, 0xde, 0x57, 0xe5,
  0xc1, 0xf3, 0x05, 0xff, 0xf9, 0x3f, 0xfb, 0x14, 0x47, 0x01, 0x26, 0x69,
  0xe6, 0x43, 0x37, 0x06, 0xef, 0x03, 0xfa, 0x2d, 0x2a, 0x14, 0x2b, 0x34,
  0x15, 0x02, 0x15, 0xf3, 0xdf, 0xd1, 0x31, 0xea, 0x42, 0x08, 0x2d, 0x35,
  0xf1, 0xd1, 0x33, 0x31, 0x12, 0xf1, 0xfe, 0x28, 0x37, 0x11, 0x46, 0x2a,
  0xd4, 0x47, 0xef, 0xf1, 0x3c, 0x40, 0x2f, 0xe9, 0x28, 0x51, 0x29, 0xc6,
  0xef, 0x46, 0xfc, 0xba, 0xe5, 0xe3, 0xf7, 0x7f, 0xd4, 0xea, 0xd7, 0x1f,
  0xfd, 0xe6, 0xda, 0x03, 0xee, 0x3a, 0x41, 0x11, 0x42, 0x29, 0xc2, 0x02,
  0xfe, 0x4e, 0x27, 0xc9, 0x27, 0xf1, 0x05, 0x50, 0x29, 0x39, 0x43, 0xd6,
  0x41, 0x3f, 0x41, 0xf5, 0x02, 0xe5, 0xf2, 0xd4, 0xe5, 0x2d, 0x24, 0xfd,
  0x10, 0xed, 0x22, 0x34, 0xd9, 0x0f, 0xd0, 0x05, 0x0c, 0xd2, 0x5b, 0xc4,
  0x1a, 0x3a, 0xee, 0xeb, 0xeb, 0xf8, 0xf7, 0x45, 0x24, 0xe6, 0xfa, 0x6b,
  0xc4, 0x47, 0xda, 0xf3, 0xe7, 0xd2, 0xed, 0x10, 0xe6, 0xf9, 0x14, 0x34,
  0xe6, 0x35, 0xd6, 0xcb, 0xe9, 0xe1, 0x1d, 0xfa, 0xd8, 0xf3, 0x32, 0xeb,
  0xfc, 0x27, 0xc7, 0xdf, 0x45, 0x41, 0x3d, 0x39, 0xe8, 0x33, 0xd2, 0x40,
  0x0a, 0xdd, 0xe1, 0xd1, 0x1b, 0xdc, 0x29, 0x30, 0xfc, 0xf6, 0x32, 0xc3,
  0x0c, 0x28, 0x5c, 0xe5, 0x09, 0x15, 0xe2, 0x10, 0x4c, 0x39, 0xc1, 0xd4,
  0x13, 0x13, 0x34, 0x42, 0xeb, 0xe5, 0xd9, 0xf7, 0xd4, 0xd0, 0xec, 0xf9,
  0x27, 0xd6, 0x3c, 0x1a, 0x41, 0x16, 0xd8, 0x38, 0x22, 0x45, 0xca, 0xd4,
  0xef, 0x38, 0xf6, 0x01, 0x3f, 0xe2, 0xcf, 0x02, 0xd4, 0x47, 0x37, 0xc4,
  0x3e, 0x2f, 0xed, 0x40, 0xc9, 0x29, 0x53, 0x30, 0x2a, 0xd6, 0xd7, 0x35,
  0x3b, 0xcd, 0xe7, 0xff, 0xdb, 0x16, 0x26, 0x2a, 0x18, 0xfd, 0x15, 0xce,
  0x22, 0xf9, 0x36, 0x1b, 0xf5, 0x3b, 0x41, 0x24, 0x04, 0x02, 0x02, 0xc8,
  0x70, 0xd4, 0x48, 0x13, 0xe8, 0xe4, 0x3f, 0xc5, 0x0a, 0xe9, 0x4b, 0x3f,
  0x03, 0x22, 0xdc, 0xcd, 0x0f, 0x1f, 0xd5, 0x11, 0xfd, 0xd6, 0xdb, 0x09,
  0x34, 0xe8, 0xc3, 0xdd, 0xec, 0x17, 0x30, 0x3c, 0xd7, 0xf7, 0x61, 0xea,
  0x2a, 0x20, 0x56, 0x23, 0xf2, 0x0b, 0x0c, 0xcd, 0x10, 0x15, 0x56, 0xe5,
  0x56, 0xdc, 0x2e, 0x2f, 0x48, 0x3a, 0x10, 0xd9, 0xc4, 0x2c, 0x3c, 0x3c,
  0x07, 0x13, 0x1c, 0x04, 0x63, 0x44, 0x1b, 0xf5, 0x1e, 0x53, 0x08, 0x24,
  0x30, 0xe0, 0x2e, 0xe0, 0x1f, 0x33, 0xd3, 0xd8, 0x27, 0x21, 0x32, 0x41,
  0x37, 0xe2, 0x13, 0x45, 0xd5, 0xea, 0xec, 0xf8, 0x00, 0x05, 0xe2, 0x4a,
  0x3c, 0x10, 0x04, 0xf5, 0x4c, 0xf6, 0xef, 0xc3, 0x02, 0xff, 0x24, 0xd6,
  0x3d, 0xe4, 0x4b, 0x19, 0x36, 0x11, 0xed, 0xf7, 0x46, 0x05, 0xe4, 0xf3,
  0x3d, 0x00, 0xe0, 0x58, 0x35, 0x29, 0xee, 0x1a, 0xe7, 0xc6, 0x48, 0x40,
  0xc4, 0xe3, 0xfc, 0x38, 0xf5, 0xfc, 0xe1, 0x3d, 0x41, 0x11, 0x43, 0x1e,
  0xc1, 0xd9, 0x3a, 0x0a, 0x58, 0xe3, 0x1e, 0xe1, 0xfc, 0x0a, 0xe7, 0x24,
  0x24, 0xf7, 0x04, 0x09, 0xd7, 0x19, 0x3b, 0xc8, 0x54, 0xdb, 0x44, 0x33,
  0x29, 0xfa, 0xd5, 0xd4, 0x3d, 0x2f, 0x20, 0x3b, 0x10, 0x52, 0x3e, 0x40,
  0xe9, 0x2a, 0xfe, 0x08, 0xe7, 0x01, 0xca, 0x5b, 0xc9, 0xbc, 0xfc, 0xbf,
  0x09, 0xf0, 0xc5, 0x39, 0x3b, 0xf3, 0xd5, 0x30, 0xba, 0x36, 0x25, 0x04,
  0x11, 0xf0, 0x4e, 0xe0, 0xf4, 0x13, 0x15, 0x20, 0xe6, 0x4c, 0xd1, 0xfc,
  0xf3, 0x06, 0x3a, 0xfa, 0x10, 0x1d, 0x52, 0x29, 0x57, 0x26, 0x49, 0x2b,
  0x00, 0xbe, 0xff, 0x2c, 0x22, 0x14, 0x58, 0xd7, 0x3f, 0x23, 0x53, 0x0a,
  0xc7, 0x07, 0xcb, 0x09, 0x2e, 0x3c, 0xf8, 0xef, 0xe4, 0xf3, 0x08, 0x4a,
  0xe2, 0x08, 0x22, 0x48, 0x22, 0xf9, 0xd0, 0xf6, 0xd8, 0xf8, 0x47, 0xfe,
  0xf9, 0x08, 0xd1, 0xda, 0x45, 0x1f, 0x4b, 0x36, 0xc5, 0x22, 0x3e, 0xef,
  0xfe, 0xdf, 0xdf, 0x3c, 0x02, 0x69, 0xdc, 0x26, 0xcb, 0x1d, 0xe3, 0xfd,
  0xe5, 0xfe, 0xd0, 0xd0, 0xd5, 0x02, 0x03, 0xfd, 0x18, 0x0b, 0xd5, 0x21,
  0xf9, 0xe6, 0xd1, 0xf1, 0xcb, 0x09, 0x21, 0xda, 0x0a, 0x1d, 0x1f, 0x47,
  0x10, 0xe6, 0x1c, 0xc3, 0x12, 0xfd, 0xca, 0x47, 0xc2, 0xff, 0xda, 0x51,
  0x0f, 0xd7, 0xd9, 0xeb, 0x2a, 0xd1, 0xdf, 0xf1, 0xfd, 0xc6, 0xdc, 0x39,
  0xeb, 0xe9, 0x3a, 0xe7, 0xed, 0xeb, 0x06, 0x21, 0xe6, 0x0b, 0x10, 0x27,
  0xed, 0x1d, 0xcc, 0xfb, 0x02, 0xfb, 0xf2, 0xc9, 0xb6, 0xed, 0x0d, 0x1c,
  0x42, 0x15, 0x38, 0xd0, 0xd4, 0x4c, 0x01, 0x38, 0x3f, 0x07, 0x1b, 0x2f,
  0x1a, 0x22, 0xc8, 0x18, 0x05, 0x05, 0x40, 0xe0, 0x14, 0xc5, 0xd8, 0x24,
  0xc5, 0xfe, 0x0e, 0xd5, 0xcb, 0x29, 0xbf, 0x40, 0x45, 0xb6, 0x4b, 0x40,
  0xd6, 0xf3, 0xe5, 0x35, 0x1b, 0x00, 0xc9, 0xf3, 0xd7, 0x36, 0x35, 0x1d,
  0x38, 0x41, 0x00, 0x25, 0x00, 0xdd, 0xb6, 0x45, 0xf7, 0xf2, 0xef, 0xf9,
  0x09, 0xc6, 0xe7, 0xc4, 0x23, 0x2d, 0xe5, 0xff, 0xba, 0xf6, 0x26, 0x31,
  0x0a, 0xed, 0x13, 0xd3, 0xcc, 0xd6, 0x1f, 0x37, 0x36, 0xe6, 0x16, 0xc2,
  0x34, 0xf3, 0xe6, 0xf0, 0xe5, 0x23, 0xe4, 0xdb, 0x43, 0x11, 0xd9, 0x35,
  0xf4, 0xc6, 0x19, 0xe7, 0x1b, 0xe0, 0x1e, 0xcd, 0xc1, 0x1e, 0xe5, 0x2f,
  0x46, 0x1a, 0xef, 0xe3, 0xb4, 0x07, 0xe6, 0xf6, 0x0c, 0xce, 0xc1, 0x28,
  0xdd, 0x31, 0x08, 0xe1, 0xbb, 0x0e, 0x09, 0x39, 0xd3, 0x31, 0xe0, 0x1b,
  0x39, 0xdf, 0xf3, 0x28, 0x3c, 0xc9, 0x2e, 0x2e, 0x2c, 0xdd, 0xec, 0xc1,
  0xc4, 0xf9, 0xcd, 0xe1, 0x07, 0xd3, 0x24, 0x1f, 0xdc, 0x11, 0xcb, 0x11,
  0x02, 0xbf, 0x04, 0x29, 0x12, 0xce, 0x0c, 0x13, 0xe4, 0x36, 0x1c, 0x27,
  0xc0, 0x0f, 0xdf, 0xf4, 0xbd, 0xdd, 0x2f, 0xef, 0xf9, 0x09, 0x2b, 0xde,
  0xf3, 0x4d, 0x35, 0xdd, 0x31, 0x32, 0xf2, 0x41, 0xc4, 0x31, 0x12, 0x0c,
  0x26, 0x39, 0xdb, 0x11, 0x01, 0x33, 0x22, 0x13, 0x36, 0xd6, 0x42, 0x0e,
  0xc2, 0xdc, 0x25, 0xec, 0x0f, 0x15, 0x1a, 0xc7, 0xda, 0xba, 0xd7, 0xda,
  0xdc, 0x0b, 0x12, 0x28, 0x01, 0x09, 0x21, 0xd4, 0x38, 0xc5, 0xcd, 0xd3,
  0x1d, 0xc6, 0x18, 0x0c, 0xec, 0x0d, 0x1c, 0x2c, 0x25, 0xc4, 0x1e, 0x14,
  0x3d, 0x45, 0xbd, 0x3f, 0xde, 0x2b, 0x25, 0x52, 0x07, 0x25, 0x2d, 0x19,
  0x31, 0x0c, 0xe7, 0xc8, 0x19, 0xe1, 0xea, 0x13, 0x1a, 0x3a, 0x1e, 0x1e,
  0x2f, 0xc8, 0xcd, 0xc2, 0x0a, 0x13, 0xbc, 0x29, 0x26, 0x2e, 0x46, 0xcd,
  0x3f, 0xce, 0x16, 0xce, 0xe6, 0x31, 0x05, 0xed, 0x36, 0xfa, 0xbf, 0x11,
  0x31, 0x12, 0xe0, 0x30, 0xe8, 0xe8, 0x18, 0xd6, 0x10, 0xc3, 0x3a, 0xcc,
  0x0d, 0x1c, 0x05, 0x38, 0xcb, 0x36, 0xdf, 0xbd, 0xdf, 0xe7, 0xf5, 0x18,
  0x1b, 0x36, 0x08, 0x4f, 0x9c, 0xe4, 0xee, 0xef, 0x0b, 0xc6, 0xca, 0xc1,
  0x06, 0x08, 0xc0, 0x3d, 0x3e, 0x48, 0x24, 0xf5, 0xbd, 0x03, 0xeb, 0x2e,
  0x11, 0x3e, 0xe9, 0xbe, 0xcb, 0xd7, 0x05, 0x14, 0xe0, 0x06, 0x46, 0xce,
  0x1d, 0x46, 0xd3, 0xd1, 0xe4, 0xe0, 0x01, 0xd5, 0x14, 0x2a, 0x00, 0x31,
  0xfd, 0xf1, 0xd9, 0xcd, 0x2d, 0x28, 0xf6, 0x28, 0xea, 0x02, 0x16, 0xfc,
  0xe1, 0xf7, 0xfc, 0xfa, 0xdd, 0xbd, 0xb7, 0xe6, 0xb8, 0xe2, 0x3c, 0xcb,
  0x0b, 0xf4, 0xd3, 0xca, 0x39, 0x24, 0xd7, 0xc4, 0x22, 0x18, 0x1f, 0xb6,
  0xef, 0x17, 0x2e, 0xc9, 0x16, 0x27, 0xdb, 0xfb, 0x0f, 0xf3, 0x2e, 0x2c,
  0xe0, 0xb2, 0xd9, 0x16, 0x29, 0x07, 0xd6, 0x44, 0xc1, 0xc5, 0x3d, 0xcc,
  0xd0, 0xc9, 0x49, 0x3f, 0x3b, 0xd0, 0xfc, 0x31, 0xfd, 0x03, 0x24, 0xbb,
  0xd9, 0x26, 0x36, 0xda, 0xd1, 0xe8, 0x3c, 0x26, 0x18, 0x19, 0x27, 0x2f,
  0x2d, 0x2f, 0xe5, 0xd0, 0xda, 0x3f, 0xf7, 0x0c, 0x02, 0xbd, 0xa8, 0x0c,
  0x2d, 0x48, 0xf2, 0x03, 0x33, 0xef, 0x05, 0x47, 0xf6, 0x19, 0xb6, 0x33,
  0x12, 0xd2, 0xd3, 0xe7, 0x42, 0xe3, 0x37, 0xc2, 0x35, 0xc6, 0xe1, 0x1f,
  0xc5, 0xde, 0x0d, 0x1f, 0xd4, 0xe9, 0x29, 0xf9, 0x10, 0x3b, 0x16, 0xe3,
  0x44, 0xf0, 0xbe, 0xf3, 0xff, 0xe5, 0xda, 0x3c, 0x44, 0xd4, 0xc1, 0xdb,
  0xc7, 0x14, 0x28, 0x30, 0x2d, 0x3e, 0xe9, 0x00, 0x00, 0x35, 0x25, 0xc4,
  0x30, 0x51, 0x00, 0x05, 0xf2, 0xb1, 0x19, 0xf4, 0x3a, 0x3c, 0xc3, 0xf9,
  0xc4, 0x13, 0xf7, 0x19, 0x1c, 0xd3, 0xe9, 0xcd, 0x1b, 0x0d, 0xeb, 0x13,
  0xf6, 0xb2, 0xbd, 0x39, 0x3c, 0xe2, 0x3e, 0x22, 0x32, 0x36, 0x3a, 0xc1,
  0xdb, 0xd3, 0x27, 0x41, 0x3d, 0xfc, 0x13, 0x47, 0xeb, 0x1b, 0x1b, 0x3b,
  0x38, 0xd2, 0x08, 0x0f, 0xc9, 0x1e, 0xe9, 0x39, 0xdc, 0x04, 0xfe, 0x11,
  0xfa, 0x3d, 0xc3, 0xf7, 0x27, 0xfa, 0xc0, 0x15, 0x25, 0x0f, 0xf9, 0xbd,
  0x9d, 0xc2, 0x15, 0xc3, 0x32, 0x34, 0x2f, 0xd6, 0xe8, 0xf1, 0xd0, 0x1a,
  0x97, 0x1f, 0x12, 0xca, 0x31, 0x3b, 0xe4, 0x3b, 0xc4, 0xe4, 0xf4, 0x27,
  0x02, 0xfd, 0xcb, 0xd8, 0x30, 0x1e, 0x31, 0x3a, 0x42, 0xf4, 0x46, 0xe4,
  0x37, 0xdf, 0x38, 0x14, 0xe0, 0xe1, 0xe2, 0xdd, 0xdb, 0xdc, 0xf9, 0xe0,
  0xaf, 0x16, 0xb6, 0xc4, 0xe9, 0x3f, 0x37, 0xe4, 0x03, 0x40, 0xb1, 0x24,
  0x49, 0xda, 0xee, 0xc5, 0x04, 0x3f, 0xb2, 0x23, 0x32, 0x16, 0x46, 0xe6,
  0x03, 0x18, 0xd3, 0x28, 0xea, 0xc4, 0xfb, 0xb8, 0xeb, 0x34, 0xff, 0x3a,
  0xfe, 0x12, 0xfc, 0x2d, 0xbf, 0x1e, 0x0b, 0xfe, 0xed, 0xc9, 0x02, 0x33,
  0xb6, 0x17, 0xc8, 0xc8, 0x37, 0x15, 0x03, 0x13, 0xf2, 0x12, 0xb0, 0xba,
  0xe8, 0xfa, 0xde, 0x42, 0x16, 0x3e, 0xee, 0x03, 0x37, 0x08, 0xd8, 0xbc,
  0xd3, 0xd0, 0xa4, 0x0b, 0x4a, 0xd0, 0x23, 0x12, 0x2c, 0x22, 0xb5, 0xcd,
  0xb9, 0xaf, 0xe9, 0xcb, 0xe4, 0x30, 0x29, 0xe0, 0xef, 0x00, 0xc2, 0xbc,
  0x41, 0x3b, 0x17, 0xf7, 0x0b, 0xb6, 0xcb, 0xfb, 0xfc, 0xcd, 0x47, 0x0f,
  0x2c, 0xc5, 0xba, 0xc3, 0xd1, 0x1b, 0xf8, 0x3b, 0xe4, 0x4b, 0x22, 0x1c,
  0x1b, 0xac, 0xb3, 0xf8, 0xc7, 0x04, 0xba, 0xe8, 0xf7, 0x3e, 0x2c, 0xdd,
  0xd5, 0x1c, 0x22, 0xc5, 0xda, 0x34, 0x9f, 0xd1, 0xca, 0xeb, 0xe5, 0xfd,
  0x2b, 0x2d, 0xd9, 0xc7, 0x0d, 0x2b, 0xbb, 0x20, 0xbe, 0xfe, 0xf1, 0xf7,
  0x01, 0xed, 0xd9, 0xda, 0x08, 0x39, 0x1a, 0xd0, 0x35, 0x1f, 0xe7, 0xc7,
  0xcc, 0x19, 0x41, 0x46, 0xff, 0xe1, 0xc7, 0xcd, 0xb0, 0xd5, 0xdc, 0xef,
  0x2e, 0xf5, 0xd3, 0xe2, 0xf0, 0xf4, 0xb9, 0xc4, 0x4d, 0xcc, 0xc9, 0xe4,
  0xcd, 0x31, 0xc3, 0x3b, 0xdb, 0x0c, 0x27, 0x3b, 0x40, 0x1a, 0x12, 0xfd,
  0xf1, 0xf7, 0x1f, 0xd1, 0xbe, 0xff, 0xbd, 0xec, 0xbc, 0xd8, 0x2f, 0xd2,
  0xbc, 0xe3, 0x01, 0xf6, 0xd8, 0xe8, 0x43, 0x04, 0x25, 0xcf, 0xbc, 0x01,
  0xe7, 0x16, 0xca, 0x41, 0x00, 0x17, 0xe7, 0x31, 0x3d, 0xc2, 0xf1, 0x34,
  0xad, 0xee, 0xf0, 0x48, 0xef, 0x04, 0xcf, 0x17, 0x46, 0x01, 0xc8, 0x1b,
  0x19, 0x0f, 0x48, 0x35, 0xf2, 0xcc, 0xd1, 0x1b, 0x27, 0xe3, 0xf4, 0x31,
  0xfb, 0xb3, 0x25, 0xe7, 0xdc, 0xf9, 0xd1, 0xba, 0xc6, 0xbd, 0xb2, 0x2b,
  0xd9, 0x24, 0xca, 0xa2, 0x0d, 0x23, 0x2f, 0x0c, 0xe9, 0xf0, 0x0e, 0xd5,
  0x19, 0xf2, 0x1c, 0x09, 0x28, 0xdd, 0x07, 0xfb, 0xb8, 0xc0, 0x39, 0xe6,
  0xbf, 0xc9, 0xee, 0x25, 0x2d, 0x00, 0xd8, 0x2b, 0xf2, 0xc7, 0xed, 0xbe,
  0x12, 0xd4, 0xf0, 0x29, 0xf6, 0x18, 0x06, 0xb9, 0xe1, 0xd3, 0xd2, 0x0e,
  0xce, 0xc9, 0xe3, 0xd3, 0x35, 0xed, 0xb3, 0xd1, 0xd3, 0x25, 0x28, 0x20,
  0x1e, 0x02, 0xf2, 0x38, 0xdd, 0xc7, 0x11, 0xf5, 0xce, 0xbf, 0x3f, 0xf7,
  0xd8, 0xd8, 0xf4, 0x03, 0x0f, 0x1a, 0xf9, 0x3c, 0xda, 0x29, 0xe0, 0x43,
  0xcd, 0x0e, 0xee, 0xfc, 0xf1, 0xd4, 0x38, 0xc0, 0x1e, 0x27, 0x2c, 0x12,
  0x1c, 0x00, 0x43, 0x27, 0xe9, 0xe5, 0xc7, 0xf5, 0x0a, 0x12, 0x07, 0x00,
  0xa7, 0x48, 0xb0, 0xd3, 0xe1, 0xcf, 0xa5, 0xf3, 0x0e, 0xbc, 0x36, 0xe2,
  0x01, 0xce, 0x2b, 0xc8, 0xe7, 0xb7, 0xe8, 0xcf, 0x32, 0xac, 0x09, 0xec,
  0xda, 0x1a, 0xcf, 0xbb, 0xff, 0xf0, 0xba, 0xef, 0x09, 0x1d, 0xba, 0x3d,
  0x01, 0x15, 0x2a, 0x17, 0xc0, 0xf2, 0xc5, 0xf3, 0x43, 0x1a, 0x07, 0x20,
  0x1a, 0xd7, 0x20, 0xd3, 0x3b, 0x10, 0x34, 0xe2, 0x18, 0x2e, 0x2d, 0xc4,
  0xc5, 0xf3, 0xf9, 0xd6, 0xf2, 0x1a, 0xe5, 0x45, 0xff, 0x02, 0xed, 0xdb,
  0x27, 0xb8, 0xa8, 0x3a, 0xfb, 0xd4, 0x19, 0xf3, 0x25, 0xfa, 0xdc, 0x20,
  0x07, 0xdc, 0xd0, 0xfd, 0x34, 0xcf, 0x2c, 0x39, 0xcb, 0x16, 0x35, 0x0e,
  0x3d, 0x2b, 0x15, 0xe8, 0xbc, 0xb2, 0xf8, 0x25, 0x01, 0xc6, 0x40, 0x09,
  0xd4, 0x01, 0xd9, 0xbc, 0xc2, 0x1d, 0xdf, 0xf4, 0xeb, 0x30, 0xfd, 0xc5,
  0xd9, 0x29, 0xe5, 0x16, 0xfa, 0x08, 0xab, 0x3e, 0x3a, 0x2b, 0xf4, 0xec,
  0xba, 0x03, 0xf5, 0x2f, 0xd7, 0xf0, 0x2a, 0xcd, 0x1a, 0xd9, 0x27, 0xd8,
  0xf7, 0xe6, 0x3f, 0xbe, 0x3d, 0xc5, 0x0d, 0x10, 0xd1, 0xd0, 0x17, 0x3d,
  0xc2, 0xee, 0xf0, 0xf5, 0x41, 0xf3, 0x09, 0xc3, 0xf5, 0xb4, 0xfa, 0xde,
  0x27, 0xcf, 0xf2, 0x3a, 0xcd, 0x20, 0x07, 0x1c, 0xad, 0xea, 0xfc, 0xd5,
  0xfe, 0xf7, 0xfa, 0xfe, 0x05, 0x27, 0x24, 0x34, 0xb1, 0xcb, 0xfe, 0xde,
  0xfc, 0xf7, 0xf4, 0x16, 0x32, 0x29, 0xc8, 0x16, 0x18, 0x3c, 0xc7, 0x34,
  0xe3, 0xc5, 0xc5, 0xb8, 0x06, 0x0c, 0x0a, 0x3a, 0xad, 0xdc, 0x30, 0xd4,
  0x00, 0x12, 0xde, 0xe9, 0xfc, 0xf4, 0xf8, 0x9a, 0x1a, 0x1f, 0xca, 0x2a,
  0xcb, 0x21, 0xdf, 0xb1, 0x24, 0xf7, 0xfe, 0xdc, 0xbc, 0x0b, 0xf6, 0x2a,
  0xc2, 0x0e, 0xf8, 0x0f, 0xff, 0xb9, 0x05, 0x37, 0xbc, 0xdc, 0xad, 0xde,
  0x2e, 0x47, 0x26, 0x0a, 0xc7, 0xb3, 0x16, 0x3f, 0x3b, 0x43, 0xb0, 0x3e,
  0xf7, 0x04, 0x18, 0x08, 0x20, 0x0a, 0xeb, 0x43, 0xd5, 0xee, 0xc1, 0xbf,
  0xd1, 0x0d, 0xd2, 0xf0, 0xd8, 0x23, 0xd3, 0x01, 0xde, 0xbc, 0xec, 0x95,
  0xc3, 0xf2, 0xea, 0xea, 0xf2, 0x2b, 0xb9, 0x2a, 0x37, 0xf5, 0xc8, 0x13,
  0x2f, 0x11, 0x2d, 0x16, 0xce, 0xb2, 0x11, 0xce, 0xea, 0xf7, 0xce, 0xd7,
  0xde, 0x0e, 0xa7, 0xd8, 0x9d, 0x26, 0x2f, 0xc8, 0xd7, 0x1c, 0x9b, 0x33,
  0xf8, 0x15, 0xcb, 0x46, 0xc2, 0xce, 0xd4, 0xd5, 0xbc, 0xf2, 0xe0, 0x42,
  0xd5, 0xdc, 0xe3, 0x1d, 0xd3, 0xbd, 0x03, 0xad, 0x33, 0xfa, 0xf1, 0x08,
  0xa4, 0x3b, 0xe1, 0xa3, 0x11, 0x38, 0xb8, 0xd1, 0x20, 0xa6, 0xba, 0xf1,
  0xfc, 0xc8, 0x03, 0xdb, 0xe0, 0x1c, 0xc6, 0x2f, 0xa2, 0x22, 0x23, 0x24,
  0xbd, 0xdd, 0xea, 0x38, 0xd1, 0x19, 0x09, 0xb9, 0x2a, 0xef, 0xb4, 0x29,
  0xc9, 0x25, 0xfa, 0x07, 0x3e, 0xb9, 0x1c, 0xbe, 0x31, 0x06, 0xe4, 0x0f,
  0x2c, 0x29, 0x0a, 0xcd, 0x10, 0xcd, 0x1a, 0xde, 0xc2, 0xf4, 0xfb, 0xc5,
  0xdd, 0xe6, 0xe9, 0xea, 0xc4, 0x30, 0x04, 0xac, 0x2f, 0x1f, 0xdc, 0x1c,
  0x26, 0xd0, 0x06, 0x39, 0xf5, 0xd6, 0xa9, 0xff, 0x23, 0xcd, 0x20, 0xfb,
  0xf8, 0xd1, 0xe3, 0x1f, 0xe5, 0xe7, 0xef, 0xe8, 0x25, 0xec, 0xaa, 0x10,
  0xa8, 0xe6, 0x08, 0xe1, 0x2a, 0x28, 0x21, 0xb8, 0xe0, 0x41, 0xcf, 0x3e,
  0x48, 0x36, 0x09, 0xc5, 0x19, 0xe7, 0x2f, 0x0b, 0x2d, 0xfd, 0x2c, 0xdc,
  0xfb, 0x28, 0x34, 0x24, 0xff, 0x2a, 0xfc, 0xf2, 0xef, 0x17, 0xfe, 0xbc,
  0xcd, 0xfa, 0xfc, 0xc6, 0xc7, 0xa2, 0x3f, 0xc9, 0x07, 0x33, 0xe1, 0xe6,
  0x33, 0x22, 0xba, 0xbf, 0xd6, 0x1f, 0xd4, 0xc4, 0xf2, 0xe7, 0x04, 0xc8,
  0xe2, 0xf6, 0xb0, 0xef, 0xf5, 0xff, 0xdb, 0x04, 0xc4, 0x37, 0xa1, 0xb8,
  0xae, 0xfd, 0xff, 0xff, 0x04, 0x00, 0x00, 0x00, 0x08, 0x00, 0x00, 0x00,
  0xff, 0xff, 0xff, 0xff, 0x40, 0x06, 0x00, 0x00, 0xc2, 0xfd, 0xff, 0xff,
  0x04, 0x00, 0x00, 0x00, 0x08, 0x00, 0x00, 0x00, 0x66, 0x00, 0x00, 0x00,
  0x9a, 0xff, 0xff, 0xff, 0xd6, 0xfd, 0xff, 0xff, 0x04, 0x00, 0x00, 0x00,
  0x00, 0x01, 0x00, 0x00, 0xd1, 0xff, 0xff, 0xff, 0xfe, 0xff, 0xff, 0xff,
  0x28, 0x00, 0x00, 0x00, 0x98, 0xff, 0xff, 0xff, 0x27, 0x00, 0x00, 0x00,
  0x21, 0x00, 0x00, 0x00, 0x36, 0x00, 0x00, 0x00, 0xd1, 0xff, 0xff, 0xff,
  0xd4, 0xff, 0xff, 0xff, 0x26, 0x00, 0x00, 0x00, 0xce, 0xff, 0xff, 0xff,
  0x24, 0x00, 0x00, 0x00, 0x28, 0x00, 0x00, 0x00, 0x11, 0x00, 0x00, 0x00,
  0x05, 0x00, 0x00, 0x00, 0x12, 0x00, 0x00, 0x00, 0xf6, 0xff, 0xff, 0xff,
  0x26, 0x00, 0x00, 0x00, 0x1c, 0x00, 0x00, 0x00, 0x42, 0x00, 0x00, 0x00,
  0x25, 0x00, 0x00, 0x00, 0x26, 0x00, 0x00, 0x00, 0x0b, 0x00, 0x00, 0x00,
  0xce, 0xff, 0xff, 0xff, 0x3f, 0x00, 0x00, 0x00, 0xcb, 0xff, 0xff, 0xff,
  0x00, 0x00, 0x00, 0x00, 0x3b, 0x00, 0x00, 0x00, 0xd5, 0xff, 0xff, 0xff,
  0xed, 0xff, 0xff, 0xff, 0x28, 0x00, 0x00, 0x00, 0xd0, 0xff, 0xff, 0xff,
  0x00, 0x00, 0x00, 0x00, 0x33, 0x00, 0x00, 0x00, 0x11, 0x00, 0x00, 0x00,
  0x08, 0x00, 0x00, 0x00, 0x25, 0x00, 0x00, 0x00, 0x0d, 0x00, 0x00, 0x00,
  0x32, 0x00, 0x00, 0x00, 0xd0, 0xff, 0xff, 0xff, 0xd3, 0xff, 0xff, 0xff,
  0x25, 0x00, 0x00, 0x00, 0x1f, 0x00, 0x00, 0x00, 0x26, 0x00, 0x00, 0x00,
  0x2a, 0x00, 0x00, 0x00, 0x0f, 0x00, 0x00, 0x00, 0xd2, 0xff, 0xff, 0xff,
  0xff, 0xff, 0xff, 0xff, 0x1e, 0x00, 0x00, 0x00, 0x25, 0x00, 0x00, 0x00,
  0x1b, 0x00, 0x00, 0x00, 0xcc, 0xff, 0xff, 0xff, 0x21, 0x00, 0x00, 0x00,
  0xfb, 0xff, 0xff, 0xff, 0x31, 0x00, 0x00, 0x00, 0x33, 0x00, 0x00, 0x00,
  0x22, 0x00, 0x00, 0x00, 0x00, 0x00, 0x00, 0x00, 0x34, 0x00, 0x00, 0x00,
  0xd5, 0xff, 0xff, 0xff, 0x3d, 0x00, 0x00, 0x00, 0xd9, 0xff, 0xff, 0xff,
  0x1d, 0x00, 0x00, 0x00, 0x24, 0x00, 0x00, 0x00, 0xe2, 0xfe, 0xff, 0xff,
  0x04, 0x00, 0x00, 0x00, 0x80, 0x00, 0x00, 0x00, 0x01, 0x00, 0x00, 0x00,
  0xf6, 0xff, 0xff, 0xff, 0xe9, 0xff, 0xff, 0xff, 0x1c, 0x00, 0x00, 0x00,
  0x0f, 0x00, 0x00, 0x00, 0xfc, 0xff, 0xff, 0xff, 0x16, 0x00, 0x00, 0x00,
  0x26, 0x00, 0x00, 0x00, 0x11, 0x00, 0x00, 0x00, 0xeb, 0xff, 0xff, 0xff,
  0xed, 0xff, 0xff, 0xff, 0xf0, 0xff, 0xff, 0xff, 0xf9, 0xff, 0xff, 0xff,
  0x0f, 0x00, 0x00, 0x00, 0xf3, 0xff, 0xff, 0xff, 0x0a, 0x00, 0x00, 0x00,
  0x03, 0x00, 0x00, 0x00, 0xef, 0xff, 0xff, 0xff, 0x04, 0x00, 0x00, 0x00,
  0xeb, 0xff, 0xff, 0xff, 0x17, 0x00, 0x00, 0x00, 0x1b, 0x00, 0x00, 0x00,
  0x0d, 0x00, 0x00, 0x00, 0x11, 0x00, 0x00, 0x00, 0xd8, 0xff, 0xff, 0xff,
  0xff, 0xff, 0xff, 0xff, 0x1c, 0x00, 0x00, 0x00, 0x01, 0x00, 0x00, 0x00,
  0x14, 0x00, 0x00, 0x00, 0xe3, 0xff, 0xff, 0xff, 0x0e, 0x00, 0x00, 0x00,
  0xf9, 0xff, 0xff, 0xff, 0x80, 0xef, 0xff, 0xff, 0x84, 0xef, 0xff, 0xff,
  0x0f, 0x00, 0x00, 0x00, 0x4d, 0x4c, 0x49, 0x52, 0x20, 0x43, 0x6f, 0x6e,
  0x76, 0x65, 0x72, 0x74, 0x65, 0x64, 0x2e, 0x00, 0x01, 0x00, 0x00, 0x00,
  0x14, 0x00, 0x00, 0x00, 0x00, 0x00, 0x0e, 0x00, 0x18, 0x00, 0x14, 0x00,
  0x10, 0x00, 0x0c, 0x00, 0x08, 0x00, 0x04, 0x00, 0x0e, 0x00, 0x00, 0x00,
  0x14, 0x00, 0x00, 0x00, 0x1c, 0x00, 0x00, 0x00, 0x08, 0x02, 0x00, 0x00,
  0x0c, 0x02, 0x00, 0x00, 0x10, 0x02, 0x00, 0x00, 0x04, 0x00, 0x00, 0x00,
  0x6d, 0x61, 0x69, 0x6e, 0x00, 0x00, 0x00, 0x00, 0x07, 0x00, 0x00, 0x00,
  0xa4, 0x01, 0x00, 0x00, 0x40, 0x01, 0x00, 0x00, 0xf0, 0x00, 0x00, 0x00,
  0xac, 0x00, 0x00, 0x00, 0x84, 0x00, 0x00, 0x00, 0x40, 0x00, 0x00, 0x00,
  0x04, 0x00, 0x00, 0x00, 0xe6, 0xfe, 0xff, 0xff, 0x1c, 0x00, 0x00, 0x00,
  0x00, 0x00, 0x00, 0x09, 0x1c, 0x00, 0x00, 0x00, 0x20, 0x00, 0x00, 0x00,
  0x04, 0x00, 0x00, 0x00, 0x00, 0x00, 0x06, 0x00, 0x08, 0x00, 0x04, 0x00,
  0x06, 0x00, 0x00, 0x00, 0x00, 0x00, 0x80, 0x3f, 0x01, 0x00, 0x00, 0x00,
  0x0e, 0x00, 0x00, 0x00, 0x01, 0x00, 0x00, 0x00, 0x0d, 0x00, 0x00, 0x00,
  0x1e, 0xff, 0xff, 0xff, 0x14, 0x00, 0x00, 0x00, 0x00, 0x00, 0x00, 0x08,
  0x10, 0x00, 0x00, 0x00, 0x14, 0x00, 0x00, 0x00, 0x03, 0x00, 0x00, 0x00,
  0x48, 0xf0, 0xff, 0xff, 0x01, 0x00, 0x00, 0x00, 0x0d, 0x00, 0x00, 0x00,
  0x03, 0x00, 0x00, 0x00, 0x0c, 0x00, 0x00, 0x00, 0x05, 0x00, 0x00, 0x00,
  0x03, 0x00, 0x00, 0x00, 0x00, 0x00, 0x0a, 0x00, 0x10, 0x00, 0x0c, 0x00,
  0x08, 0x00, 0x04, 0x00, 0x0a, 0x00, 0x00, 0x00, 0x0c, 0x00, 0x00, 0x00,
  0x10, 0x00, 0x00, 0x00, 0x02, 0x00, 0x00, 0x00, 0x01, 0x00, 0x00, 0x00,
  0x0c, 0x00, 0x00, 0x00, 0x02, 0x00, 0x00, 0x00, 0x0b, 0x00, 0x00, 0x00,
  0x04, 0x00, 0x00, 0x00, 0x82, 0xff, 0xff, 0xff, 0x14, 0x00, 0x00, 0x00,
  0x00, 0x00, 0x00, 0x05, 0x24, 0x00, 0x00, 0x00, 0x28, 0x00, 0x00, 0x00,
  0x01, 0x00, 0x00, 0x00, 0x72, 0xff, 0xff, 0xff, 0x03, 0x00, 0x00, 0x00,
  0x03, 0x00, 0x00, 0x00, 0x03, 0x00, 0x00, 0x00, 0x03, 0x00, 0x00, 0x00,
  0x00, 0x00, 0x00, 0x01, 0x01, 0x00, 0x00, 0x00, 0x0b, 0x00, 0x00, 0x00,
  0x01, 0x00, 0x00, 0x00, 0x0a, 0x00, 0x00, 0x00, 0x62, 0xff, 0xff, 0xff,
  0x10, 0x00, 0x00, 0x00, 0x00, 0x00, 0x00, 0x01, 0x18, 0x00, 0x00, 0x00,
  0x1c, 0x00, 0x00, 0x00, 0x54, 0xff, 0xff, 0xff, 0x00, 0x00, 0x00, 0x01,
  0x01, 0x00, 0x00, 0x00, 0x01, 0x00, 0x00, 0x00, 0x01, 0x00, 0x00, 0x00,
  0x0a, 0x00, 0x00, 0x00, 0x03, 0x00, 0x00, 0x00, 0x09, 0x00, 0x00, 0x00,
  0x07, 0x00, 0x00, 0x00, 0x02, 0x00, 0x00, 0x00, 0x00, 0x00, 0x0e, 0x00,
  0x1a, 0x00, 0x14, 0x00, 0x10, 0x00, 0x0c, 0x00, 0x0b, 0x00, 0x04, 0x00,
  0x0e, 0x00, 0x00, 0x00, 0x24, 0x00, 0x00, 0x00, 0x00, 0x00, 0x00, 0x05,
  0x34, 0x00, 0x00, 0x00, 0x38, 0x00, 0x00, 0x00, 0x01, 0x00, 0x00, 0x00,
  0x00, 0x00, 0x0e, 0x00, 0x18, 0x00, 0x17, 0x00, 0x10, 0x00, 0x0c, 0x00,
  0x08, 0x00, 0x04, 0x00, 0x0e, 0x00, 0x00, 0x00, 0x02, 0x00, 0x00, 0x00,
  0x02, 0x00, 0x00, 0x00, 0x02, 0x00, 0x00, 0x00, 0x02, 0x00, 0x00, 0x00,
  0x00, 0x00, 0x00, 0x01, 0x01, 0x00, 0x00, 0x00, 0x09, 0x00, 0x00, 0x00,
  0x01, 0x00, 0x00, 0x00, 0x08, 0x00, 0x00, 0x00, 0x00, 0x00, 0x0e, 0x00,
  0x14, 0x00, 0x00, 0x00, 0x10, 0x00, 0x0c, 0x00, 0x0b, 0x00, 0x04, 0x00,
  0x0e, 0x00, 0x00, 0x00, 0x1c, 0x00, 0x00, 0x00, 0x00, 0x00, 0x00, 0x01,
  0x24, 0x00, 0x00, 0x00, 0x28, 0x00, 0x00, 0x00, 0x0c, 0x00, 0x10, 0x00,
  0x00, 0x00, 0x0c, 0x00, 0x08, 0x00, 0x07, 0x00, 0x0c, 0x00, 0x00, 0x00,
  0x00, 0x00, 0x00, 0x01, 0x01, 0x00, 0x00, 0x00, 0x01, 0x00, 0x00, 0x00,
  0x01, 0x00, 0x00, 0x00, 0x08, 0x00, 0x00, 0x00, 0x03, 0x00, 0x00, 0x00,
  0x00, 0x00, 0x00, 0x00, 0x06, 0x00, 0x00, 0x00, 0x01, 0x00, 0x00, 0x00,
  0x01, 0x00, 0x00, 0x00, 0x0e, 0x00, 0x00, 0x00, 0x01, 0x00, 0x00, 0x00,
  0x00, 0x00, 0x00, 0x00, 0x0f, 0x00, 0x00, 0x00, 0x58, 0x14, 0x00, 0x00,
  0x44, 0x12, 0x00, 0x00, 0xc4, 0x0e, 0x00, 0x00, 0x48, 0x0e, 0x00, 0x00,
  0xfc, 0x0d, 0x00, 0x00, 0x80, 0x0d, 0x00, 0x00, 0x8c, 0x0a, 0x00, 0x00,
  0x18, 0x05, 0x00, 0x00, 0x14, 0x04, 0x00, 0x00, 0x68, 0x03, 0x00, 0x00,
  0x5c, 0x02, 0x00, 0x00, 0xb0, 0x01, 0x00, 0x00, 0x1c, 0x01, 0x00, 0x00,
  0x70, 0x00, 0x00, 0x00, 0x04, 0x00, 0x00, 0x00, 0xf8, 0xeb, 0xff, 0xff,
  0x18, 0x00, 0x00, 0x00, 0x20, 0x00, 0x00, 0x00, 0x3c, 0x00, 0x00, 0x00,
  0x0f, 0x00, 0x00, 0x00, 0x00, 0x00, 0x00, 0x09, 0x44, 0x00, 0x00, 0x00,
  0x02, 0x00, 0x00, 0x00, 0xff, 0xff, 0xff, 0xff, 0x02, 0x00, 0x00, 0x00,
  0x04, 0xee, 0xff, 0xff, 0x08, 0x00, 0x00, 0x00, 0x10, 0x00, 0x00, 0x00,
  0x01, 0x00, 0x00, 0x00, 0x80, 0xff, 0xff, 0xff, 0xff, 0xff, 0xff, 0xff,
  0x01, 0x00, 0x00, 0x00, 0x00, 0x00, 0x80, 0x3b, 0x0d, 0x00, 0x00, 0x00,
  0x49, 0x64, 0x65, 0x6e, 0x74, 0x69, 0x74, 0x79, 0x5f, 0x69, 0x6e, 0x74,
  0x38, 0x00, 0x00, 0x00, 0x02, 0x00, 0x00, 0x00, 0x01, 0x00, 0x00, 0x00,
  0x02, 0x00, 0x00, 0x00, 0x60, 0xec, 0xff, 0xff, 0x18, 0x00, 0x00, 0x00,
  0x20, 0x00, 0x00, 0x00, 0x58, 0x00, 0x00, 0x00, 0x0e, 0x00, 0x00, 0x00,
  0x00, 0x00, 0x00, 0x09, 0x84, 0x00, 0x00, 0x00, 0x02, 0x00, 0x00, 0x00,
  0xff, 0xff, 0xff, 0xff, 0x02, 0x00, 0x00, 0x00, 0x44, 0xec, 0xff, 0xff,
  0x10, 0x00, 0x00, 0x00, 0x1c, 0x00, 0x00, 0x00, 0x20, 0x00, 0x00, 0x00,
  0x24, 0x00, 0x00, 0x00, 0x01, 0x00, 0x00, 0x00, 0xff, 0xff, 0xff, 0xff,
  0xff, 0xff, 0xff, 0xff, 0x00, 0x00, 0x00, 0x00, 0x01, 0x00, 0x00, 0x00,
  0x73, 0x58, 0xc8, 0x3d, 0x01, 0x00, 0x00, 0x00, 0x3b, 0x84, 0x48, 0x41,
  0x01, 0x00, 0x00, 0x00, 0xfb, 0x9b, 0x46, 0xc1, 0x30, 0x00, 0x00, 0x00,
  0x73, 0x65, 0x71, 0x75, 0x65, 0x6e, 0x74, 0x69, 0x61, 0x6c, 0x2f, 0x64,
  0x65, 0x6e, 0x73, 0x65, 0x2f, 0x4d, 0x61, 0x74, 0x4d, 0x75, 0x6c, 0x3b,
  0x73, 0x65, 0x71, 0x75, 0x65, 0x6e, 0x74, 0x69, 0x61, 0x6c, 0x2f, 0x64,
  0x65, 0x6e, 0x73, 0x65, 0x2f, 0x42, 0x69, 0x61, 0x73, 0x41, 0x64, 0x64,
  0x00, 0x00, 0x00, 0x00, 0x02, 0x00, 0x00, 0x00, 0x01, 0x00, 0x00, 0x00,
  0x02, 0x00, 0x00, 0x00, 0x08, 0xed, 0xff, 0xff, 0x18, 0x00, 0x00, 0x00,
  0x20, 0x00, 0x00, 0x00, 0x58, 0x00, 0x00, 0x00, 0x0d, 0x00, 0x00, 0x00,
  0x00, 0x00, 0x00, 0x09, 0x6c, 0x00, 0x00, 0x00, 0x02, 0x00, 0x00, 0x00,
  0xff, 0xff, 0xff, 0xff, 0x40, 0x06, 0x00, 0x00, 0xec, 0xec, 0xff, 0xff,
  0x10, 0x00, 0x00, 0x00, 0x1c, 0x00, 0x00, 0x00, 0x20, 0x00, 0x00, 0x00,
  0x24, 0x00, 0x00, 0x00, 0x01, 0x00, 0x00, 0x00, 0x80, 0xff, 0xff, 0xff,
  0xff, 0xff, 0xff, 0xff, 0x00, 0x00, 0x00, 0x00, 0x01, 0x00, 0x00, 0x00,
  0x0f, 0x60, 0x5a, 0x3e, 0x01, 0x00, 0x00, 0x00, 0xaf, 0x85, 0x59, 0x42,
  0x01, 0x00, 0x00, 0x00, 0x00, 0x00, 0x00, 0x00, 0x1a, 0x00, 0x00, 0x00,
  0x73, 0x65, 0x71, 0x75, 0x65, 0x6e, 0x74, 0x69, 0x61, 0x6c, 0x2f, 0x66,
  0x6c, 0x61, 0x74, 0x74, 0x65, 0x6e, 0x2f, 0x52, 0x65, 0x73, 0x68, 0x61,
  0x70, 0x65, 0x00, 0x00, 0x02, 0x00, 0x00, 0x00, 0x01, 0x00, 0x00, 0x00,
  0x40, 0x06, 0x00, 0x00, 0x98, 0xed, 0xff, 0xff, 0x18, 0x00, 0x00, 0x00,
  0x28, 0x00, 0x00, 0x00, 0x60, 0x00, 0x00, 0x00, 0x0c, 0x00, 0x00, 0x00,
  0x00, 0x00, 0x00, 0x09, 0x7c, 0x00, 0x00, 0x00, 0x04, 0x00, 0x00, 0x00,
  0xff, 0xff, 0xff, 0xff, 0x05, 0x00, 0x00, 0x00, 0x05, 0x00, 0x00, 0x00,
  0x40, 0x00, 0x00, 0x00, 0x84, 0xed, 0xff, 0xff, 0x10, 0x00, 0x00, 0x00,
  0x1c, 0x00, 0x00, 0x00, 0x20, 0x00, 0x00, 0x00, 0x24, 0x00, 0x00, 0x00,
  0x01, 0x00, 0x00, 0x00, 0x80, 0xff, 0xff, 0xff, 0xff, 0xff, 0xff, 0xff,
  0x00, 0x00, 0x00, 0x00, 0x01, 0x00, 0x00, 0x00, 0x0f, 0x60, 0x5a, 0x3e,
  0x01, 0x00, 0x00, 0x00, 0xaf, 0x85, 0x59, 0x42, 0x01, 0x00, 0x00, 0x00,
  0x00, 0x00, 0x00, 0x00, 0x22, 0x00, 0x00, 0x00, 0x73, 0x65, 0x71, 0x75,
  0x65, 0x6e, 0x74, 0x69, 0x61, 0x6c, 0x2f, 0x6d, 0x61, 0x78, 0x5f, 0x70,
  0x6f, 0x6f, 0x6c, 0x69, 0x6e, 0x67, 0x32, 0x64, 0x5f, 0x31, 0x2f, 0x4d,
  0x61, 0x78, 0x50, 0x6f, 0x6f, 0x6c, 0x00, 0x00, 0x04, 0x00, 0x00, 0x00,
  0x01, 0x00, 0x00, 0x00, 0x05, 0x00, 0x00, 0x00, 0x05, 0x00, 0x00, 0x00,
  0x40, 0x00, 0x00, 0x00, 0x40, 0xee, 0xff, 0xff, 0x18, 0x00, 0x00, 0x00,
  0x28, 0x00, 0x00, 0x00, 0x60, 0x00, 0x00, 0x00, 0x0b, 0x00, 0x00, 0x00,
  0x00, 0x00, 0x00, 0x09, 0xdc, 0x00, 0x00, 0x00, 0x04, 0x00, 0x00, 0x00,
  0xff, 0xff, 0xff, 0xff, 0x10, 0x00, 0x00, 0x00, 0x10, 0x00, 0x00, 0x00,
  0x40, 0x00, 0x00, 0x00, 0x2c, 0xee, 0xff, 0xff, 0x10, 0x00, 0x00, 0x00,
  0x1c, 0x00, 0x00, 0x00, 0x20, 0x00, 0x00, 0x00, 0x24, 0x00, 0x00, 0x00,
  0x01, 0x00, 0x00, 0x00, 0x80, 0xff, 0xff, 0xff, 0xff, 0xff, 0xff, 0xff,
  0x00, 0x00, 0x00, 0x00, 0x01, 0x00, 0x00, 0x00, 0x0f, 0x60, 0x5a, 0x3e,
  0x01, 0x00, 0x00, 0x00, 0xaf, 0x85, 0x59, 0x42, 0x01, 0x00, 0x00, 0x00,
  0x00, 0x00, 0x00, 0x00, 0x83, 0x00, 0x00, 0x00, 0x73, 0x65, 0x71, 0x75,
  0x65, 0x6e, 0x74, 0x69, 0x61, 0x6c, 0x2f, 0x63, 0x6f, 0x6e, 0x76, 0x32,
  0x64, 0x5f, 0x31, 0x2f, 0x52, 0x65, 0x6c, 0x75, 0x3b, 0x73, 0x65, 0x71,
  0x75, 0x65, 0x6e, 0x74, 0x69, 0x61, 0x6c, 0x2f, 0x63, 0x6f, 0x6e, 0x76,
  0x32, 0x64, 0x5f, 0x31, 0x2f, 0x42, 0x69, 0x61, 0x73, 0x41, 0x64, 0x64,
  0x3b, 0x73, 0x65, 0x71, 0x75, 0x65, 0x6e, 0x74, 0x69, 0x61, 0x6c, 0x2f,
  0x63, 0x6f, 0x6e, 0x76, 0x32, 0x64, 0x5f, 0x31, 0x2f, 0x43, 0x6f, 0x6e,
  0x76, 0x32, 0x44, 0x3b, 0x73, 0x65, 0x71, 0x75, 0x65, 0x6e, 0x74, 0x69,
  0x61, 0x6c, 0x2f, 0x63, 0x6f, 0x6e, 0x76, 0x32, 0x64, 0x5f, 0x31, 0x2f,
  0x42, 0x69, 0x61, 0x73, 0x41, 0x64, 0x64, 0x2f, 0x52, 0x65, 0x61, 0x64,
  0x56, 0x61, 0x72, 0x69, 0x61, 0x62, 0x6c, 0x65, 0x4f, 0x70, 0x2f, 0x72,
  0x65, 0x73, 0x6f, 0x75, 0x72, 0x63, 0x65, 0x00, 0x04, 0x00, 0x00, 0x00,
  0x01, 0x00, 0x00, 0x00, 0x10, 0x00, 0x00, 0x00, 0x10, 0x00, 0x00, 0x00,
  0x40, 0x00, 0x00, 0x00, 0x48, 0xef, 0xff, 0xff, 0x18, 0x00, 0x00, 0x00,
  0x28, 0x00, 0x00, 0x00, 0x60, 0x00, 0x00, 0x00, 0x0a, 0x00, 0x00, 0x00,
  0x00, 0x00, 0x00, 0x09, 0x7c, 0x00, 0x00, 0x00, 0x04, 0x00, 0x00, 0x00,
  0xff, 0xff, 0xff, 0xff, 0x10, 0x00, 0x00, 0x00, 0x10, 0x00, 0x00, 0x00,
  0x20, 0x00, 0x00, 0x00, 0x34, 0xef, 0xff, 0xff, 0x10, 0x00, 0x00, 0x00,
  0x1c, 0x00, 0x00, 0x00, 0x20, 0x00, 0x00, 0x00, 0x24, 0x00, 0x00, 0x00,
  0x01, 0x00, 0x00, 0x00, 0x80, 0xff, 0xff, 0xff, 0xff, 0xff, 0xff, 0xff,
  0x00, 0x00, 0x00, 0x00, 0x01, 0x00, 0x00, 0x00, 0xa9, 0x7e, 0xd6, 0x3e,
  0x01, 0x00, 0x00, 0x00, 0x2a, 0xa8, 0xd5, 0x42, 0x01, 0x00, 0x00, 0x00,
  0x00, 0x00, 0x00, 0x00, 0x20, 0x00, 0x00, 0x00, 0x73, 0x65, 0x71, 0x75,
  0x65, 0x6e, 0x74, 0x69, 0x61, 0x6c, 0x2f, 0x6d, 0x61, 0x78, 0x5f, 0x70,
  0x6f, 0x6f, 0x6c, 0x69, 0x6e, 0x67, 0x32, 0x64, 0x2f, 0x4d, 0x61, 0x78,
  0x50, 0x6f, 0x6f, 0x6c, 0x00, 0x00, 0x00, 0x00, 0x04, 0x00, 0x00, 0x00,
  0x01, 0x00, 0x00, 0x00, 0x10, 0x00, 0x00, 0x00, 0x10, 0x00, 0x00, 0x00,
  0x20, 0x00, 0x00, 0x00, 0xf0, 0xef, 0xff, 0xff, 0x18, 0x00, 0x00, 0x00,
  0x28, 0x00, 0x00, 0x00, 0x60, 0x00, 0x00, 0x00, 0x09, 0x00, 0x00, 0x00,
  0x00, 0x00, 0x00, 0x09, 0xd4, 0x00, 0x00, 0x00, 0x04, 0x00, 0x00, 0x00,
  0xff, 0xff, 0xff, 0xff, 0x20, 0x00, 0x00, 0x00, 0x20, 0x00, 0x00, 0x00,
  0x20, 0x00, 0x00, 0x00, 0xdc, 0xef, 0xff, 0xff, 0x10, 0x00, 0x00, 0x00,
  0x1c, 0x00, 0x00, 0x00, 0x20, 0x00, 0x00, 0x00, 0x24, 0x00, 0x00, 0x00,
  0x01, 0x00, 0x00, 0x00, 0x80, 0xff, 0xff, 0xff, 0xff, 0xff, 0xff, 0xff,
  0x00, 0x00, 0x00, 0x00, 0x01, 0x00, 0x00, 0x00, 0xa9, 0x7e, 0xd6, 0x3e,
  0x01, 0x00, 0x00, 0x00, 0x2a, 0xa8, 0xd5, 0x42, 0x01, 0x00, 0x00, 0x00,
  0x00, 0x00, 0x00, 0x00, 0x7b, 0x00, 0x00, 0x00, 0x73, 0x65, 0x71, 0x75,
  0x65, 0x6e, 0x74, 0x69, 0x61, 0x6c, 0x2f, 0x63, 0x6f, 0x6e, 0x76, 0x32,
  0x64, 0x2f, 0x52, 0x65, 0x6c, 0x75, 0x3b, 0x73, 0x65, 0x71, 0x75, 0x65,
  0x6e, 0x74, 0x69, 0x61, 0x6c, 0x2f, 0x63, 0x6f, 0x6e, 0x76, 0x32, 0x64,
  0x2f, 0x42, 0x69, 0x61, 0x73, 0x41, 0x64, 0x64, 0x3b, 0x73, 0x65, 0x71,
  0x75, 0x65, 0x6e, 0x74, 0x69, 0x61, 0x6c, 0x2f, 0x63, 0x6f, 0x6e, 0x76,
  0x32, 0x64, 0x2f, 0x43, 0x6f, 0x6e, 0x76, 0x32, 0x44, 0x3b, 0x73, 0x65,
  0x71, 0x75, 0x65, 0x6e, 0x74, 0x69, 0x61, 0x6c, 0x2f, 0x63, 0x6f, 0x6e,
  0x76, 0x32, 0x64, 0x2f, 0x42, 0x69, 0x61, 0x73, 0x41, 0x64, 0x64, 0x2f,
  0x52, 0x65, 0x61, 0x64, 0x56, 0x61, 0x72, 0x69, 0x61, 0x62, 0x6c, 0x65,
  0x4f, 0x70, 0x2f, 0x72, 0x65, 0x73, 0x6f, 0x75, 0x72, 0x63, 0x65, 0x00,
  0x04, 0x00, 0x00, 0x00, 0x01, 0x00, 0x00, 0x00, 0x20, 0x00, 0x00, 0x00,
  0x20, 0x00, 0x00, 0x00, 0x20, 0x00, 0x00, 0x00, 0xfa, 0xf2, 0xff, 0xff,
  0x14, 0x00, 0x00, 0x00, 0x34, 0x05, 0x00, 0x00, 0x08, 0x00, 0x00, 0x00,
  0x00, 0x00, 0x00, 0x09, 0x48, 0x05, 0x00, 0x00, 0xc4, 0xf0, 0xff, 0xff,
  0x10, 0x00, 0x00, 0x00, 0x10, 0x02, 0x00, 0x00, 0x10, 0x03, 0x00, 0x00,
  0x10, 0x04, 0x00, 0x00, 0x40, 0x00, 0x00, 0x00, 0x00, 0x00, 0x00, 0x00,
  0x00, 0x00, 0x00, 0x00, 0x00, 0x00, 0x00, 0x00, 0x00, 0x00, 0x00, 0x00,
  0x00, 0x00, 0x00, 0x00, 0x00, 0x00, 0x00, 0x00, 0x00, 0x00, 0x00, 0x00,
  0x00, 0x00, 0x00, 0x00, 0x00, 0x00, 0x00, 0x00, 0x00, 0x00, 0x00, 0x00,
  0x00, 0x00, 0x00, 0x00, 0x00, 0x00, 0x00, 0x00, 0x00, 0x00, 0x00, 0x00,
  0x00, 0x00, 0x00, 0x00, 0x00, 0x00, 0x00, 0x00, 0x00, 0x00, 0x00, 0x00,
  0x00, 0x00, 0x00, 0x00, 0x00, 0x00, 0x00, 0x00, 0x00, 0x00, 0x00, 0x00,
  0x00, 0x00, 0x00, 0x00, 0x00, 0x00, 0x00, 0x00, 0x00, 0x00, 0x00, 0x00,
  0x00, 0x00, 0x00, 0x00, 0x00, 0x00, 0x00, 0x00, 0x00, 0x00, 0x00, 0x00,
  0x00, 0x00, 0x00, 0x00, 0x00, 0x00, 0x00, 0x00, 0x00, 0x00, 0x00, 0x00,
  0x00, 0x00, 0x00, 0x00, 0x00, 0x00, 0x00, 0x00, 0x00, 0x00, 0x00, 0x00,
  0x00, 0x00, 0x00, 0x00, 0x00, 0x00, 0x00, 0x00, 0x00, 0x00, 0x00, 0x00,
  0x00, 0x00, 0x00, 0x00, 0x00, 0x00, 0x00, 0x00, 0x00, 0x00, 0x00, 0x00,
  0x00, 0x00, 0x00, 0x00, 0x00, 0x00, 0x00, 0x00, 0x00, 0x00, 0x00, 0x00,
  0x00, 0x00, 0x00, 0x00, 0x00, 0x00, 0x00, 0x00, 0x00, 0x00, 0x00, 0x00,
  0x00, 0x00, 0x00, 0x00, 0x00, 0x00, 0x00, 0x00, 0x00, 0x00, 0x00, 0x00,
  0x00, 0x00, 0x00, 0x00, 0x00, 0x00, 0x00, 0x00, 0x00, 0x00, 0x00, 0x00,
  0x00, 0x00, 0x00, 0x00, 0x00, 0x00, 0x00, 0x00, 0x00, 0x00, 0x00, 0x00,
  0x00, 0x00, 0x00, 0x00, 0x00, 0x00, 0x00, 0x00, 0x00, 0x00, 0x00, 0x00,
  0x00, 0x00, 0x00, 0x00, 0x00, 0x00, 0x00, 0x00, 0x00, 0x00, 0x00, 0x00,
  0x00, 0x00, 0x00, 0x00, 0x00, 0x00, 0x00, 0x00, 0x00, 0x00, 0x00, 0x00,
  0x00, 0x00, 0x00, 0x00, 0x00, 0x00, 0x00, 0x00, 0x00, 0x00, 0x00, 0x00,
  0x00, 0x00, 0x00, 0x00, 0x00, 0x00, 0x00, 0x00, 0x00, 0x00, 0x00, 0x00,
  0x00, 0x00, 0x00, 0x00, 0x00, 0x00, 0x00, 0x00, 0x00, 0x00, 0x00, 0x00,
  0x00, 0x00, 0x00, 0x00, 0x00, 0x00, 0x00, 0x00, 0x00, 0x00, 0x00, 0x00,
  0x00, 0x00, 0x00, 0x00, 0x00, 0x00, 0x00, 0x00, 0x00, 0x00, 0x00, 0x00,
  0x00, 0x00, 0x00, 0x00, 0x00, 0x00, 0x00, 0x00, 0x00, 0x00, 0x00, 0x00,
  0x00, 0x00, 0x00, 0x00, 0x00, 0x00, 0x00, 0x00, 0x00, 0x00, 0x00, 0x00,
  0x00, 0x00, 0x00, 0x00, 0x00, 0x00, 0x00, 0x00, 0x00, 0x00, 0x00, 0x00,
  0x00, 0x00, 0x00, 0x00, 0x00, 0x00, 0x00, 0x00, 0x00, 0x00, 0x00, 0x00,
  0x00, 0x00, 0x00, 0x00, 0x00, 0x00, 0x00, 0x00, 0x00, 0x00, 0x00, 0x00,
  0x00, 0x00, 0x00, 0x00, 0x00, 0x00, 0x00, 0x00, 0x00, 0x00, 0x00, 0x00,
  0x00, 0x00, 0x00, 0x00, 0x00, 0x00, 0x00, 0x00, 0x00, 0x00, 0x00, 0x00,
  0x00, 0x00, 0x00, 0x00, 0x00, 0x00, 0x00, 0x00, 0x00, 0x00, 0x00, 0x00,
  0x00, 0x00, 0x00, 0x00, 0x00, 0x00, 0x00, 0x00, 0x00, 0x00, 0x00, 0x00,
  0x00, 0x00, 0x00, 0x00, 0x00, 0x00, 0x00, 0x00, 0x00, 0x00, 0x00, 0x00,
  0x00, 0x00, 0x00, 0x00, 0x00, 0x00, 0x00, 0x00, 0x00, 0x00, 0x00, 0x00,
  0x00, 0x00, 0x00, 0x00, 0x00, 0x00, 0x00, 0x00, 0x00, 0x00, 0x00, 0x00,
  0x00, 0x00, 0x00, 0x00, 0x00, 0x00, 0x00, 0x00, 0x00, 0x00, 0x00, 0x00,
  0x00, 0x00, 0x00, 0x00, 0x00, 0x00, 0x00, 0x00, 0x00, 0x00, 0x00, 0x00,
  0x00, 0x00, 0x00, 0x00, 0x00, 0x00, 0x00, 0x00, 0x00, 0x00, 0x00, 0x00,
  0x00, 0x00, 0x00, 0x00, 0x00, 0x00, 0x00, 0x00, 0x00, 0x00, 0x00, 0x00,
  0x00, 0x00, 0x00, 0x00, 0x00, 0x00, 0x00, 0x00, 0x00, 0x00, 0x00, 0x00,
  0x00, 0x00, 0x00, 0x00, 0x40, 0x00, 0x00, 0x00, 0x3d, 0xac, 0x81, 0x3a,
  0x2b, 0xa9, 0x81, 0x3a, 0xae, 0x61, 0x89, 0x3a, 0x02, 0x5c, 0x8b, 0x3a,
  0x9a, 0x95, 0x83, 0x3a, 0xb7, 0x5d, 0x84, 0x3a, 0x69, 0xc9, 0x8b, 0x3a,
  0x7c, 0x00, 0x83, 0x3a, 0xf8, 0xf2, 0x91, 0x3a, 0x6a, 0xcb, 0x8d, 0x3a,
  0x85, 0x9f, 0x85, 0x3a, 0xd1, 0x0e, 0x91, 0x3a, 0x6a, 0x63, 0x85, 0x3a,
  0x57, 0x4d, 0x90, 0x3a, 0x99, 0x69, 0x81, 0x3a, 0x61, 0xde, 0x8b, 0x3a,
  0x2b, 0xd2, 0x81, 0x3a, 0xab, 0x1a, 0x83, 0x3a, 0xc5, 0x24, 0x86, 0x3a,
  0x3e, 0x29, 0x85, 0x3a, 0x5c, 0xe2, 0x84, 0x3a, 0x5c, 0xe8, 0x8a, 0x3a,
  0x17, 0xab, 0x84, 0x3a, 0x07, 0x64, 0x87, 0x3a, 0xa1, 0x86, 0x91, 0x3a,
  0x8a, 0x20, 0x84, 0x3a, 0xaf, 0xb6, 0x80, 0x3a, 0x42, 0xd0, 0x87, 0x3a,
  0xd6, 0xcc, 0x8b, 0x3a, 0x34, 0x6d, 0x82, 0x3a, 0x6c, 0x35, 0x90, 0x3a,
  0xa7, 0x63, 0x87, 0x3a, 0x16, 0x0b, 0x7e, 0x3a, 0x5f, 0x25, 0x93, 0x3a,
  0xa1, 0xd9, 0x86, 0x3a, 0x1a, 0x86, 0x83, 0x3a, 0xf1, 0x6c, 0x8f, 0x3a,
  0x19, 0xb9, 0x84, 0x3a, 0xd5, 0xc7, 0x85, 0x3a, 0x70, 0xea, 0x84, 0x3a,
  0x02, 0xaa, 0x8c, 0x3a, 0x82, 0x43, 0x8c, 0x3a, 0x8a, 0xa5, 0x92, 0x3a,
  0xe5, 0x38, 0x8a, 0x3a, 0x32, 0x4e, 0x92, 0x3a, 0xda, 0x71, 0x80, 0x3a,
  0x58, 0xf9, 0x82, 0x3a, 0x60, 0xc1, 0x80, 0x3a, 0xb7, 0xf4, 0x8d, 0x3a,
  0x64, 0x38, 0x8b, 0x3a, 0x90, 0x56, 0x89, 0x3a, 0xa7, 0xd7, 0x83, 0x3a,
  0x50, 0x02, 0x8b, 0x3a, 0x16, 0x60, 0x85, 0x3a, 0x7a, 0xb8, 0x82, 0x3a,
  0x72, 0xde, 0x8a, 0x3a, 0x90, 0xc0, 0x82, 0x3a, 0xce, 0x36, 0x80, 0x3a,
  0xe1, 0x47, 0x8b, 0x3a, 0x14, 0x06, 0x8c, 0x3a, 0x42, 0xd4, 0x88, 0x3a,
  0x26, 0xb6, 0x97, 0x3a, 0xbd, 0x77, 0x8b, 0x3a, 0xa7, 0x20, 0x90, 0x3a,
  0x40, 0x00, 0x00, 0x00, 0xec, 0xd9, 0xfb, 0x3d, 0xf0, 0xc1, 0xff, 0x3d,
  0xeb, 0x4e, 0x08, 0x3e, 0x64, 0x98, 0xe7, 0x3d, 0x72, 0xb3, 0x00, 0x3e,
  0xf8, 0x31, 0xfc, 0x3d, 0xd6, 0xb1, 0x0a, 0x3e, 0x65, 0x6b, 0xf5, 0x3d,
  0x12, 0xcf, 0x10, 0x3e, 0xd3, 0xaf, 0x0c, 0x3e, 0x8c, 0x7b, 0x03, 0x3e,
  0xb3, 0xec, 0x0f, 0x3e, 0xa2, 0x17, 0x00, 0x3e, 0xbc, 0x2c, 0x0f, 0x3e,
  0x7c, 0xcf, 0xf9, 0x3d, 0xc8, 0x2f, 0x05, 0x3e, 0x89, 0xc9, 0xfa, 0x3d,
  0x76, 0x14, 0x02, 0x3e, 0x7b, 0x18, 0x05, 0x3e, 0xec, 0x1e, 0x04, 0x3e,
  0x97, 0xd8, 0x03, 0x3e, 0x1f, 0xba, 0xff, 0x3d, 0x94, 0xef, 0xf7, 0x3d,
  0x12, 0xac, 0xf6, 0x3d, 0x94, 0x63, 0x10, 0x3e, 0xed, 0x16, 0x00, 0x3e,
  0x84, 0x6a, 0xff, 0x3d, 0xa1, 0xc0, 0x06, 0x3e, 0xf9, 0x22, 0xfd, 0x3d,
  0x18, 0x3f, 0xf9, 0x3d, 0x01, 0x15, 0x0f, 0x3e, 0x74, 0x44, 0x01, 0x3e,
  0x90, 0x2e, 0xfb, 0x3d, 0xd1, 0x19, 0x0a, 0x3e, 0x22, 0x5b, 0x02, 0x3e,
  0xa8, 0xf2, 0x01, 0x3e, 0x17, 0x4e, 0x0e, 0x3e, 0xa7, 0xaf, 0x03, 0x3e,
  0xd5, 0xd4, 0xfc, 0x3d, 0xbe, 0x65, 0x02, 0x3e, 0x53, 0x85, 0xfd, 0x3d,
  0xd9, 0x0b, 0xef, 0x3d, 0x3f, 0x80, 0x11, 0x3e, 0x73, 0x24, 0x09, 0x3e,
  0x96, 0x29, 0x11, 0x3e, 0xed, 0xe1, 0xfe, 0x3d, 0x42, 0x7a, 0xfc, 0x3d,
  0xcc, 0x10, 0xff, 0x3d, 0x38, 0xff, 0x0b, 0x3e, 0xf3, 0x21, 0x0a, 0x3e,
  0x89, 0xa3, 0x04, 0x3e, 0xf8, 0xcf, 0x02, 0x3e, 0x44, 0x2f, 0xfe, 0x3d,
  0x4b, 0x1f, 0x01, 0x3e, 0x09, 0xb3, 0x01, 0x3e, 0xb5, 0xc8, 0x09, 0x3e,
  0xad, 0x50, 0xf8, 0x3d, 0x44, 0x0e, 0xfb, 0x3d, 0x51, 0x31, 0x0a, 0x3e,
  0xc7, 0xbd, 0xfe, 0x3d, 0x99, 0xc2, 0x07, 0x3e, 0xbe, 0x8e, 0xf7, 0x3d,
  0xce, 0x60, 0x0a, 0x3e, 0x66, 0x00, 0x0f, 0x3e, 0x40, 0x00, 0x00, 0x00,
  0xe5, 0xa8, 0x00, 0xbe, 0xd9, 0xa5, 0x00, 0xbe, 0xbc, 0x71, 0x01, 0xbe,
  0x4a, 0x45, 0x0a, 0xbe, 0x6f, 0x8e, 0x02, 0xbe, 0xfc, 0x54, 0x03, 0xbe,
  0x75, 0xeb, 0x00, 0xbe, 0x7b, 0xfa, 0x01, 0xbe, 0x71, 0xae, 0x08, 0xbe,
  0x7b, 0x9c, 0x01, 0xbe, 0x46, 0x94, 0x04, 0xbe, 0xb3, 0x15, 0xfd, 0xbd,
  0xa3, 0x58, 0x04, 0xbe, 0x9b, 0x5c, 0xfe, 0xbd, 0xc6, 0x66, 0x00, 0xbe,
  0xa4, 0xc6, 0x0a, 0xbe, 0x87, 0xce, 0x00, 0xbe, 0xa1, 0x11, 0xfb, 0xbd,
  0x18, 0x88, 0xf6, 0xbd, 0x06, 0x10, 0xf8, 0xbd, 0x33, 0xdd, 0xff, 0xbd,
  0x8b, 0xd2, 0x09, 0xbe, 0xc1, 0xa1, 0x03, 0xbe, 0x3f, 0x55, 0x06, 0xbe,
  0xa2, 0xbb, 0xfd, 0xbd, 0x49, 0x18, 0x03, 0xbe, 0x44, 0x76, 0xfa, 0xbd,
  0xf1, 0x05, 0xfc, 0xbd, 0x3c, 0xb5, 0x0a, 0xbe, 0x5a, 0x68, 0x01, 0xbe,
  0x1d, 0x85, 0x08, 0xbe, 0xe0, 0x54, 0x06, 0xbe, 0x00, 0x0f, 0xfc, 0xbd,
  0x14, 0xff, 0x11, 0xbe, 0xee, 0xcb, 0x05, 0xbe, 0x0e, 0x7f, 0x02, 0xbe,
  0x28, 0xac, 0xfb, 0xbd, 0xc6, 0x4c, 0xf3, 0xbd, 0x45, 0xbc, 0x04, 0xbe,
  0x9b, 0xe0, 0x03, 0xbe, 0xae, 0x90, 0x0b, 0xbe, 0xfb, 0x2a, 0x0b, 0xbe,
  0xc5, 0x5a, 0x00, 0xbe, 0x4c, 0x9d, 0x00, 0xbe, 0x26, 0x5f, 0x0a, 0xbe,
  0xd2, 0x5b, 0xf9, 0xbd, 0x65, 0xf3, 0x01, 0xbe, 0xba, 0x7f, 0xff, 0xbd,
  0xce, 0xd8, 0x0c, 0xbe, 0x6c, 0x78, 0x00, 0xbe, 0xe3, 0x43, 0x08, 0xbe,
  0xdf, 0x8a, 0x01, 0xbe, 0x4b, 0xec, 0x09, 0xbe, 0x56, 0x55, 0x04, 0xbe,
  0x57, 0x64, 0xf1, 0xbd, 0xa0, 0x3f, 0xf9, 0xbd, 0x0f, 0xbb, 0x01, 0xbe,
  0xc0, 0x6c, 0xfe, 0xbd, 0x24, 0xd2, 0x02, 0xbe, 0x08, 0xee, 0x0a, 0xbe,
  0xdd, 0x31, 0xf4, 0xbd, 0xba, 0x86, 0x16, 0xbe, 0xfb, 0xf8, 0xfe, 0xbd,
  0xbf, 0x00, 0xf3, 0xbd, 0x1a, 0x00, 0x00, 0x00, 0x73, 0x65, 0x71, 0x75,
  0x65, 0x6e, 0x74, 0x69, 0x61, 0x6c, 0x2f, 0x63, 0x6f, 0x6e, 0x76, 0x32,
  0x64, 0x5f, 0x31, 0x2f, 0x43, 0x6f, 0x6e, 0x76, 0x32, 0x44, 0x00, 0x00,
  0x04, 0x00, 0x00, 0x00, 0x40, 0x00, 0x00, 0x00, 0x02, 0x00, 0x00, 0x00,
  0x02, 0x00, 0x00, 0x00, 0x20, 0x00, 0x00, 0x00, 0x6a, 0xf8, 0xff, 0xff,
  0x14, 0x00, 0x00, 0x00, 0xb4, 0x02, 0x00, 0x00, 0x07, 0x00, 0x00, 0x00,
  0x00, 0x00, 0x00, 0x09, 0xc8, 0x02, 0x00, 0x00, 0x34, 0xf6, 0xff, 0xff,
  0x10, 0x00, 0x00, 0x00, 0x10, 0x01, 0x00, 0x00, 0x90, 0x01, 0x00, 0x00,
  0x10, 0x02, 0x00, 0x00, 0x20, 0x00, 0x00, 0x00, 0x00, 0x00, 0x00, 0x00,
  0x00, 0x00, 0x00, 0x00, 0x00, 0x00, 0x00, 0x00, 0x00, 0x00, 0x00, 0x00,
  0x00, 0x00, 0x00, 0x00, 0x00, 0x00, 0x00, 0x00, 0x00, 0x00, 0x00, 0x00,
  0x00, 0x00, 0x00, 0x00, 0x00, 0x00, 0x00, 0x00, 0x00, 0x00, 0x00, 0x00,
  0x00, 0x00, 0x00, 0x00, 0x00, 0x00, 0x00, 0x00, 0x00, 0x00, 0x00, 0x00,
  0x00, 0x00, 0x00, 0x00, 0x00, 0x00, 0x00, 0x00, 0x00, 0x00, 0x00, 0x00,
  0x00, 0x00, 0x00, 0x00, 0x00, 0x00, 0x00, 0x00, 0x00, 0x00, 0x00, 0x00,
  0x00, 0x00, 0x00, 0x00, 0x00, 0x00, 0x00, 0x00, 0x00, 0x00, 0x00, 0x00,
  0x00, 0x00, 0x00, 0x00, 0x00, 0x00, 0x00, 0x00, 0x00, 0x00, 0x00, 0x00,
  0x00, 0x00, 0x00, 0x00, 0x00, 0x00, 0x00, 0x00, 0x00, 0x00, 0x00, 0x00,
  0x00, 0x00, 0x00, 0x00, 0x00, 0x00, 0x00, 0x00, 0x00, 0x00, 0x00, 0x00,
  0x00, 0x00, 0x00, 0x00, 0x00, 0x00, 0x00, 0x00, 0x00, 0x00, 0x00, 0x00,
  0x00, 0x00, 0x00, 0x00, 0x00, 0x00, 0x00, 0x00, 0x00, 0x00, 0x00, 0x00,
  0x00, 0x00, 0x00, 0x00, 0x00, 0x00, 0x00, 0x00, 0x00, 0x00, 0x00, 0x00,
  0x00, 0x00, 0x00, 0x00, 0x00, 0x00, 0x00, 0x00, 0x00, 0x00, 0x00, 0x00,
  0x00, 0x00, 0x00, 0x00, 0x00, 0x00, 0x00, 0x00, 0x00, 0x00, 0x00, 0x00,
  0x00, 0x00, 0x00, 0x00, 0x00, 0x00, 0x00, 0x00, 0x00, 0x00, 0x00, 0x00,
  0x00, 0x00, 0x00, 0x00, 0x00, 0x00, 0x00, 0x00, 0x00, 0x00, 0x00, 0x00,
  0x00, 0x00, 0x00, 0x00, 0x00, 0x00, 0x00, 0x00, 0x00, 0x00, 0x00, 0x00,
  0x00, 0x00, 0x00, 0x00, 0x00, 0x00, 0x00, 0x00, 0x00, 0x00, 0x00, 0x00,
  0x00, 0x00, 0x00, 0x00, 0x00, 0x00, 0x00, 0x00, 0x00, 0x00, 0x00, 0x00,
  0x00, 0x00, 0x00, 0x00, 0x00, 0x00, 0x00, 0x00, 0x00, 0x00, 0x00, 0x00,
  0x20, 0x00, 0x00, 0x00, 0x07, 0x84, 0x84, 0x3a, 0x8d, 0xc7, 0x90, 0x3a,
  0xd7, 0x34, 0x78, 0x3a, 0xe7, 0xbb, 0x8b, 0x3a, 0x4b, 0xe9, 0x6c, 0x3a,
  0x91, 0x05, 0x8e, 0x3a, 0x58, 0x22, 0x69, 0x3a, 0xc5, 0xfd, 0x11, 0x3a,
  0x23, 0x14, 0x92, 0x3a, 0xed, 0xb3, 0x88, 0x3a, 0x64, 0x51, 0x5f, 0x3a,
  0x83, 0x2c, 0x8e, 0x3a, 0xa5, 0x72, 0x8b, 0x3a, 0xed, 0x20, 0x95, 0x3a,
  0xf0, 0xb0, 0x76, 0x3a, 0xf3, 0x0d, 0x79, 0x3a, 0x15, 0xab, 0x80, 0x3a,
  0x73, 0xec, 0x5c, 0x3a, 0xd9, 0x52, 0x81, 0x3a, 0x7c, 0xed, 0x8c, 0x3a,
  0xaf, 0x92, 0x51, 0x3a, 0x52, 0x44, 0x9e, 0x3a, 0x30, 0xe2, 0x8a, 0x3a,
  0x8e, 0x55, 0x94, 0x3a, 0xa4, 0x69, 0x1d, 0x3a, 0xca, 0x11, 0x91, 0x3a,
  0xf6, 0xce, 0x81, 0x3a, 0x14, 0x2f, 0x8e, 0x3a, 0x9b, 0x2d, 0x8d, 0x3a,
  0xe4, 0x1f, 0x70, 0x3a, 0x90, 0xb7, 0x95, 0x3a, 0x7f, 0xe0, 0x79, 0x3a,
  0x20, 0x00, 0x00, 0x00, 0xff, 0x7a, 0x03, 0x3e, 0x18, 0xa5, 0x8a, 0x3d,
  0x6d, 0x44, 0xf6, 0x3d, 0x6f, 0xa4, 0x0a, 0x3e, 0x92, 0xf2, 0xc8, 0x3d,
  0x19, 0x3e, 0xe1, 0x3d, 0x13, 0x50, 0xe7, 0x3d, 0xc9, 0xd9, 0x90, 0x3d,
